<unk>	0
<s>	0
</s>	0
▁t	-0
▁th	-1
▁a	-2
in	-3
on	-4
▁the	-5
re	-6
en	-7
at	-8
▁o	-9
er	-10
is	-11
▁w	-12
it	-13
ion	-14
▁s	-15
▁c	-16
▁of	-17
▁p	-18
an	-19
or	-20
es	-21
▁to	-22
▁b	-23
▁in	-24
al	-25
▁an	-26
ro	-27
▁f	-28
ed	-29
ent	-30
ar	-31
ic	-32
▁m	-33
ou	-34
▁and	-35
ing	-36
om	-37
▁d	-38
▁h	-39
le	-40
▁re	-41
st	-42
▁be	-43
▁n	-44
ve	-45
ct	-46
ation	-47
▁C	-48
▁is	-49
ment	-50
▁I	-51
▁e	-52
as	-53
ly	-54
▁that	-55
pe	-56
▁on	-57
▁T	-58
il	-59
▁wh	-60
▁for	-61
ot	-62
ut	-63
▁E	-64
id	-65
▁M	-66
▁pro	-67
omm	-68
▁P	-69
se	-70
▁con	-71
ce	-72
im	-73
▁l	-74
▁Th	-75
un	-76
▁g	-77
ra	-78
ur	-79
▁it	-80
et	-81
ol	-82
ort	-83
▁we	-84
res	-85
em	-86
uro	-87
ul	-88
▁Comm	-89
▁Euro	-90
▁A	-91
ld	-92
▁as	-93
ver	-94
ith	-95
▁al	-96
▁S	-97
▁Europe	-98
ch	-99
port	-100
▁ha	-101
▁are	-102
sion	-103
▁with	-104
ies	-105
ow	-106
ir	-107
▁de	-108
▁this	-109
▁(	-110
▁The	-111
▁not	-112
ould	-113
ig	-114
ich	-115
oun	-116
ity	-117
▁European	-118
ia	-119
▁st	-120
▁which	-121
ate	-122
▁have	-123
▁su	-124
ay	-125
ble	-126
th	-127
os	-128
▁by	-129
▁ex	-130
ill	-131
te	-132
▁-	-133
ers	-134
op	-135
ust	-136
▁sh	-137
ive	-138
if	-139
ad	-140
ission	-141
qu	-142
ak	-143
ter	-144
▁Commission	-145
us	-146
ci	-147
▁ne	-148
ain	-149
est	-150
▁1	-151
ore	-152
ect	-153
▁v	-154
▁Mr	-155
ber	-156
▁has	-157
arl	-158
ess	-159
▁y	-160
▁at	-161
end	-162
▁or	-163
iament	-164
▁W	-165
arliament	-166
ure	-167
art	-168
ist	-169
iv	-170
am	-171
ant	-172
▁un	-173
▁im	-174
ere	-175
▁U	-176
▁com	-177
▁will	-178
ident	-179
ions	-180
▁F	-181
pp	-182
um	-183
▁B	-184
▁ag	-185
▁D	-186
▁Parliament	-187
▁r	-188
▁res	-189
▁le	-190
ates	-191
ud	-192
our	-193
ge	-194
igh	-195
ff	-196
resident	-197
▁se	-198
ations	-199
od	-200
and	-201
▁Un	-202
so	-203
▁President	-204
▁en	-205
▁In	-206
▁all	-207
▁me	-208
up	-209
ans	-210
▁so	-211
▁should	-212
▁do	-213
ical	-214
rom	-215
el	-216
▁can	-217
tr	-218
▁ad	-219
▁Mem	-220
ard	-221
ie	-222
ult	-223
ish	-224
▁part	-225
▁pol	-226
▁from	-227
▁G	-228
iz	-229
ree	-230
▁there	-231
ight	-232
ary	-233
pl	-234
▁also	-235
der	-236
▁R	-237
ments	-238
cial	-239
▁reg	-240
▁would	-241
▁been	-242
▁O	-243
ac	-244
▁wor	-245
▁tr	-246
all	-247
▁St	-248
ction	-249
▁am	-250
▁co	-251
con	-252
du	-253
▁app	-254
▁report	-255
▁Member	-256
▁but	-257
bl	-258
▁H	-259
very	-260
ounc	-261
use	-262
vel	-263
▁must	-264
ther	-265
▁go	-266
▁Union	-267
▁comm	-268
▁qu	-269
ire	-270
ake	-271
▁19	-272
tee	-273
▁was	-274
▁N	-275
▁coun	-276
reat	-277
).	-278
ous	-279
pos	-280
▁ac	-281
▁It	-282
▁Counc	-283
oc	-284
ke	-285
▁ab	-286
si	-287
ice	-288
ject	-289
pport	-290
ome	-291
ple	-292
▁its	-293
▁countr	-294
ance	-295
▁Council	-296
▁cons	-297
▁our	-298
ational	-299
out	-300
orm	-301
▁int	-302
▁fa	-303
ri	-304
▁toe	-305
▁j	-306
gh	-307
ally	-308
int	-309
▁L	-310
ast	-311
▁inc	-312
▁cont	-313
▁We	-314
▁ch	-315
▁conc	-316
pt	-317
ittee	-318
ose	-319
able	-320
▁pos	-321
ition	-322
are	-323
oint	-324
▁dis	-325
her	-326
unity	-327
▁us	-328
▁you	-329
per	-330
ue	-331
▁199	-332
▁more	-333
▁States	-334
cess	-335
ime	-336
ities	-337
▁trans	-338
ear	-339
▁propos	-340
ence	-341
og	-342
ru	-343
▁pre	-344
▁bec	-345
ced	-346
▁very	-347
▁ind	-348
▁other	-349
ated	-350
▁pl	-351
▁work	-352
ens	-353
ial	-354
▁out	-355
ern	-356
▁one	-357
▁fin	-358
▁they	-359
▁li	-360
▁no	-361
▁import	-362
▁these	-363
▁De	-364
ong	-365
▁polic	-366
▁who	-367
form	-368
▁he	-369
ution	-370
▁their	-371
▁sub	-372
▁dec	-373
▁pe	-374
ms	-375
▁spe	-376
ause	-377
tern	-378
ces	-379
velop	-380
▁2	-381
ag	-382
▁under	-383
ark	-384
ress	-385
▁This	-386
▁need	-387
ram	-388
ach	-389
▁bet	-390
▁up	-391
cy	-392
▁countries	-393
ign	-394
pect	-395
▁Community	-396
▁k	-397
yst	-398
▁pr	-399
ide	-400
ab	-401
fore	-402
▁like	-403
ren	-404
▁te	-405
▁what	-406
conom	-407
ystem	-408
▁agree	-409
ures	-410
▁any	-411
▁leg	-412
▁act	-413
▁Committee	-414
▁only	-415
eren	-416
ll	-417
▁tra	-418
▁right	-419
▁if	-420
▁ser	-421
▁ra	-422
ost	-423
▁man	-424
sible	-425
ink	-426
tain	-427
und	-428
resent	-429
▁develop	-430
ious	-431
▁prov	-432
▁ev	-433
▁year	-434
ase	-435
get	-436
▁proposal	-437
age	-438
▁comp	-439
▁system	-440
one	-441
▁rec	-442
▁eff	-443
▁partic	-444
▁new	-445
▁prog	-446
ific	-447
▁about	-448
we	-449
▁time	-450
ative	-451
▁policy	-452
▁point	-453
estion	-454
▁than	-455
feren	-456
▁because	-457
ular	-458
irect	-459
ade	-460
▁sa	-461
▁inv	-462
ip	-463
ap	-464
roup	-465
ubl	-466
▁concern	-467
ine	-468
19	-469
▁my	-470
rit	-471
▁em	-472
▁proble	-473
ween	-474
ted	-475
lear	-476
irst	-477
▁J	-478
▁into	-479
▁per	-480
▁some	-481
ility	-482
ise	-483
▁econom	-484
▁rel	-485
eration	-486
▁between	-487
ople	-488
▁inst	-489
▁dif	-490
▁ob	-491
▁important	-492
ention	-493
▁dem	-494
sel	-495
▁appro	-496
▁now	-497
▁produ	-498
oy	-499
▁again	-500
▁such	-501
vern	-502
▁cl	-503
▁'	-504
▁support	-505
▁take	-506
▁mark	-507
ved	-508
pon	-509
▁them	-510
▁bas	-511
man	-512
▁EU	-513
▁An	-514
▁polit	-515
ame	-516
ord	-517
▁made	-518
▁tak	-519
▁were	-520
ack	-521
lud	-522
▁those	-523
▁say	-524
ugh	-525
ind	-526
▁people	-527
▁vot	-528
fic	-529
ep	-530
▁make	-531
▁V	-532
▁As	-533
▁acc	-534
▁inte	-535
now	-536
ision	-537
xt	-538
ural	-539
iew	-540
cept	-541
▁fact	-542
▁inform	-543
▁think	-544
▁particular	-545
▁imp	-546
act	-547
air	-548
ublic	-549
ace	-550
ied	-551
ramm	-552
00	-553
ever	-554
▁just	-555
ric	-556
ry	-557
ives	-558
▁deb	-559
ings	-560
▁political	-561
▁market	-562
▁when	-563
▁Con	-564
ploy	-565
▁mat	-566
ew	-567
ib	-568
▁social	-569
▁good	-570
bers	-571
▁respon	-572
ang	-573
▁sit	-574
ward	-575
▁amend	-576
▁national	-577
▁way	-578
▁op	-579
ating	-580
▁tw	-581
▁gen	-582
▁know	-583
▁question	-584
▁aut	-585
▁first	-586
ough	-587
▁how	-588
▁clear	-589
ob	-590
▁coop	-591
▁la	-592
ks	-593
abl	-594
▁requ	-595
▁economic	-596
ual	-597
▁Deb	-598
▁ar	-599
▁Debates	-600
▁ter	-601
hor	-602
min	-603
rough	-604
▁Wh	-605
rat	-606
ertain	-607
▁consid	-608
▁meas	-609
ite	-610
▁being	-611
uman	-612
ory	-613
▁iss	-614
ors	-615
▁programm	-616
udget	-617
▁over	-618
▁direct	-619
red	-620
▁ext	-621
low	-622
SE	-623
▁disc	-624
onment	-625
gan	-626
▁intern	-627
▁K	-628
ec	-629
/9	-630
wn	-631
▁view	-632
▁att	-633
▁rem	-634
eral	-635
▁may	-636
▁exam	-637
▁where	-638
▁rep	-639
▁ro	-640
▁two	-641
ustom	-642
vir	-643
ieve	-644
▁effect	-645
▁That	-646
▁serv	-647
▁shall	-648
▁cooperation	-649
chn	-650
▁ass	-651
vironment	-652
oth	-653
▁ref	-654
▁far	-655
▁had	-656
vernment	-657
▁num	-658
ove	-659
▁proced	-660
▁set	-661
ting	-662
day	-663
de	-664
▁great	-665
▁regard	-666
ety	-667
ok	-668
▁But	-669
▁certain	-670
▁Mrs	-671
uation	-672
▁possible	-673
▁see	-674
▁adop	-675
▁gu	-676
iven	-677
▁could	-678
PE	-679
▁author	-680
▁information	-681
sts	-682
lect	-683
▁human	-684
▁includ	-685
▁Am	-686
▁development	-687
▁present	-688
▁mon	-689
▁does	-690
ustoms	-691
ited	-692
▁many	-693
ving	-694
▁debate	-695
ady	-696
▁here	-697
ract	-698
ph	-699
▁even	-700
▁use	-701
ian	-702
not	-703
▁0	-704
▁appl	-705
ices	-706
▁therefore	-707
ts	-708
▁ent	-709
ulation	-710
▁Ch	-711
▁exp	-712
▁measures	-713
inci	-714
eg	-715
▁cour	-716
ency	-717
▁3	-718
ince	-719
▁So	-720
▁prote	-721
▁cannot	-722
▁public	-723
reaty	-724
▁against	-725
ful	-726
▁dra	-727
▁budget	-728
▁sect	-729
▁level	-730
▁princi	-731
olog	-732
ail	-733
isl	-734
▁years	-735
uch	-736
▁est	-737
▁within	-738
ues	-739
▁Commissioner	-740
▁intere	-741
uc	-742
olution	-743
▁There	-744
),	-745
▁incre	-746
ruct	-747
▁add	-748
▁country	-749
▁sec	-750
tic	-751
▁want	-752
▁through	-753
▁group	-754
cond	-755
eur	-756
▁ma	-757
sib	-758
ism	-759
▁same	-760
▁off	-761
ope	-762
itiz	-763
▁organ	-764
▁number	-765
▁On	-766
▁legisl	-767
utions	-768
▁law	-769
▁fund	-770
▁rights	-771
▁taken	-772
▁put	-773
▁result	-774
▁beh	-775
▁most	-776
uture	-777
▁bel	-778
ployment	-779
ether	-780
▁agreement	-781
ollow	-782
plement	-783
▁situation	-784
▁conf	-785
pporteur	-786
▁form	-787
▁future	-788
ference	-789
▁environment	-790
▁democ	-791
land	-792
alf	-793
▁des	-794
▁instit	-795
▁long	-796
▁How	-797
▁spec	-798
▁said	-799
▁ask	-800
▁too	-801
eth	-802
▁No	-803
▁reas	-804
▁rapporteur	-805
▁end	-806
▁every	-807
arge	-808
▁finan	-809
▁techn	-810
▁Treaty	-811
▁discus	-812
▁still	-813
▁inter	-814
▁well	-815
ork	-816
▁customs	-817
pet	-818
▁case	-819
ute	-820
ange	-821
▁problem	-822
▁high	-823
▁main	-824
gy	-825
▁reason	-826
▁respect	-827
▁def	-828
▁follow	-829
▁vote	-830
ves	-831
ready	-832
/97	-833
ization	-834
▁his	-835
▁sim	-836
▁own	-837
▁mem	-838
ents	-839
▁ens	-840
ass	-841
▁contin	-842
▁invol	-843
▁then	-844
ouse	-845
ication	-846
▁common	-847
▁already	-848
▁course	-849
urther	-850
▁order	-851
ized	-852
▁cur	-853
▁problems	-854
▁action	-855
▁indust	-856
vers	-857
▁subject	-858
istr	-859
men	-860
▁sp	-861
▁Al	-862
▁citiz	-863
▁implement	-864
▁necess	-865
itions	-866
▁pow	-867
ablish	-868
▁impro	-869
▁much	-870
ount	-871
ef	-872
jor	-873
▁hope	-874
▁str	-875
▁both	-876
▁means	-877
▁car	-878
▁project	-879
▁accept	-880
ax	-881
▁meet	-882
uring	-883
▁major	-884
▁legal	-885
row	-886
lu	-887
▁deal	-888
▁Mad	-889
▁Ar	-890
▁call	-891
▁cond	-892
ays	-893
fter	-894
aking	-895
▁compet	-896
▁If	-897
alth	-898
▁pers	-899
▁consider	-900
▁establish	-901
▁prev	-902
oura	-903
▁process	-904
ning	-905
▁oper	-906
▁opin	-907
ile	-908
▁exist	-909
4-	-910
▁given	-911
▁provid	-912
ird	-913
urity	-914
▁represent	-915
▁curren	-916
▁Group	-917
▁fore	-918
mit	-919
▁since	-920
▁international	-921
▁Y	-922
▁believe	-923
▁programme	-924
isions	-925
▁ach	-926
▁committee	-927
rol	-928
own	-929
▁today	-930
▁decision	-931
▁basis	-932
▁place	-933
▁without	-934
▁br	-935
▁before	-936
PSE	-937
▁consum	-938
rodu	-939
ently	-940
▁cr	-941
ules	-942
▁det	-943
▁differen	-944
omen	-945
▁var	-946
▁real	-947
▁give	-948
ficult	-949
▁able	-950
▁difficult	-951
itive	-952
self	-953
▁contr	-954
▁equ	-955
▁object	-956
▁position	-957
▁necessary	-958
▁sign	-959
▁av	-960
pr	-961
ound	-962
▁neg	-963
ically	-964
▁transport	-965
▁Members	-966
▁whether	-967
▁EC	-968
aran	-969
▁Madam	-970
▁behalf	-971
▁min	-972
▁ful	-973
ticle	-974
ination	-975
▁procedure	-976
▁transit	-977
arch	-978
▁wish	-979
▁example	-980
ten	-981
▁authorities	-982
ministr	-983
▁citizens	-984
he	-985
▁sm	-986
▁For	-987
▁Min	-988
▁However	-989
▁product	-990
▁pract	-991
entr	-992
▁matter	-993
ised	-994
stit	-995
▁why	-996
ional	-997
▁last	-998
▁your	-999
overnment	-1000
▁col	-1001
▁House	-1002
▁trade	-1003
▁sector	-1004
▁concerned	-1005
▁init	-1006
ict	-1007
▁And	-1008
▁4	-1009
ified	-1010
▁state	-1011
▁financial	-1012
▁commit	-1013
▁hel	-1014
▁Pro	-1015
▁adopted	-1016
ultural	-1017
▁lo	-1018
▁area	-1019
▁tax	-1020
DE	-1021
▁require	-1022
▁protection	-1023
▁guaran	-1024
▁aid	-1025
▁5	-1026
ell	-1027
▁areas	-1028
▁ensure	-1029
▁services	-1030
▁further	-1031
▁proposals	-1032
▁issue	-1033
▁amendments	-1034
arm	-1035
▁(19	-1036
ffair	-1037
ately	-1038
▁opinion	-1039
▁activ	-1040
ize	-1041
ines	-1042
reed	-1043
▁legislation	-1044
▁adv	-1045
▁prom	-1046
▁resolution	-1047
ft	-1048
▁security	-1049
▁United	-1050
▁comple	-1051
ffice	-1052
ered	-1053
ining	-1054
ild	-1055
▁pur	-1056
PPE	-1057
leg	-1058
cc	-1059
▁Fin	-1060
cu	-1061
ret	-1062
▁Ag	-1063
▁help	-1064
▁saf	-1065
▁stand	-1066
its	-1067
raud	-1068
▁after	-1069
ici	-1070
▁cre	-1071
ivers	-1072
▁control	-1073
▁ins	-1074
ources	-1075
▁second	-1076
▁compan	-1077
▁aw	-1078
hip	-1079
ingle	-1080
ffairs	-1081
▁rat	-1082
▁%	-1083
▁fish	-1084
▁different	-1085
ood	-1086
ty	-1087
▁serious	-1088
pri	-1089
ratic	-1090
adies	-1091
▁used	-1092
▁opport	-1093
▁progress	-1094
ulture	-1095
▁crit	-1096
▁person	-1097
av	-1098
ases	-1099
▁gent	-1100
▁introdu	-1101
▁third	-1102
▁hand	-1103
▁struct	-1104
▁three	-1105
ier	-1106
other	-1107
sions	-1108
▁interest	-1109
▁whole	-1110
▁health	-1111
▁invest	-1112
ub	-1113
▁mod	-1114
▁specific	-1115
▁terms	-1116
▁contrib	-1117
▁Se	-1118
▁forward	-1119
▁elect	-1120
▁general	-1121
▁employment	-1122
▁pres	-1123
sw	-1124
▁1996	-1125
▁Q	-1126
▁find	-1127
▁rev	-1128
ential	-1129
▁redu	-1130
▁State	-1131
▁allow	-1132
▁initi	-1133
▁gentle	-1134
▁Article	-1135
oti	-1136
/97)	-1137
sibility	-1138
stand	-1139
▁fraud	-1140
▁aim	-1141
▁fe	-1142
illion	-1143
rior	-1144
ased	-1145
▁Reg	-1146
▁directive	-1147
▁word	-1148
ily	-1149
▁come	-1150
▁world	-1151
▁role	-1152
ergy	-1153
▁negoti	-1154
▁ben	-1155
▁pay	-1156
▁industry	-1157
▁principle	-1158
ness	-1159
000	-1160
▁costs	-1161
▁going	-1162
▁current	-1163
ES	-1164
▁docu	-1165
als	-1166
ually	-1167
▁med	-1168
▁exper	-1169
▁ap	-1170
▁ban	-1171
ality	-1172
▁rules	-1173
▁commun	-1174
▁What	-1175
estions	-1176
▁gentlemen	-1177
▁relations	-1178
ared	-1179
ament	-1180
▁fram	-1181
▁som	-1182
▁writ	-1183
▁En	-1184
▁administr	-1185
led	-1186
▁ke	-1187
▁particularly	-1188
▁job	-1189
▁back	-1190
▁goods	-1191
▁approach	-1192
cing	-1193
▁1997	-1194
▁rest	-1195
soci	-1196
▁dist	-1197
▁happ	-1198
▁open	-1199
▁did	-1200
idency	-1201
vention	-1202
▁prior	-1203
▁prep	-1204
▁rece	-1205
▁ladies	-1206
▁es	-1207
▁wel	-1208
iness	-1209
▁single	-1210
▁effective	-1211
▁9	-1212
king	-1213
wards	-1214
▁agreements	-1215
les	-1216
▁soci	-1217
▁women	-1218
▁each	-1219
▁fav	-1220
▁members	-1221
come	-1222
▁next	-1223
utes	-1224
▁account	-1225
entral	-1226
▁offic	-1227
▁quite	-1228
atives	-1229
▁Qu	-1230
▁sol	-1231
ework	-1232
▁small	-1233
▁ur	-1234
ages	-1235
sequ	-1236
▁suc	-1237
▁look	-1238
pecial	-1239
▁ECU	-1240
ese	-1241
▁improve	-1242
aly	-1243
▁seem	-1244
▁expl	-1245
▁following	-1246
ote	-1247
▁occ	-1248
ium	-1249
▁products	-1250
iod	-1251
▁ris	-1252
▁lead	-1253
▁gr	-1254
▁least	-1255
▁Tr	-1256
▁few	-1257
ron	-1258
▁done	-1259
▁move	-1260
▁appropri	-1261
ivid	-1262
FR	-1263
▁At	-1264
▁let	-1265
ification	-1266
▁bus	-1267
▁her	-1268
▁discuss	-1269
▁ed	-1270
..	-1271
EL	-1272
▁aspect	-1273
ogn	-1274
▁really	-1275
▁ide	-1276
▁stud	-1277
▁framework	-1278
urn	-1279
selves	-1280
▁conditions	-1281
ield	-1282
▁down	-1283
▁institutions	-1284
▁free	-1285
▁text	-1286
swer	-1287
mb	-1288
▁Sw	-1289
tle	-1290
▁enc	-1291
▁resources	-1292
ined	-1293
▁nat	-1294
gin	-1295
▁dep	-1296
▁period	-1297
▁recogn	-1298
ify	-1299
racy	-1300
▁however	-1301
▁6	-1302
▁environmental	-1303
▁another	-1304
▁less	-1305
ability	-1306
4-0	-1307
iving	-1308
▁Affairs	-1309
▁involved	-1310
-19	-1311
▁itself	-1312
▁refer	-1313
gth	-1314
▁lab	-1315
ications	-1316
▁various	-1317
▁agric	-1318
ne	-1319
reen	-1320
▁guarantee	-1321
▁sc	-1322
▁business	-1323
gg	-1324
ways	-1325
▁ess	-1326
▁­	-1327
▁mot	-1328
▁Trans	-1329
▁Direct	-1330
EC	-1331
▁non	-1332
▁Part	-1333
airman	-1334
▁effort	-1335
▁inf	-1336
▁lim	-1337
ger	-1338
ology	-1339
old	-1340
ended	-1341
erman	-1342
▁rese	-1343
▁needs	-1344
▁towards	-1345
ss	-1346
rem	-1347
▁points	-1348
▁mention	-1349
▁grow	-1350
▁power	-1351
▁safety	-1352
▁activities	-1353
▁responsible	-1354
▁regul	-1355
▁proposed	-1356
▁programmes	-1357
IT	-1358
▁7	-1359
ters	-1360
▁partn	-1361
imin	-1362
▁large	-1363
▁issues	-1364
ession	-1365
pecially	-1366
▁during	-1367
▁express	-1368
▁questions	-1369
▁Sp	-1370
aps	-1371
▁research	-1372
▁request	-1373
▁parliament	-1374
gr	-1375
▁ph	-1376
▁democratic	-1377
▁importance	-1378
▁based	-1379
▁compl	-1380
▁though	-1381
▁working	-1382
ises	-1383
▁plan	-1384
▁remain	-1385
▁government	-1386
ule	-1387
etary	-1388
▁ment	-1389
▁rather	-1390
round	-1391
▁regions	-1392
ital	-1393
raph	-1394
▁field	-1395
▁accord	-1396
▁special	-1397
▁tal	-1398
▁benef	-1399
▁speak	-1400
▁continue	-1401
▁step	-1402
idence	-1403
med	-1404
▁bring	-1405
ards	-1406
▁del	-1407
▁especially	-1408
ences	-1409
▁kind	-1410
▁energy	-1411
▁internal	-1412
▁8	-1413
ples	-1414
ible	-1415
▁million	-1416
ij	-1417
ething	-1418
▁policies	-1419
▁avail	-1420
ened	-1421
▁better	-1422
rib	-1423
▁po	-1424
▁society	-1425
▁bod	-1426
▁exc	-1427
▁educ	-1428
▁show	-1429
▁aware	-1430
▁reform	-1431
▁always	-1432
▁favour	-1433
quir	-1434
▁including	-1435
sid	-1436
▁provide	-1437
▁Question	-1438
▁implementation	-1439
▁clos	-1440
AT	-1441
tees	-1442
▁cases	-1443
▁appe	-1444
▁addition	-1445
ither	-1446
▁proper	-1447
▁interests	-1448
▁fail	-1449
▁Conference	-1450
▁concerning	-1451
ances	-1452
ank	-1453
ividual	-1454
▁clearly	-1455
▁things	-1456
▁something	-1457
ath	-1458
▁abs	-1459
▁cor	-1460
▁toat	-1461
▁start	-1462
▁tot	-1463
▁el	-1464
text	-1465
▁suff	-1466
▁thank	-1467
erv	-1468
▁cong	-1469
▁become	-1470
▁understand	-1471
iol	-1472
bour	-1473
ived	-1474
▁subst	-1475
▁integr	-1476
▁govern	-1477
▁increase	-1478
ommend	-1479
rug	-1480
▁chang	-1481
ics	-1482
▁par	-1483
▁colle	-1484
▁projects	-1485
.19	-1486
tion	-1487
utional	-1488
▁service	-1489
co	-1490
aper	-1491
▁once	-1492
imes	-1493
aren	-1494
▁training	-1495
iU	-1496
▁fac	-1497
▁making	-1498
▁These	-1499
▁val	-1500
▁companies	-1501
NL	-1502
▁provided	-1503
dam	-1504
▁Pol	-1505
▁conclu	-1506
▁achieve	-1507
ants	-1508
▁attention	-1509
▁individual	-1510
ov	-1511
asing	-1512
rength	-1513
▁read	-1514
▁success	-1515
▁systems	-1516
▁available	-1517
▁net	-1518
▁month	-1519
▁prof	-1520
▁demand	-1521
ratul	-1522
▁amendment	-1523
ster	-1524
▁ann	-1525
▁Amend	-1526
▁assist	-1527
▁taking	-1528
com	-1529
▁Office	-1530
▁contain	-1531
▁dut	-1532
▁supp	-1533
▁strength	-1534
mber	-1535
ably	-1536
▁loc	-1537
thers	-1538
▁joint	-1539
▁try	-1540
ceed	-1541
▁matters	-1542
OM	-1543
▁bl	-1544
ross	-1545
▁decl	-1546
▁writing	-1547
AN	-1548
▁bu	-1549
arity	-1550
quiry	-1551
▁1995	-1552
▁German	-1553
▁meeting	-1554
aff	-1555
▁reach	-1556
unities	-1557
▁congratul	-1558
▁technical	-1559
▁Government	-1560
▁positive	-1561
▁aff	-1562
▁might	-1563
ply	-1564
▁Is	-1565
▁Com	-1566
iversity	-1567
▁Re	-1568
ogue	-1569
ock	-1570
▁context	-1571
▁particip	-1572
ists	-1573
▁get	-1574
though	-1575
▁creat	-1576
agement	-1577
▁Social	-1578
▁He	-1579
▁cap	-1580
▁begin	-1581
▁10	-1582
haps	-1583
▁Green	-1584
▁application	-1585
▁•	-1586
reme	-1587
▁regulation	-1588
▁yet	-1589
▁stat	-1590
▁consumer	-1591
▁Fr	-1592
lev	-1593
oub	-1594
ening	-1595
▁achie	-1596
▁simply	-1597
▁strate	-1598
▁procedures	-1599
wh	-1600
ged	-1601
itor	-1602
▁democracy	-1603
▁viol	-1604
▁short	-1605
▁regional	-1606
▁others	-1607
▁consult	-1608
fer	-1609
▁harm	-1610
▁toget	-1611
ialogue	-1612
AR	-1613
ON	-1614
▁peace	-1615
▁together	-1616
▁sch	-1617
▁majority	-1618
▁Mon	-1619
▁Sch	-1620
▁expect	-1621
▁decisions	-1622
ix	-1623
ourt	-1624
▁opp	-1625
rench	-1626
ending	-1627
▁often	-1628
▁words	-1629
▁powers	-1630
▁12	-1631
ister	-1632
▁emph	-1633
▁groups	-1634
▁encoura	-1635
▁results	-1636
empt	-1637
igin	-1638
▁prevent	-1639
rict	-1640
▁Swed	-1641
▁const	-1642
▁"	-1643
enda	-1644
▁provisions	-1645
▁play	-1646
ti	-1647
▁1998	-1648
▁Court	-1649
▁change	-1650
▁responsibility	-1651
cise	-1652
▁lack	-1653
▁protect	-1654
▁appropriate	-1655
▁ret	-1656
ological	-1657
▁greater	-1658
▁essential	-1659
ug	-1660
anish	-1661
ising	-1662
▁farm	-1663
▁seems	-1664
▁experi	-1665
▁dialogue	-1666
'.	-1667
▁draft	-1668
▁final	-1669
▁found	-1670
▁colleag	-1671
▁opportunity	-1672
til	-1673
▁pass	-1674
▁production	-1675
▁treat	-1676
▁access	-1677
▁press	-1678
▁resol	-1679
DR	-1680
▁assess	-1681
▁extreme	-1682
▁They	-1683
▁jobs	-1684
eed	-1685
▁mean	-1686
▁apply	-1687
▁certainly	-1688
▁competition	-1689
aU	-1690
▁full	-1691
▁above	-1692
ethod	-1693
▁negotiations	-1694
▁origin	-1695
▁education	-1696
▁sur	-1697
▁French	-1698
▁subsid	-1699
▁aspects	-1700
emp	-1701
less	-1702
▁lit	-1703
▁comb	-1704
▁Party	-1705
▁while	-1706
▁link	-1707
▁emphas	-1708
▁First	-1709
▁fl	-1710
oney	-1711
▁ele	-1712
▁unem	-1713
▁consequ	-1714
▁recommend	-1715
▁gl	-1716
ension	-1717
▁funds	-1718
▁strong	-1719
▁list	-1720
▁method	-1721
▁carri	-1722
▁objective	-1723
▁care	-1724
ert	-1725
▁anim	-1726
▁risk	-1727
▁close	-1728
▁include	-1729
ick	-1730
▁fle	-1731
▁sum	-1732
▁reasons	-1733
▁Intern	-1734
IR	-1735
irc	-1736
ilit	-1737
▁pat	-1738
▁force	-1739
▁detail	-1740
▁sen	-1741
sterdam	-1742
uclear	-1743
conomic	-1744
▁urg	-1745
▁Brit	-1746
▁ident	-1747
▁complete	-1748
▁Amsterdam	-1749
ann	-1750
▁15	-1751
▁presidency	-1752
pose	-1753
▁drug	-1754
reedom	-1755
▁reports	-1756
▁bo	-1757
iation	-1758
▁increasing	-1759
▁To	-1760
akes	-1761
▁bro	-1762
▁welcome	-1763
▁ple	-1764
▁associ	-1765
▁region	-1766
▁enl	-1767
ensive	-1768
▁indeed	-1769
entre	-1770
▁food	-1771
▁among	-1772
▁instru	-1773
for	-1774
blig	-1775
abled	-1776
▁never	-1777
▁constit	-1778
▁communication	-1779
eric	-1780
▁having	-1781
rad	-1782
▁Or	-1783
▁sci	-1784
▁undert	-1785
EP	-1786
ven	-1787
▁You	-1788
thing	-1789
▁coord	-1790
▁create	-1791
▁fundament	-1792
.0	-1793
angu	-1794
▁deleg	-1795
▁oblig	-1796
▁agricultural	-1797
sels	-1798
▁Sub	-1799
▁partners	-1800
▁Ex	-1801
atory	-1802
HE	-1803
▁Med	-1804
▁member	-1805
▁foreign	-1806
ater	-1807
▁feel	-1808
▁analy	-1809
▁impos	-1810
▁lif	-1811
ourable	-1812
▁best	-1813
ided	-1814
bourg	-1815
▁cost	-1816
ilities	-1817
▁motion	-1818
▁official	-1819
▁Directive	-1820
▁wee	-1821
▁efforts	-1822
▁document	-1823
overnmental	-1824
err	-1825
cell	-1826
ffic	-1827
▁hon	-1828
▁nuclear	-1829
▁extremely	-1830
96	-1831
▁priv	-1832
▁local	-1833
▁existing	-1834
eng	-1835
▁ty	-1836
ling	-1837
over	-1838
▁him	-1839
▁vis	-1840
▁purs	-1841
▁thing	-1842
▁employ	-1843
▁freedom	-1844
▁netw	-1845
▁11	-1846
▁money	-1847
▁structural	-1848
ale	-1849
oung	-1850
▁With	-1851
▁Second	-1852
▁submit	-1853
▁concerns	-1854
▁20	-1855
rial	-1856
▁pop	-1857
▁draw	-1858
▁sugg	-1859
▁sure	-1860
▁trad	-1861
▁criter	-1862
▁little	-1863
▁actually	-1864
▁ca	-1865
▁Co	-1866
ELDR	-1867
▁Dut	-1868
▁answer	-1869
▁monitor	-1870
the	-1871
▁Par	-1872
vious	-1873
▁cultural	-1874
▁regulations	-1875
hing	-1876
▁Rep	-1877
NG	-1878
ivil	-1879
▁fir	-1880
▁principles	-1881
ued	-1882
▁All	-1883
▁enter	-1884
▁langu	-1885
▁Americ	-1886
▁recent	-1887
▁signific	-1888
dom	-1889
▁cod	-1890
eries	-1891
▁Dutch	-1892
▁indic	-1893
▁states	-1894
ished	-1895
▁regards	-1896
▁administrative	-1897
▁she	-1898
▁East	-1899
▁idea	-1900
▁post	-1901
▁months	-1902
▁perhaps	-1903
▁grant	-1904
ators	-1905
ection	-1906
isters	-1907
▁reject	-1908
▁enlarge	-1909
imum	-1910
▁THE	-1911
▁Tur	-1912
▁Inter	-1913
▁growth	-1914
ux	-1915
ave	-1916
fort	-1917
▁name	-1918
icient	-1919
▁asked	-1920
▁themselves	-1921
▁fundamental	-1922
▁mom	-1923
io	-1924
▁doub	-1925
▁deter	-1926
▁enough	-1927
▁budgetary	-1928
▁tas	-1929
▁oppos	-1930
▁initiative	-1931
epend	-1932
▁longer	-1933
▁Ind	-1934
▁approved	-1935
▁mentioned	-1936
▁standards	-1937
▁Br	-1938
atis	-1939
ond	-1940
cies	-1941
ternal	-1942
▁young	-1943
▁affect	-1944
▁excell	-1945
▁parties	-1946
sp	-1947
▁held	-1948
▁bal	-1949
▁France	-1950
▁practice	-1951
ina	-1952
▁Vice	-1953
▁circ	-1954
▁solution	-1955
governmental	-1956
ember	-1957
agraph	-1958
used	-1959
endit	-1960
most	-1961
▁doing	-1962
▁consumers	-1963
ane	-1964
sis	-1965
Ul	-1966
of	-1967
▁four	-1968
▁received	-1969
▁ing	-1970
▁Finally	-1971
▁required	-1972
▁either	-1973
▁office	-1974
▁quality	-1975
▁excellent	-1976
▁management	-1977
orth	-1978
atisf	-1979
▁basic	-1980
▁total	-1981
ibility	-1982
▁needed	-1983
▁objectives	-1984
▁congratulate	-1985
amp	-1986
aced	-1987
lation	-1988
▁strategy	-1989
▁legislative	-1990
▁jud	-1991
▁moment	-1992
▁economy	-1993
▁Ma	-1994
▁organiz	-1995
eless	-1996
ights	-1997
ption	-1998
▁item	-1999
▁gener	-2000
▁Subject	-2001
▁IN	-2002
medi	-2003
lands	-2004
isation	-2005
▁maintain	-2006
▁ago	-2007
▁arr	-2008
beral	-2009
▁dest	-2010
TO	-2011
comm	-2012
▁dat	-2013
▁agreed	-2014
▁appear	-2015
▁criteria	-2016
▁ve	-2017
▁198	-2018
ED	-2019
▁until	-2020
▁harmon	-2021
▁voting	-2022
▁achieved	-2023
▁contribution	-2024
by	-2025
▁My	-2026
arly	-2027
eneral	-2028
▁fight	-2029
▁entire	-2030
ban	-2031
reg	-2032
▁Ad	-2033
idel	-2034
order	-2035
▁Regulation	-2036
▁(198	-2037
▁keep	-2038
▁impact	-2039
▁enlargement	-2040
aration	-2041
▁priority	-2042
icy	-2043
ides	-2044
urea	-2045
▁day	-2046
▁union	-2047
unately	-2048
▁Centre	-2049
▁established	-2050
▁unemployment	-2051
▁May	-2052
▁relating	-2053
▁coh	-2054
▁staff	-2055
▁mis	-2056
▁sever	-2057
▁carried	-2058
▁mor	-2059
▁King	-2060
▁although	-2061
uly	-2062
urd	-2063
▁conclud	-2064
▁address	-2065
ME	-2066
ging	-2067
▁qual	-2068
▁broad	-2069
son	-2070
▁vol	-2071
▁ship	-2072
▁Amendment	-2073
isc	-2074
▁Rule	-2075
▁tele	-2076
▁stress	-2077
▁Economic	-2078
to	-2079
ner	-2080
▁Paper	-2081
une	-2082
ustr	-2083
iveness	-2084
▁benefit	-2085
▁fishing	-2086
▁nothing	-2087
▁air	-2088
▁eas	-2089
▁tabled	-2090
▁Kingdom	-2091
▁obvious	-2092
▁included	-2093
▁Gree	-2094
▁chec	-2095
▁true	-2096
Office	-2097
▁carry	-2098
▁child	-2099
▁workers	-2100
cember	-2101
▁several	-2102
▁documents	-2103
ler	-2104
imate	-2105
▁hist	-2106
▁cover	-2107
▁Secondly	-2108
▁char	-2109
▁life	-2110
▁mind	-2111
▁equal	-2112
▁fully	-2113
▁makes	-2114
▁presented	-2115
str	-2116
uds	-2117
▁Let	-2118
▁due	-2119
▁conv	-2120
▁commer	-2121
▁central	-2122
▁December	-2123
▁Li	-2124
▁avo	-2125
▁called	-2126
val	-2127
▁agenda	-2128
▁promot	-2129
▁promote	-2130
▁previous	-2131
gu	-2132
ned	-2133
▁wUl	-2134
▁wiU	-2135
▁term	-2136
▁stage	-2137
isis	-2138
▁One	-2139
▁obs	-2140
ively	-2141
mbuds	-2142
▁Fund	-2143
▁mult	-2144
▁monetary	-2145
▁technology	-2146
atic	-2147
side	-2148
▁Sec	-2149
paren	-2150
▁Just	-2151
▁elections	-2152
ief	-2153
ring	-2154
ering	-2155
▁cred	-2156
▁build	-2157
▁practical	-2158
▁conn	-2159
▁dang	-2160
▁increased	-2161
▁amount	-2162
▁immedi	-2163
enditure	-2164
▁actions	-2165
stain	-2166
▁exch	-2167
▁currently	-2168
▁fam	-2169
▁past	-2170
▁crisis	-2171
▁war	-2172
▁Form	-2173
▁movement	-2174
▁discussion	-2175
▁opportunities	-2176
-0	-2177
▁Bel	-2178
▁demon	-2179
▁significant	-2180
aring	-2181
▁export	-2182
▁applied	-2183
▁conclusion	-2184
▁13	-2185
ends	-2186
▁Man	-2187
▁Str	-2188
▁repl	-2189
▁design	-2190
▁BSE	-2191
▁paragraph	-2192
ead	-2193
▁fig	-2194
▁los	-2195
▁civil	-2196
▁nature	-2197
▁expenditure	-2198
UE	-2199
▁investig	-2200
ION	-2201
▁upon	-2202
▁sitting	-2203
▁transparen	-2204
▁fun	-2205
▁pot	-2206
itional	-2207
▁return	-2208
▁company	-2209
▁complain	-2210
▁independ	-2211
▁committees	-2212
▁pa	-2213
▁fre	-2214
▁duty	-2215
▁hard	-2216
▁voted	-2217
▁obtain	-2218
▁scient	-2219
▁colleagues	-2220
rect	-2221
olute	-2222
▁review	-2223
▁organizations	-2224
emoc	-2225
▁thus	-2226
▁relev	-2227
mbudsman	-2228
▁Chairman	-2229
▁substant	-2230
▁assistance	-2231
▁et	-2232
▁changes	-2233
▁Alger	-2234
▁bodies	-2235
▁British	-2236
NGL	-2237
uge	-2238
▁Policy	-2239
▁Inquiry	-2240
▁reading	-2241
▁creation	-2242
fortunately	-2243
uxem	-2244
▁low	-2245
ledge	-2246
▁study	-2247
▁Former	-2248
▁satisf	-2249
▁absolute	-2250
▁Convention	-2251
▁i	-2252
ech	-2253
radu	-2254
▁five	-2255
▁tell	-2256
▁Minutes	-2257
▁National	-2258
istic	-2259
▁contract	-2260
▁demonstr	-2261
sibilities	-2262
▁representatives	-2263
app	-2264
▁repe	-2265
ex	-2266
▁head	-2267
▁decided	-2268
SV	-2269
▁Pres	-2270
▁Luxem	-2271
ons	-2272
uine	-2273
▁data	-2274
▁throughout	-2275
▁bi	-2276
aged	-2277
▁ren	-2278
▁exer	-2279
▁hold	-2280
▁along	-2281
▁doubt	-2282
aw	-2283
▁San	-2284
▁und	-2285
ression	-2286
▁Van	-2287
▁using	-2288
▁extent	-2289
▁threat	-2290
▁culture	-2291
▁mission	-2292
▁MEP	-2293
▁pen	-2294
▁vari	-2295
▁Central	-2296
▁Minister	-2297
▁consequences	-2298
▁difficulties	-2299
ses	-2300
erous	-2301
▁road	-2302
▁defin	-2303
▁former	-2304
idelines	-2305
President	-2306
▁Luxembourg	-2307
▁governments	-2308
▁tar	-2309
▁note	-2310
▁comes	-2311
▁occas	-2312
▁except	-2313
▁ground	-2314
▁prepared	-2315
▁considered	-2316
94	-2317
▁cla	-2318
▁tom	-2319
▁took	-2320
▁sense	-2321
▁Sweden	-2322
esion	-2323
▁line	-2324
▁Ombudsman	-2325
▁regarding	-2326
▁monitoring	-2327
par	-2328
acco	-2329
▁mar	-2330
▁remind	-2331
duct	-2332
▁seen	-2333
▁avoid	-2334
▁share	-2335
▁relation	-2336
DA	-2337
▁Do	-2338
▁six	-2339
▁June	-2340
ussels	-2341
▁advant	-2342
▁effects	-2343
▁Environment	-2344
▁integration	-2345
RO	-2346
ctions	-2347
▁chall	-2348
▁confir	-2349
▁crimin	-2350
▁developing	-2351
▁experience	-2352
crib	-2353
▁fair	-2354
rought	-2355
▁labour	-2356
▁everyone	-2357
▁delegation	-2358
▁investment	-2359
MU	-2360
arily	-2361
ially	-2362
▁theh	-2363
▁turn	-2364
▁proceed	-2365
▁relevant	-2366
▁population	-2367
ims	-2368
ool	-2369
▁Tra	-2370
anced	-2371
izing	-2372
▁Agree	-2373
▁reply	-2374
▁critic	-2375
Parliament	-2376
tt	-2377
▁Can	-2378
▁Brussels	-2379
▁30	-2380
▁attempt	-2381
▁contact	-2382
▁defence	-2383
▁analysis	-2384
▁ten	-2385
▁tob	-2386
▁stability	-2387
▁Presidency	-2388
▁requirements	-2389
▁institutional	-2390
▁14	-2391
obal	-2392
▁men	-2393
erial	-2394
▁giving	-2395
▁brought	-2396
▁accepted	-2397
▁Of	-2398
gree	-2399
uted	-2400
inary	-2401
▁flex	-2402
▁interp	-2403
▁according	-2404
▁encourage	-2405
ror	-2406
rich	-2407
▁Jan	-2408
▁yes	-2409
▁vital	-2410
▁Associ	-2411
▁Rights	-2412
▁Develop	-2413
▁children	-2414
▁Ministers	-2415
▁introduction	-2416
',	-2417
The	-2418
arian	-2419
▁body	-2420
▁eval	-2421
▁applic	-2422
▁referred	-2423
▁ahe	-2424
▁den	-2425
▁eth	-2426
▁takes	-2427
▁suggest	-2428
▁statement	-2429
▁consideration	-2430
GUE	-2431
▁nor	-2432
▁hear	-2433
▁price	-2434
lo	-2435
ederal	-2436
▁confl	-2437
▁annual	-2438
▁saying	-2439
▁involve	-2440
▁sustain	-2441
▁material	-2442
▁discussed	-2443
/96	-2444
▁etc	-2445
▁ver	-2446
▁(197	-2447
▁More	-2448
▁produc	-2449
▁Justice	-2450
▁tobacco	-2451
.1	-2452
▁When	-2453
▁crime	-2454
▁correct	-2455
▁precise	-2456
▁external	-2457
▁expressed	-2458
UPE	-2459
▁univers	-2460
▁Republic	-2461
▁ourselves	-2462
▁commercial	-2463
egal	-2464
▁rate	-2465
cession	-2466
▁Budget	-2467
▁concept	-2468
▁Le	-2469
uary	-2470
fully	-2471
▁sent	-2472
▁Alban	-2473
▁forms	-2474
▁provides	-2475
pid	-2476
▁25	-2477
▁Germany	-2478
▁operation	-2479
▁accordance	-2480
pite	-2481
▁Col	-2482
▁Mar	-2483
▁soon	-2484
▁whose	-2485
▁provision	-2486
equ	-2487
▁OF	-2488
▁Pe	-2489
ges	-2490
oph	-2491
▁aU	-2492
▁global	-2493
▁comprom	-2494
▁activity	-2495
put	-2496
▁paid	-2497
▁Answer	-2498
▁closed	-2499
▁Customs	-2500
▁finally	-2501
▁persons	-2502
be	-2503
▁17	-2504
▁cho	-2505
▁foc	-2506
ounts	-2507
▁higher	-2508
▁Association	-2509
▁possibility	-2510
▁parliamentary	-2511
reh	-2512
rim	-2513
uses	-2514
▁fron	-2515
theless	-2516
▁levels	-2517
▁private	-2518
▁pressure	-2519
▁everything	-2520
semb	-2521
uing	-2522
▁WTO	-2523
az	-2524
sembly	-2525
▁limit	-2526
▁conduct	-2527
▁enterpr	-2528
▁funding	-2529
▁genuine	-2530
▁authority	-2531
▁potential	-2532
▁industrial	-2533
▁Te	-2534
ught	-2535
▁emer	-2536
▁adopt	-2537
▁shown	-2538
▁Instit	-2539
▁enable	-2540
▁mob	-2541
▁publ	-2542
encies	-2543
▁Rules	-2544
entions	-2545
▁terror	-2546
iliation	-2547
▁rad	-2548
▁task	-2549
▁evidence	-2550
▁function	-2551
▁developed	-2552
anim	-2553
outh	-2554
orate	-2555
▁1999	-2556
▁Democ	-2557
▁January	-2558
▁assessment	-2559
vis	-2560
▁Mc	-2561
▁bre	-2562
orrow	-2563
▁circum	-2564
▁conver	-2565
▁raised	-2566
▁content	-2567
▁explain	-2568
▁guidelines	-2569
▁initiatives	-2570
);	-2571
▁ever	-2572
▁sens	-2573
▁Agric	-2574
▁currency	-2575
▁Development	-2576
lf	-2577
key	-2578
▁di	-2579
▁Res	-2580
▁2000	-2581
▁prot	-2582
▁times	-2583
▁decide	-2584
▁farmers	-2585
▁methods	-2586
▁response	-2587
▁completely	-2588
▁cut	-2589
▁July	-2590
▁Spain	-2591
▁created	-2592
▁measure	-2593
▁outside	-2594
▁confidence	-2595
▁institution	-2596
▁Bal	-2597
anean	-2598
▁animals	-2599
▁Monetary	-2600
▁International	-2601
▁key	-2602
▁Port	-2603
▁schem	-2604
pro	-2605
itud	-2606
ries	-2607
▁susp	-2608
▁violence	-2609
nel	-2610
ator	-2611
erve	-2612
force	-2613
▁almost	-2614
▁unanim	-2615
▁princip	-2616
▁16	-2617
▁AC	-2618
▁Our	-2619
urope	-2620
▁Temp	-2621
urance	-2622
▁Further	-2623
▁reflect	-2624
▁fisheries	-2625
▁administration	-2626
EEC	-2627
▁Dec	-2628
▁cent	-2629
▁norm	-2630
▁undertak	-2631
ari	-2632
dra	-2633
▁eng	-2634
▁dire	-2635
▁else	-2636
commun	-2637
▁organis	-2638
▁considerable	-2639
igr	-2640
pril	-2641
tered	-2642
▁Cons	-2643
▁date	-2644
▁model	-2645
▁status	-2646
▁dealing	-2647
▁thought	-2648
ley	-2649
....	-2650
▁Cont	-2651
▁beef	-2652
▁pean	-2653
▁teach	-2654
▁Spanish	-2655
▁benefits	-2656
▁connection	-2657
▁scientific	-2658
unt	-2659
acity	-2660
▁fall	-2661
▁half	-2662
▁light	-2663
▁sectors	-2664
▁recommendations	-2665
iss	-2666
▁Cy	-2667
▁sy	-2668
wise	-2669
▁ill	-2670
▁Belg	-2671
▁cross	-2672
▁quick	-2673
▁medium	-2674
▁territ	-2675
▁treatment	-2676
ARE	-2677
iable	-2678
▁banan	-2679
▁drawn	-2680
▁reference	-2681
▁participation	-2682
rast	-2683
richt	-2684
▁says	-2685
▁genet	-2686
ruction	-2687
▁Report	-2688
astricht	-2689
▁consist	-2690
▁concentr	-2691
▁coordination	-2692
ps	-2693
sh	-2694
▁sl	-2695
▁Thank	-2696
▁known	-2697
▁Public	-2698
mination	-2699
▁reached	-2700
▁directly	-2701
▁priorities	-2702
▁US	-2703
▁ir	-2704
▁face	-2705
▁April	-2706
▁incor	-2707
▁views	-2708
▁depart	-2709
▁speech	-2710
▁chairman	-2711
▁conference	-2712
▁instruments	-2713
▁Ir	-2714
-198	-2715
ecut	-2716
▁000	-2717
▁1994	-2718
▁camp	-2719
▁exchange	-2720
▁recently	-2721
▁Maastricht	-2722
ER	-2723
go	-2724
yl	-2725
Uament	-2726
▁degree	-2727
▁setting	-2728
ton	-2729
ires	-2730
▁Per	-2731
▁argu	-2732
▁ments	-2733
stances	-2734
▁wr	-2735
▁Fore	-2736
▁stop	-2737
▁week	-2738
▁solid	-2739
▁University	-2740
OR	-2741
ume	-2742
▁tour	-2743
▁balance	-2744
▁network	-2745
▁rightly	-2746
▁produced	-2747
▁transfer	-2748
▁reduction	-2749
COM	-2750
acy	-2751
ins	-2752
more	-2753
▁cens	-2754
▁weak	-2755
▁heard	-2756
▁value	-2757
▁wrong	-2758
▁structure	-2759
omp	-2760
know	-2761
ocol	-2762
iarity	-2763
▁March	-2764
▁simil	-2765
▁super	-2766
▁reduce	-2767
▁talking	-2768
▁absolutely	-2769
▁discussions	-2770
aign	-2771
hern	-2772
orks	-2773
▁COM	-2774
▁dam	-2775
▁sport	-2776
▁regret	-2777
▁comments	-2778
▁direction	-2779
▁compromise	-2780
▁introduced	-2781
▁bear	-2782
▁draf	-2783
▁milit	-2784
▁Danish	-2785
▁controls	-2786
▁conclusions	-2787
ets	-2788
▁Pr	-2789
▁dr	-2790
term	-2791
▁type	-2792
terday	-2793
▁event	-2794
▁legit	-2795
▁Nether	-2796
▁Santer	-2797
▁purpose	-2798
▁beginning	-2799
eb	-2800
bod	-2801
ient	-2802
▁earl	-2803
▁dealt	-2804
▁penal	-2805
▁coming	-2806
▁describ	-2807
▁Agreement	-2808
nex	-2809
▁lat	-2810
iterr	-2811
ecutive	-2812
▁compens	-2813
▁honourable	-2814
▁Netherlands	-2815
ck	-2816
▁imm	-2817
▁opt	-2818
▁run	-2819
alled	-2820
▁prob	-2821
▁offer	-2822
▁duties	-2823
▁prices	-2824
▁record	-2825
▁Finland	-2826
▁tomorrow	-2827
▁knowledge	-2828
▁producers	-2829
▁submitted	-2830
▁parliaments	-2831
IC	-2832
uct	-2833
▁cun	-2834
▁prim	-2835
▁Turkey	-2836
▁urgent	-2837
▁Eastern	-2838
▁distrib	-2839
iterranean	-2840
rimination	-2841
▁resolutions	-2842
▁becom	-2843
▁gives	-2844
▁altern	-2845
▁regime	-2846
▁elected	-2847
▁implemented	-2848
ys	-2849
▁Pat	-2850
illar	-2851
orary	-2852
▁obst	-2853
▁Italy	-2854
▁Since	-2855
▁cause	-2856
▁medic	-2857
▁trying	-2858
▁campaign	-2859
▁profession	-2860
▁transparency	-2861
▁circumstances	-2862
95	-2863
apt	-2864
▁cal	-2865
▁met	-2866
▁steps	-2867
▁Tempus	-2868
▁behind	-2869
ifically	-2870
▁reality	-2871
▁community	-2872
▁additional	-2873
aUy	-2874
▁18	-2875
chan	-2876
isch	-2877
ously	-2878
▁wast	-2879
▁simpl	-2880
itarian	-2881
▁forces	-2882
▁pleased	-2883
▁ParUament	-2884
ev	-2885
▁Ob	-2886
where	-2887
▁vict	-2888
▁party	-2889
▁active	-2890
▁mechan	-2891
▁earlier	-2892
▁criminal	-2893
NT	-2894
▁z	-2895
EDN	-2896
iab	-2897
▁mo	-2898
▁shows	-2899
▁Portug	-2900
▁myself	-2901
▁pointed	-2902
▁commitment	-2903
▁agriculture	-2904
▁subsidiarity	-2905
AL	-2906
apan	-2907
▁dev	-2908
▁port	-2909
▁talk	-2910
▁CouncU	-2911
▁attitud	-2912
▁figures	-2913
▁produce	-2914
▁designed	-2915
97	-2916
ateg	-2917
lusion	-2918
ograph	-2919
▁firms	-2920
▁influ	-2921
▁renew	-2922
▁remark	-2923
▁receive	-2924
▁properly	-2925
▁businesses	-2926
▁operations	-2927
▁substantial	-2928
▁organization	-2929
communications	-2930
▁UK	-2931
ourn	-2932
ureau	-2933
retary	-2934
urally	-2935
▁drugs	-2936
▁informed	-2937
▁ACP	-2938
▁dead	-2939
Europe	-2940
▁occup	-2941
▁target	-2942
ma	-2943
erb	-2944
ijn	-2945
ino	-2946
▁cru	-2947
▁inn	-2948
igare	-2949
iting	-2950
spect	-2951
▁wide	-2952
orders	-2953
▁alloc	-2954
▁combat	-2955
▁events	-2956
▁happen	-2957
arations	-2958
▁allowed	-2959
▁censure	-2960
▁morning	-2961
▁sensitive	-2962
▁UN	-2963
▁lear	-2964
elling	-2965
▁plant	-2966
▁failure	-2967
▁similar	-2968
▁cohesion	-2969
▁entirely	-2970
▁language	-2971
▁improving	-2972
▁solutions	-2973
ties	-2974
ramme	-2975
▁defic	-2976
▁ought	-2977
▁rapid	-2978
▁namely	-2979
▁appoint	-2980
▁markets	-2981
▁variety	-2982
▁adoption	-2983
▁intended	-2984
▁Transport	-2985
▁enterprises	-2986
▁increasingly	-2987
▁Bo	-2988
▁led	-2989
▁old	-2990
▁meat	-2991
▁ways	-2992
▁later	-2993
▁cooper	-2994
▁incorp	-2995
▁quickly	-2996
▁top	-2997
iscal	-2998
▁goes	-2999
▁tack	-3000
▁animal	-3001
▁Transit	-3002
▁traffic	-3003
▁withdra	-3004
▁Assembly	-3005
▁personal	-3006
▁taxation	-3007
▁sustainable	-3008
▁establishment	-3009
ians	-3010
just	-3011
ones	-3012
▁App	-3013
▁depend	-3014
▁affairs	-3015
▁limited	-3016
▁meetings	-3017
ca	-3018
way	-3019
▁il	-3020
ival	-3021
line	-3022
▁Now	-3023
▁van	-3024
▁mess	-3025
▁forest	-3026
▁inquiry	-3027
▁introduce	-3028
iet	-3029
mark	-3030
▁Rus	-3031
▁poU	-3032
alian	-3033
vered	-3034
▁impl	-3035
▁votes	-3036
▁strict	-3037
▁regular	-3038
▁capacity	-3039
▁creating	-3040
▁supported	-3041
▁consultation	-3042
uls	-3043
vere	-3044
▁100	-3045
▁Nor	-3046
▁fel	-3047
aving	-3048
▁unac	-3049
▁brief	-3050
ecision	-3051
▁borders	-3052
▁minimum	-3053
▁recognition	-3054
ison	-3055
▁1992	-3056
▁Japan	-3057
▁illeg	-3058
▁condem	-3059
▁Albania	-3060
▁yesterday	-3061
▁guarantees	-3062
▁instrument	-3063
▁Af	-3064
▁cop	-3065
▁dom	-3066
▁laid	-3067
▁rule	-3068
reland	-3069
▁school	-3070
▁comment	-3071
▁coordin	-3072
▁related	-3073
▁military	-3074
▁effectively	-3075
▁land	-3076
▁covered	-3077
▁partner	-3078
▁Regional	-3079
af	-3080
ah	-3081
gl	-3082
▁log	-3083
▁rac	-3084
etimes	-3085
▁signed	-3086
▁treaty	-3087
▁contrary	-3088
▁improved	-3089
▁contribute	-3090
20	-3091
IS	-3092
sec	-3093
▁21	-3094
iance	-3095
ulsory	-3096
▁Legal	-3097
▁adapt	-3098
▁estim	-3099
▁Swedish	-3100
▁arrange	-3101
▁compreh	-3102
▁propose	-3103
▁session	-3104
▁languages	-3105
▁impossible	-3106
part	-3107
▁197	-3108
▁sal	-3109
▁pillar	-3110
▁history	-3111
▁specifically	-3112
▁AN	-3113
▁200	-3114
▁san	-3115
▁won	-3116
making	-3117
▁adver	-3118
▁aimed	-3119
▁enorm	-3120
mission	-3121
▁Ireland	-3122
▁unaccept	-3123
▁establishing	-3124
▁CH	-3125
amber	-3126
itors	-3127
▁abol	-3128
istics	-3129
▁Austr	-3130
▁minor	-3131
▁parts	-3132
▁weeks	-3133
▁closer	-3134
▁effici	-3135
▁letter	-3136
▁Therefore	-3137
▁accession	-3138
set	-3139
rend	-3140
▁cat	-3141
untary	-3142
▁exact	-3143
▁cigare	-3144
▁useful	-3145
▁respond	-3146
▁.	-3147
ury	-3148
▁Roth	-3149
▁appre	-3150
▁risks	-3151
ologies	-3152
▁attach	-3153
▁instead	-3154
▁sources	-3155
oor	-3156
rup	-3157
▁age	-3158
apter	-3159
▁Chair	-3160
▁wishes	-3161
▁Foreign	-3162
▁insurance	-3163
▁Agriculture	-3164
▁independent	-3165
▁organisations	-3166
.5	-3167
ober	-3168
prus	-3169
yond	-3170
▁EMU	-3171
▁big	-3172
▁max	-3173
▁fear	-3174
▁side	-3175
▁whom	-3176
action	-3177
▁death	-3178
ovember	-3179
▁natural	-3180
▁sufficient	-3181
▁developments	-3182
▁unacceptable	-3183
vo	-3184
ery	-3185
▁hop	-3186
▁mut	-3187
▁aims	-3188
▁away	-3189
▁System	-3190
▁Italian	-3191
▁closely	-3192
▁networks	-3193
▁Furthermore	-3194
▁implementing	-3195
ift	-3196
▁clar	-3197
▁early	-3198
▁pursu	-3199
▁rates	-3200
▁react	-3201
▁Cyprus	-3202
▁asking	-3203
▁comput	-3204
▁despite	-3205
▁payment	-3206
▁remains	-3207
formation	-3208
▁published	-3209
▁jo	-3210
▁mere	-3211
otechn	-3212
▁After	-3213
▁scope	-3214
▁secure	-3215
▁America	-3216
▁billion	-3217
▁liberal	-3218
▁November	-3219
▁conflict	-3220
▁restrict	-3221
▁committed	-3222
▁providing	-3223
▁directives	-3224
▁immediately	-3225
.3	-3226
96)	-3227
4-00	-3228
urer	-3229
engen	-3230
▁Some	-3231
▁border	-3232
▁simple	-3233
▁partnership	-3234
▁typ	-3235
oples	-3236
▁1993	-3237
▁pack	-3238
iction	-3239
▁counc	-3240
▁focus	-3241
▁appreci	-3242
▁experts	-3243
▁justice	-3244
▁generally	-3245
▁convention	-3246
10	-3247
▁Bl	-3248
▁ge	-3249
gence	-3250
▁acts	-3251
▁firm	-3252
▁Joint	-3253
imately	-3254
▁beyond	-3255
▁fiscal	-3256
▁linked	-3257
▁offices	-3258
▁Schengen	-3259
▁original	-3260
▁translation	-3261
GC	-3262
▁24	-3263
isms	-3264
ored	-3265
▁Not	-3266
▁Pet	-3267
ature	-3268
▁Third	-3269
▁recon	-3270
▁patent	-3271
▁Algeria	-3272
▁exercise	-3273
▁differences	-3274
ira	-3275
aire	-3276
ebru	-3277
read	-3278
▁CHA	-3279
▁quot	-3280
▁temp	-3281
ateral	-3282
▁Afric	-3283
▁alone	-3284
▁occur	-3285
▁reven	-3286
▁separ	-3287
ebruary	-3288
▁People	-3289
▁insist	-3290
▁unable	-3291
▁American	-3292
▁principal	-3293
▁relationship	-3294
.2	-3295
50	-3296
EU	-3297
bur	-3298
▁ult	-3299
▁days	-3300
▁dise	-3301
▁White	-3302
▁taxes	-3303
▁Proced	-3304
▁police	-3305
▁granted	-3306
▁probably	-3307
▁solidarity	-3308
bit	-3309
els	-3310
▁II	-3311
▁SME	-3312
▁lar	-3313
▁gain	-3314
▁live	-3315
▁China	-3316
▁extra	-3317
European	-3318
▁crucial	-3319
▁detailed	-3320
▁enormous	-3321
▁interpret	-3322
▁precisely	-3323
▁flexibility	-3324
EN	-3325
.07	-3326
rist	-3327
▁IGC	-3328
▁Prog	-3329
▁prem	-3330
▁Offic	-3331
▁Greece	-3332
▁exclud	-3333
▁unless	-3334
▁Nations	-3335
▁overall	-3336
▁contains	-3337
▁ensuring	-3338
▁voluntary	-3339
▁TIR	-3340
▁fulf	-3341
▁seek	-3342
▁self	-3343
▁Irish	-3344
▁calls	-3345
▁equip	-3346
▁living	-3347
▁obstac	-3348
▁illegal	-3349
▁accident	-3350
▁structures	-3351
hic	-3352
lav	-3353
▁wa	-3354
(96)	-3355
▁mer	-3356
▁across	-3357
ervation	-3358
▁citizen	-3359
▁collect	-3360
▁complex	-3361
▁February	-3362
▁Administr	-3363
▁codecision	-3364
▁humanitarian	-3365
iqu	-3366
rael	-3367
▁Ber	-3368
▁der	-3369
▁tim	-3370
andid	-3371
ource	-3372
▁burd	-3373
▁euro	-3374
▁left	-3375
.07.19	-3376
standing	-3377
▁article	-3378
▁peoples	-3379
▁written	-3380
▁building	-3381
▁equality	-3382
▁obviously	-3383
▁seriously	-3384
▁unfortunately	-3385
.)	-3386
orld	-3387
unch	-3388
glish	-3389
▁told	-3390
▁convin	-3391
▁immigr	-3392
▁modern	-3393
▁thanks	-3394
rastruct	-3395
▁applies	-3396
▁colleague	-3397
▁universal	-3398
▁Communities	-3399
oh	-3400
▁Bon	-3401
▁pan	-3402
sized	-3403
▁home	-3404
▁acknow	-3405
▁excess	-3406
▁General	-3407
▁infrastruct	-3408
enge	-3409
ours	-3410
ruit	-3411
▁lot	-3412
▁deli	-3413
▁summ	-3414
ournal	-3415
▁1996,	-3416
General	-3417
raduate	-3418
▁around	-3419
▁limits	-3420
▁Austria	-3421
▁studies	-3422
▁totally	-3423
▁Procedure	-3424
▁labelling	-3425
▁sometimes	-3426
▁23	-3427
▁af	-3428
▁bad	-3429
▁wid	-3430
▁candid	-3431
▁demands	-3432
▁finance	-3433
▁tourism	-3434
▁attitude	-3435
▁officials	-3436
▁represents	-3437
Un	-3438
ik	-3439
otal	-3440
▁mand	-3441
▁spir	-3442
▁Organ	-3443
▁vehic	-3444
▁Indust	-3445
▁Patijn	-3446
▁aheady	-3447
▁attack	-3448
▁exists	-3449
▁stated	-3450
▁capital	-3451
▁maximum	-3452
▁extended	-3453
▁Tod	-3454
▁poll	-3455
▁innov	-3456
▁leave	-3457
▁worth	-3458
ptember	-3459
ilateral	-3460
▁approval	-3461
▁rejected	-3462
▁comprehensive	-3463
▁appropriations	-3464
▁Gu	-3465
▁MR	-3466
▁Fish	-3467
▁autom	-3468
▁Israel	-3469
▁outcome	-3470
▁biotechn	-3471
▁happened	-3472
ott	-3473
▁loss	-3474
▁ones	-3475
▁test	-3476
▁adequ	-3477
▁explo	-3478
▁reforms	-3479
▁financing	-3480
▁operators	-3481
▁strengthen	-3482
ek	-3483
ala	-3484
ash	-3485
▁By	-3486
atin	-3487
▁Aut	-3488
▁Lab	-3489
acter	-3490
lated	-3491
▁EURO	-3492
▁laws	-3493
▁CHAIR	-3494
▁Funds	-3495
▁World	-3496
▁entit	-3497
lection	-3498
uctural	-3499
▁Bureau	-3500
▁appeal	-3501
▁summit	-3502
▁growing	-3503
sequently	-3504
▁computer	-3505
▁instance	-3506
▁speakers	-3507
▁withdraw	-3508
▁territory	-3509
▁successful	-3510
▁competitive	-3511
▁strengthening	-3512
ipp	-3513
lus	-3514
▁Sc	-3515
Comm	-3516
plom	-3517
▁ves	-3518
arent	-3519
▁From	-3520
▁came	-3521
▁east	-3522
respon	-3523
▁delay	-3524
▁checks	-3525
▁contro	-3526
▁relative	-3527
▁September	-3528
▁Structural	-3529
▁alternative	-3530
▁destination	-3531
▁examination	-3532
PT	-3533
TE	-3534
idd	-3535
▁('	-3536
mine	-3537
enary	-3538
ublin	-3539
▁rise	-3540
▁waste	-3541
itation	-3542
▁formal	-3543
▁perman	-3544
▁Budgets	-3545
▁Although	-3546
▁advantage	-3547
▁Mediterranean	-3548
▁discrimination	-3549
29	-3550
IN	-3551
ini	-3552
▁CP	-3553
▁sk	-3554
ugos	-3555
▁Nos	-3556
▁Even	-3557
called	-3558
ctober	-3559
oration	-3560
▁Dublin	-3561
▁likely	-3562
▁facilit	-3563
▁looking	-3564
itiveness	-3565
▁equipment	-3566
▁compulsory	-3567
▁opposition	-3568
▁40	-3569
▁Conc	-3570
ecause	-3571
▁Yugos	-3572
uations	-3573
▁racism	-3574
▁confirm	-3575
▁plenary	-3576
▁conclude	-3577
▁protocol	-3578
▁influence	-3579
▁Amendments	-3580
▁obligations	-3581
pol	-3582
rid	-3583
▁Im	-3584
▁SMEs	-3585
ifying	-3586
▁disast	-3587
▁facing	-3588
▁Yugoslav	-3589
▁elements	-3590
▁challenge	-3591
▁described	-3592
ena	-3593
▁dim	-3594
▁disp	-3595
▁Total	-3596
▁admit	-3597
▁ideas	-3598
▁examine	-3599
▁section	-3600
operation	-3601
▁Moreover	-3602
▁concluded	-3603
▁professional	-3604
li	-3605
▁Em	-3606
olid	-3607
▁Law	-3608
▁fif	-3609
▁wat	-3610
ories	-3611
▁lost	-3612
▁sort	-3613
ployed	-3614
▁lines	-3615
▁October	-3616
▁changed	-3617
▁forests	-3618
▁message	-3619
▁harmonization	-3620
AC	-3621
▁OS	-3622
▁ut	-3623
▁emb	-3624
▁Greek	-3625
▁Where	-3626
▁happy	-3627
▁range	-3628
▁Chamber	-3629
▁planning	-3630
▁remember	-3631
▁discussing	-3632
▁recognized	-3633
cast	-3634
▁Bar	-3635
▁Den	-3636
▁New	-3637
▁VAT	-3638
▁categ	-3639
▁explan	-3640
▁income	-3641
▁repeat	-3642
▁Firstly	-3643
▁anything	-3644
▁expected	-3645
▁opinions	-3646
▁terrorism	-3647
▁applications	-3648
yn	-3649
▁Rel	-3650
tical	-3651
▁mist	-3652
border	-3653
itable	-3654
▁Other	-3655
▁Health	-3656
▁highly	-3657
▁mainly	-3658
▁placed	-3659
▁supply	-3660
▁welcom	-3661
▁exactly	-3662
▁naturally	-3663
▁improvement	-3664
▁CF	-3665
▁ce	-3666
fect	-3667
▁pet	-3668
▁urge	-3669
ulated	-3670
▁Christ	-3671
▁constant	-3672
▁election	-3673
▁speaking	-3674
▁character	-3675
▁dangerous	-3676
▁competitiveness	-3677
itz	-3678
▁fo	-3679
ttes	-3680
▁Any	-3681
aries	-3682
lines	-3683
▁Such	-3684
▁easy	-3685
▁tend	-3686
▁Today	-3687
▁Liberal	-3688
▁absence	-3689
▁grounds	-3690
▁agencies	-3691
▁mobility	-3692
▁extension	-3693
▁representative	-3694
ees	-3695
▁sw	-3696
gest	-3697
ying	-3698
▁Acc	-3699
▁Act	-3700
▁ear	-3701
▁calc	-3702
ticles	-3703
▁class	-3704
iability	-3705
▁Because	-3706
▁reduced	-3707
▁succeed	-3708
▁negative	-3709
▁qualified	-3710
▁recognize	-3711
egu	-3712
ping	-3713
▁Cam	-3714
▁Rec	-3715
▁spok	-3716
▁EUROPE	-3717
▁refuge	-3718
▁initial	-3719
▁revenue	-3720
▁includes	-3721
▁regarded	-3722
▁Programme	-3723
▁bar	-3724
▁vir	-3725
▁mass	-3726
actory	-3727
▁highl	-3728
▁choice	-3729
▁spirit	-3730
▁Secretary	-3731
▁continuing	-3732
qv	-3733
sc	-3734
ATION	-3735
qvist	-3736
▁Bank	-3737
▁plac	-3738
ousand	-3739
▁Never	-3740
▁Energy	-3741
▁safegu	-3742
▁proport	-3743
▁modified	-3744
▁strongly	-3745
▁organized	-3746
▁association	-3747
▁traditional	-3748
))	-3749
/0	-3750
rag	-3751
▁pact	-3752
▁poor	-3753
inding	-3754
itical	-3755
▁1997.	-3756
▁paper	-3757
▁chance	-3758
atically	-3759
▁standard	-3760
▁existence	-3761
▁sanctions	-3762
▁temporary	-3763
▁technologies	-3764
Os	-3765
uff	-3766
▁50	-3767
4-02	-3768
cont	-3769
fare	-3770
▁ord	-3771
▁deep	-3772
ighted	-3773
▁Human	-3774
▁board	-3775
▁meant	-3776
▁visit	-3777
▁caused	-3778
▁desire	-3779
▁defined	-3780
▁Internet	-3781
▁Official	-3782
▁construct	-3783
▁Az	-3784
▁Ph	-3785
body	-3786
icip	-3787
icial	-3788
lease	-3789
sibly	-3790
▁Prote	-3791
▁surpr	-3792
▁texts	-3793
▁amounts	-3794
▁calling	-3795
▁element	-3796
▁condition	-3797
▁occasions	-3798
▁22	-3799
▁Pl	-3800
,000	-3801
4-01	-3802
nual	-3803
▁Car	-3804
▁ton	-3805
▁Only	-3806
▁oral	-3807
▁Latin	-3808
▁talks	-3809
▁types	-3810
▁incent	-3811
ulations	-3812
▁amended	-3813
▁freight	-3814
▁Decision	-3815
▁bringing	-3816
▁determin	-3817
▁Fisheries	-3818
▁declaration	-3819
uf	-3820
oul	-3821
▁fr	-3822
rete	-3823
▁CPV	-3824
tedly	-3825
icated	-3826
▁advis	-3827
▁speed	-3828
▁Agenda	-3829
▁advert	-3830
▁compar	-3831
▁minutes	-3832
▁affected	-3833
▁spending	-3834
▁thousand	-3835
▁intention	-3836
cent	-3837
orry	-3838
▁Bos	-3839
earch	-3840
▁Bang	-3841
ateful	-3842
lement	-3843
▁1995,	-3844
▁adjust	-3845
▁burden	-3846
▁damage	-3847
▁exclus	-3848
▁intend	-3849
▁travel	-3850
▁EUROPEAN	-3851
▁medicine	-3852
ifications	-3853
▁Executive	-3854
▁Relations	-3855
▁Socialist	-3856
▁emphasize	-3857
▁efficiency	-3858
▁prevention	-3859
▁intervention	-3860
joy	-3861
▁Bur	-3862
▁Sen	-3863
▁1990	-3864
▁Stud	-3865
▁Women	-3866
▁check	-3867
▁obser	-3868
essions	-3869
itizens	-3870
▁Bangem	-3871
▁actual	-3872
▁fields	-3873
▁histor	-3874
▁normal	-3875
▁English	-3876
▁victims	-3877
▁becoming	-3878
▁followed	-3879
▁immediate	-3880
▁involving	-3881
▁otherwise	-3882
▁subsidies	-3883
▁associated	-3884
▁cigarettes	-3885
▁definition	-3886
40	-3887
aut	-3888
ior	-3889
-199	-3890
ares	-3891
▁sea	-3892
ients	-3893
▁huge	-3894
▁phys	-3895
▁Fisch	-3896
▁Those	-3897
▁claim	-3898
▁table	-3899
▁wants	-3900
orthern	-3901
▁Author	-3902
▁launch	-3903
▁achieving	-3904
▁promoting	-3905
▁convergence	-3906
urs	-3907
▁vo	-3908
SEAN	-3909
▁(')	-3910
▁anti	-3911
▁heav	-3912
▁South	-3913
▁break	-3914
▁burea	-3915
▁works	-3916
▁wonder	-3917
▁counter	-3918
▁imposed	-3919
▁species	-3920
▁requires	-3921
▁subjects	-3922
▁Bangemann	-3923
▁permanent	-3924
▁positions	-3925
▁supporting	-3926
hib	-3927
▁26	-3928
▁29	-3929
uild	-3930
wide	-3931
▁Why	-3932
▁unc	-3933
▁Does	-3934
▁Will	-3935
▁Work	-3936
▁Annex	-3937
▁enjoy	-3938
▁family	-3939
▁emphasis	-3940
▁pursuant	-3941
▁completed	-3942
▁substance	-3943
▁Protection	-3944
▁complaints	-3945
▁Be	-3946
ected	-3947
ivity	-3948
ought	-3949
▁sound	-3950
▁trend	-3951
▁water	-3952
▁elimin	-3953
▁forget	-3954
▁issued	-3955
▁debates	-3956
▁Research	-3957
▁apparent	-3958
▁grateful	-3959
▁occasion	-3960
▁thinking	-3961
▁Institute	-3962
▁efficient	-3963
▁Presidents	-3964
▁evaluation	-3965
▁undertaken	-3966
▁Information	-3967
▁Nevertheless	-3968
▁Unfortunately	-3969
OC	-3970
lin	-3971
▁da	-3972
▁hy	-3973
▁rein	-3974
▁rural	-3975
▁Consum	-3976
▁exempt	-3977
▁seeking	-3978
▁strateg	-3979
▁concrete	-3980
▁construction	-3981
▁cle	-3982
▁acqu	-3983
igible	-3984
▁1996.	-3985
▁floor	-3986
▁media	-3987
▁tasks	-3988
▁diplom	-3989
▁extend	-3990
▁secret	-3991
▁opening	-3992
▁payments	-3993
▁contracts	-3994
▁dimension	-3995
▁acceptable	-3996
▁encouraging	-3997
▁arrangements	-3998
na	-3999
enty	-4000
▁Sea	-4001
▁enh	-4002
onnel	-4003
ulate	-4004
▁chem	-4005
▁Canad	-4006
▁added	-4007
▁disse	-4008
▁noted	-4009
▁Baltic	-4010
▁comply	-4011
▁mutual	-4012
▁condemn	-4013
▁council	-4014
▁supports	-4015
▁indicated	-4016
▁reasonable	-4017
hol	-4018
▁28	-4019
icit	-4020
▁Aud	-4021
▁unf	-4022
ufact	-4023
urely	-4024
▁Mart	-4025
▁virt	-4026
▁banana	-4027
▁series	-4028
▁Project	-4029
▁remarks	-4030
▁critical	-4031
▁convinced	-4032
▁industries	-4033
▁interested	-4034
▁compensation	-4035
...	-4036
▁ign	-4037
▁wit	-4038
(96)0	-4039
▁code	-4040
▁copy	-4041
▁knows	-4042
▁assure	-4043
▁credit	-4044
▁Federal	-4045
▁enforce	-4046
▁equally	-4047
▁perform	-4048
▁schemes	-4049
▁vessels	-4050
▁contacts	-4051
▁promotion	-4052
▁statistics	-4053
▁preparation	-4054
▁recommendation	-4055
adv	-4056
sia	-4057
ugg	-4058
▁31	-4059
▁Ne	-4060
adequ	-4061
▁Mark	-4062
▁answ	-4063
▁bene	-4064
▁lies	-4065
▁send	-4066
▁Deput	-4067
▁Techn	-4068
▁aband	-4069
▁front	-4070
▁gradu	-4071
▁anyone	-4072
▁manner	-4073
▁prosec	-4074
▁wanted	-4075
▁worked	-4076
entially	-4077
▁perfect	-4078
▁democrat	-4079
▁proposing	-4080
▁understanding	-4081
eft	-4082
nes	-4083
teen	-4084
itime	-4085
▁(199	-4086
▁gave	-4087
ishing	-4088
▁Under	-4089
▁disapp	-4090
▁impose	-4091
▁merely	-4092
▁approve	-4093
▁farming	-4094
▁welfare	-4095
▁indicate	-4096
▁advantages	-4097
NI	-4098
ha	-4099
deed	-4100
osed	-4101
▁Pap	-4102
aging	-4103
▁Here	-4104
▁Left	-4105
▁Many	-4106
▁Rome	-4107
cation	-4108
▁round	-4109
▁offers	-4110
▁inadequ	-4111
▁Fischler	-4112
▁Security	-4113
▁entitled	-4114
▁interesting	-4115
▁proceedings	-4116
▁associations	-4117
▁27	-4118
▁Hon	-4119
▁PPE	-4120
iform	-4121
oning	-4122
▁arms	-4123
▁coll	-4124
▁ASEAN	-4125
▁Trade	-4126
▁frequ	-4127
▁quant	-4128
▁raise	-4129
▁users	-4130
▁Accord	-4131
▁Commit	-4132
▁Single	-4133
▁factor	-4134
▁leaders	-4135
▁medical	-4136
▁offered	-4137
ervations	-4138
▁examples	-4139
▁carefully	-4140
▁criticism	-4141
▁Translation	-4142
▁nevertheless	-4143
SP	-4144
oks	-4145
▁EP	-4146
▁felt	-4147
▁Indeed	-4148
▁failed	-4149
▁ethical	-4150
▁putting	-4151
▁balanced	-4152
▁judicial	-4153
▁prospect	-4154
▁repeated	-4155
▁students	-4156
▁practices	-4157
▁membership	-4158
▁Cooperation	-4159
▁participate	-4160
▁represented	-4161
▁technological	-4162
▁infrastructure	-4163
RE	-4164
MENT	-4165
▁Coh	-4166
▁Tit	-4167
▁Order	-4168
pective	-4169
▁Africa	-4170
▁Belgium	-4171
▁bureauc	-4172
▁coheren	-4173
▁contained	-4174
▁Yugoslavia	-4175
Uy	-4176
ream	-4177
▁PSE	-4178
▁sex	-4179
▁glad	-4180
▁late	-4181
▁famil	-4182
asbourg	-4183
▁distin	-4184
▁prefer	-4185
▁advance	-4186
▁leading	-4187
▁planned	-4188
▁Citizens	-4189
▁Graduate	-4190
▁addressed	-4191
▁Industrial	-4192
▁integrated	-4193
▁genetically	-4194
IA	-4195
hold	-4196
▁Mor	-4197
eties	-4198
tiers	-4199
▁bound	-4200
uilding	-4201
▁prohib	-4202
▁Thirdly	-4203
▁binding	-4204
▁factors	-4205
▁opposed	-4206
▁consolid	-4207
▁incident	-4208
▁reducing	-4209
▁obstacles	-4210
▁improvements	-4211
30	-4212
ats	-4213
gen	-4214
▁er	-4215
what	-4216
▁Sum	-4217
▁lay	-4218
▁rul	-4219
advant	-4220
▁1997,	-4221
▁Denmark	-4222
▁follows	-4223
▁willing	-4224
istration	-4225
▁challeng	-4226
▁chemical	-4227
▁involves	-4228
stitutional	-4229
▁Strasbourg	-4230
▁functioning	-4231
▁fu	-4232
eter	-4233
oman	-4234
orse	-4235
▁Tom	-4236
▁rig	-4237
poses	-4238
▁cert	-4239
▁noise	-4240
session	-4241
▁Deputy	-4242
▁claims	-4243
▁danger	-4244
▁permit	-4245
▁refers	-4246
▁consens	-4247
▁entered	-4248
▁neither	-4249
▁manufact	-4250
▁primarily	-4251
▁conciliation	-4252
▁effectiveness	-4253
rab	-4254
rep	-4255
emic	-4256
▁Bro	-4257
▁Uke	-4258
▁fri	-4259
ather	-4260
iddle	-4261
▁aver	-4262
▁base	-4263
▁Every	-4264
▁lives	-4265
▁spent	-4266
istered	-4267
▁Bonino	-4268
▁Russia	-4269
▁engine	-4270
▁fulfil	-4271
▁Perhaps	-4272
▁evening	-4273
▁started	-4274
▁urgency	-4275
▁Auditors	-4276
▁adequate	-4277
▁incorpor	-4278
▁separate	-4279
▁consumption	-4280
▁declarations	-4281
▁decisionmaking	-4282
ibe	-4283
▁NG	-4284
ixed	-4285
ocks	-4286
ylum	-4287
▁AND	-4288
house	-4289
stood	-4290
▁CPVO	-4291
▁Turk	-4292
unicip	-4293
▁Board	-4294
▁North	-4295
▁evalu	-4296
▁wider	-4297
ighbour	-4298
▁easier	-4299
▁proved	-4300
▁select	-4301
▁source	-4302
▁appears	-4303
▁witness	-4304
▁refugees	-4305
▁departure	-4306
▁disadvant	-4307
▁safeguard	-4308
cel	-4309
see	-4310
sian	-4311
▁Kin	-4312
▁USA	-4313
▁div	-4314
ompan	-4315
point	-4316
▁Inst	-4317
▁cult	-4318
▁join	-4319
atever	-4320
▁timet	-4321
▁asylum	-4322
▁scheme	-4323
▁managed	-4324
▁secondly	-4325
▁consensus	-4326
▁cooperate	-4327
▁substances	-4328
la	-4329
izes	-4330
nock	-4331
ront	-4332
▁Fre	-4333
since	-4334
▁Lind	-4335
▁weap	-4336
ourage	-4337
▁defend	-4338
▁drafts	-4339
▁forced	-4340
▁latter	-4341
unicipal	-4342
▁chapter	-4343
▁distort	-4344
▁thereby	-4345
▁uniform	-4346
ederation	-4347
▁Portugal	-4348
▁purposes	-4349
▁somewhat	-4350
▁complement	-4351
▁statements	-4352
▁possibilities	-4353
org	-4354
orn	-4355
▁ec	-4356
onia	-4357
▁Gen	-4358
▁cro	-4359
▁len	-4360
▁via	-4361
under	-4362
▁Rena	-4363
▁belie	-4364
▁panel	-4365
▁Common	-4366
▁Object	-4367
▁values	-4368
levision	-4369
▁eastern	-4370
▁package	-4371
▁Algerian	-4372
▁accompan	-4373
▁Europeans	-4374
▁renewable	-4375
▁disappoint	-4376
▁legitimate	-4377
▁mediumsized	-4378
.4	-4379
▁Ge	-4380
▁Me	-4381
appe	-4382
raft	-4383
▁ste	-4384
atell	-4385
▁Four	-4386
▁noon	-4387
▁thor	-4388
▁block	-4389
▁Ladies	-4390
▁Journal	-4391
▁Renault	-4392
▁accounts	-4393
▁amending	-4394
▁numerous	-4395
▁According	-4396
▁employees	-4397
▁neighbour	-4398
▁distribution	-4399
▁strengthened	-4400
):	-4401
mon	-4402
ocr	-4403
▁DG	-4404
free	-4405
▁Est	-4406
ounce	-4407
▁sole	-4408
▁smugg	-4409
▁valid	-4410
▁passed	-4411
▁amongst	-4412
▁benefic	-4413
▁genetic	-4414
▁meaning	-4415
▁examined	-4416
▁forestry	-4417
▁Democratic	-4418
▁obligation	-4419
▁Administrative	-4420
AF	-4421
FI	-4422
9).	-4423
iti	-4424
▁tee	-4425
▁Bosn	-4426
▁Last	-4427
▁Then	-4428
▁slow	-4429
estern	-4430
▁century	-4431
▁consign	-4432
▁replace	-4433
▁proposes	-4434
▁exception	-4435
▁frontiers	-4436
▁pollution	-4437
▁challenges	-4438
2)	-4439
▁lic	-4440
▁red	-4441
▁mill	-4442
▁ready	-4443
▁During	-4444
▁Market	-4445
▁undoub	-4446
▁percent	-4447
▁rapidly	-4448
▁accidents	-4449
▁determine	-4450
▁operating	-4451
▁difference	-4452
▁impression	-4453
▁relatively	-4454
▁operational	-4455
▁undertakings	-4456
▁interpretation	-4457
au	-4458
mis	-4459
omb	-4460
ush	-4461
▁Time	-4462
▁Tour	-4463
▁ahead	-4464
▁heart	-4465
▁hours	-4466
▁links	-4467
▁trust	-4468
▁length	-4469
▁preced	-4470
▁spoken	-4471
▁Another	-4472
▁Turkish	-4473
▁details	-4474
▁nations	-4475
▁speaker	-4476
▁argument	-4477
▁indirect	-4478
▁liability	-4479
▁Employment	-4480
▁involvement	-4481
ene	-4482
inc	-4483
▁Sim	-4484
▁bank	-4485
atible	-4486
▁moving	-4487
▁partly	-4488
▁waters	-4489
ferences	-4490
▁deficit	-4491
▁operate	-4492
▁Consumer	-4493
▁carrying	-4494
▁constitu	-4495
▁greatest	-4496
▁property	-4497
▁resolved	-4498
▁starting	-4499
▁excessive	-4500
▁respected	-4501
▁undoubtedly	-4502
▁considerations	-4503
13	-4504
NS	-4505
burg	-4506
ilst	-4507
lled	-4508
▁Des	-4509
▁Ken	-4510
erves	-4511
usion	-4512
▁Armen	-4513
▁Given	-4514
▁Treat	-4515
▁court	-4516
▁plans	-4517
▁scale	-4518
▁suppl	-4519
vereign	-4520
▁Canada	-4521
▁opened	-4522
▁average	-4523
▁endorse	-4524
▁maritime	-4525
▁possibly	-4526
▁sovereign	-4527
▁Management	-4528
▁expression	-4529
▁inadequate	-4530
▁mechanisms	-4531
▁implications	-4532
▁satisfactory	-4533
▁contributions	-4534
14	-4535
nic	-4536
oke	-4537
▁Ca	-4538
▁TR	-4539
ctor	-4540
▁Are	-4541
▁gra	-4542
ables	-4543
anges	-4544
estic	-4545
posed	-4546
▁tion	-4547
coming	-4548
▁1998.	-4549
▁disch	-4550
▁serve	-4551
▁Labour	-4552
▁tackle	-4553
▁contrad	-4554
▁firstly	-4555
▁organic	-4556
▁Director	-4557
▁physical	-4558
▁presence	-4559
▁sensible	-4560
▁timetable	-4561
▁situations	-4562
▁unemployed	-4563
▁requirement	-4564
▁investigation	-4565
eff	-4566
ague	-4567
ense	-4568
rees	-4569
▁Edu	-4570
▁OSH	-4571
▁err	-4572
ermen	-4573
going	-4574
ophob	-4575
▁Head	-4576
▁envis	-4577
▁island	-4578
▁recall	-4579
▁retain	-4580
economic	-4581
▁ability	-4582
▁careful	-4583
▁resolve	-4584
▁teaching	-4585
▁allocated	-4586
▁justified	-4587
▁regularly	-4588
▁supplement	-4589
▁university	-4590
▁administrations	-4591
-96	-4592
alle	-4593
work	-4594
▁uns	-4595
▁CFSP	-4596
ounced	-4597
▁Burma	-4598
▁assum	-4599
▁facts	-4600
▁Kinnock	-4601
▁Petitions	-4602
▁draftsman	-4603
▁immigration	-4604
▁introducing	-4605
▁Conciliation	-4606
ung	-4607
uth	-4608
with	-4609
iling	-4610
roval	-4611
▁Finn	-4612
abling	-4613
ground	-4614
▁fleet	-4615
▁pursue	-4616
▁Tourism	-4617
▁courage	-4618
▁intends	-4619
▁restric	-4620
▁External	-4621
▁restruct	-4622
▁confident	-4623
▁confirmed	-4624
▁continued	-4625
▁fishermen	-4626
▁completion	-4627
▁advertising	-4628
▁constructive	-4629
AS	-4630
TION	-4631
ames	-4632
ding	-4633
rian	-4634
▁Lom	-4635
▁Mer	-4636
▁Pal	-4637
▁Yet	-4638
▁Comp	-4639
▁tool	-4640
icians	-4641
▁arise	-4642
▁judge	-4643
enophob	-4644
▁clause	-4645
iciently	-4646
inations	-4647
▁bananas	-4648
▁legitim	-4649
▁numbers	-4650
▁prepare	-4651
▁version	-4652
▁Treaties	-4653
▁adopting	-4654
▁obtained	-4655
▁revision	-4656
▁Political	-4657
▁awareness	-4658
▁considers	-4659
▁consulted	-4660
▁governing	-4661
▁applicable	-4662
▁concentrate	-4663
▁Organization	-4664
CNS	-4665
ney	-4666
ona	-4667
ills	-4668
sted	-4669
uous	-4670
▁FOR	-4671
arter	-4672
illed	-4673
ronic	-4674
▁Once	-4675
▁stra	-4676
▁forth	-4677
▁phase	-4678
▁purch	-4679
▁tried	-4680
related	-4681
▁causes	-4682
▁please	-4683
▁settle	-4684
▁imports	-4685
▁Democrat	-4686
▁arguments	-4687
▁understood	-4688
▁Commissioners	-4689
CO	-4690
US	-4691
ouch	-4692
uese	-4693
▁ant	-4694
phere	-4695
posal	-4696
▁Marin	-4697
▁alleg	-4698
▁voice	-4699
▁attend	-4700
▁beings	-4701
▁option	-4702
position	-4703
▁happens	-4704
▁thorough	-4705
▁requested	-4706
▁thousands	-4707
▁Portuguese	-4708
▁difficulty	-4709
▁favourable	-4710
▁violations	-4711
▁independence	-4712
▁constitutional	-4713
iro	-4714
ots	-4715
▁EL	-4716
▁Go	-4717
▁Sh	-4718
/96)	-4719
abil	-4720
▁Tel	-4721
▁Leon	-4722
▁gone	-4723
▁imag	-4724
▁remo	-4725
▁rich	-4726
▁Prime	-4727
▁exerc	-4728
▁custom	-4729
▁differ	-4730
▁latest	-4731
▁margin	-4732
▁Belgian	-4733
▁whereas	-4734
inational	-4735
▁deadline	-4736
▁identity	-4737
▁socalled	-4738
▁whatever	-4739
▁constitute	-4740
▁transparent	-4741
1)	-4742
dy	-4743
▁PH	-4744
erba	-4745
icts	-4746
sing	-4747
teed	-4748
vest	-4749
lying	-4750
oking	-4751
using	-4752
verty	-4753
▁dict	-4754
▁Chile	-4755
▁apart	-4756
▁hopes	-4757
▁learn	-4758
▁shipp	-4759
▁Bosnia	-4760
▁Summit	-4761
▁expand	-4762
▁figure	-4763
▁interv	-4764
▁places	-4765
▁disappe	-4766
▁poverty	-4767
▁ordinary	-4768
▁politics	-4769
▁happening	-4770
▁constantly	-4771
▁registration	-4772
AP	-4773
▁TO	-4774
etic	-4775
▁oil	-4776
icate	-4777
ringe	-4778
▁dism	-4779
▁warm	-4780
▁decis	-4781
▁green	-4782
▁lower	-4783
▁prove	-4784
▁purely	-4785
▁Freight	-4786
▁allowing	-4787
▁applying	-4788
▁declared	-4789
▁inclusion	-4790
▁unanimity	-4791
▁appreciate	-4792
▁guaranteed	-4793
▁maintained	-4794
▁proportion	-4795
▁crossborder	-4796
▁occupational	-4797
AG	-4798
br	-4799
▁amb	-4800
-1994	-4801
istry	-4802
▁NGOs	-4803
irable	-4804
▁entry	-4805
▁faced	-4806
▁fruit	-4807
▁sides	-4808
▁courts	-4809
▁define	-4810
▁manage	-4811
▁airport	-4812
▁getting	-4813
▁largely	-4814
▁penalty	-4815
▁science	-4816
▁changing	-4817
▁vehicles	-4818
▁Objective	-4819
▁competent	-4820
▁correspon	-4821
▁exclusion	-4822
▁marketing	-4823
▁perfectly	-4824
▁protected	-4825
▁uncertain	-4826
▁facilitate	-4827
▁ultimately	-4828
▁considering	-4829
▁communications	-4830
▁x	-4831
RAT	-4832
▁90	-4833
▁Cl	-4834
▁Yes	-4835
▁hom	-4836
lling	-4837
▁Lomé	-4838
ademic	-4839
▁poUcy	-4840
▁radio	-4841
ulating	-4842
▁Follow	-4843
▁assume	-4844
▁cunent	-4845
▁profit	-4846
▁deliber	-4847
▁disease	-4848
▁himself	-4849
▁mandate	-4850
▁explained	-4851
▁president	-4852
▁emphasized	-4853
▁identified	-4854
▁previously	-4855
institutional	-4856
▁multinational	-4857
60	-4858
IV	-4859
ral	-4860
▁')	-4861
ired	-4862
▁Hel	-4863
▁pun	-4864
▁sav	-4865
▁sym	-4866
▁tro	-4867
allel	-4868
iment	-4869
▁rail	-4870
▁town	-4871
illing	-4872
▁Georg	-4873
▁Paris	-4874
▁sales	-4875
▁stamp	-4876
▁toler	-4877
▁Having	-4878
▁expert	-4879
▁Culture	-4880
▁attract	-4881
▁obliged	-4882
▁bilateral	-4883
▁diversity	-4884
▁economies	-4885
▁referring	-4886
▁background	-4887
▁determined	-4888
▁delegations	-4889
▁educational	-4890
47	-4891
2).	-4892
kra	-4893
▁1,	-4894
ales	-4895
ming	-4896
▁Fab	-4897
▁nom	-4898
▁voc	-4899
igned	-4900
itage	-4901
▁dign	-4902
▁near	-4903
▁news	-4904
▁stim	-4905
▁stru	-4906
▁Monti	-4907
▁incom	-4908
▁monop	-4909
▁spread	-4910
▁transl	-4911
▁consort	-4912
▁largest	-4913
▁motions	-4914
▁emission	-4915
▁geograph	-4916
▁continues	-4917
▁estimates	-4918
▁mechanism	-4919
▁commitments	-4920
▁individuals	-4921
▁politicians	-4922
▁organisation	-4923
53	-4924
67	-4925
Ch	-4926
-197	-4927
ingu	-4928
year	-4929
▁Sci	-4930
▁lob	-4931
verse	-4932
▁Conf	-4933
▁Ukra	-4934
▁host	-4935
▁isol	-4936
▁surv	-4937
active	-4938
ancing	-4939
▁While	-4940
▁admin	-4941
▁coast	-4942
▁daily	-4943
▁sorry	-4944
▁Commun	-4945
▁Middle	-4946
▁agents	-4947
▁approx	-4948
▁brings	-4949
▁fourth	-4950
▁stocks	-4951
▁Armenia	-4952
▁keeping	-4953
▁periods	-4954
▁combined	-4955
▁Education	-4956
▁acknowled	-4957
▁continent	-4958
▁elsewhere	-4959
▁suggested	-4960
▁suspended	-4961
▁Honourable	-4962
▁innovation	-4963
▁Parliamentary	-4964
12	-4965
CE	-4966
CM	-4967
ya	-4968
oon	-4969
yer	-4970
▁37	-4971
▁Fl	-4972
▁Tw	-4973
Uity	-4974
otes	-4975
ware	-4976
▁Gra	-4977
▁jur	-4978
1/97)	-4979
ipher	-4980
rimin	-4981
▁Coll	-4982
▁unit	-4983
▁Found	-4984
▁Palest	-4985
▁became	-4986
▁satell	-4987
.07.1994	-4988
▁briefly	-4989
▁charges	-4990
▁climate	-4991
▁drawing	-4992
▁exports	-4993
▁greatly	-4994
enophobia	-4995
▁attached	-4996
▁compared	-4997
▁materials	-4998
▁responsib	-4999
▁undertake	-5000
▁consistent	-5001
▁processing	-5002
▁demonstrate	-5003
▁negotiation	-5004
▁restrictions	-5005
▁sufficiently	-5006
▁biotechnology	-5007
/2	-5008
▁EN	-5009
▁Ro	-5010
arer	-5011
atom	-5012
sist	-5013
▁vig	-5014
▁award	-5015
▁deals	-5016
▁proof	-5017
regular	-5018
▁Medina	-5019
▁belong	-5020
▁exceed	-5021
▁honest	-5022
▁slight	-5023
▁Control	-5024
▁Finnish	-5025
▁Georgia	-5026
▁inspect	-5027
▁relates	-5028
▁excluded	-5029
▁heritage	-5030
▁identify	-5031
▁organised	-5032
▁realistic	-5033
▁competence	-5034
▁personally	-5035
▁expectations	-5036
▁transitional	-5037
hab	-5038
ilt	-5039
4-19	-5040
▁har	-5041
based	-5042
enced	-5043
▁hous	-5044
▁kept	-5045
linson	-5046
▁1995.	-5047
▁Civil	-5048
▁PHARE	-5049
▁solve	-5050
▁played	-5051
▁Forward	-5052
▁cloning	-5053
▁federal	-5054
▁ministers	-5055
▁enforcement	-5056
▁rapporteurs	-5057
▁liberalization	-5058
9.	-5059
DP	-5060
ki	-5061
▁SP	-5062
▁ey	-5063
oral	-5064
▁Ang	-5065
▁PAR	-5066
▁env	-5067
erate	-5068
iding	-5069
limin	-5070
overy	-5071
uting	-5072
▁Both	-5073
▁Mier	-5074
▁fees	-5075
ertens	-5076
▁hands	-5077
▁truth	-5078
▁shared	-5079
▁shares	-5080
▁sought	-5081
▁teleph	-5082
▁treated	-5083
▁usually	-5084
▁weapons	-5085
▁debating	-5086
▁eligible	-5087
▁flexible	-5088
▁minister	-5089
▁stations	-5090
▁Following	-5091
▁Tomlinson	-5092
▁appointed	-5093
▁irregular	-5094
▁preparing	-5095
▁resulting	-5096
▁electronic	-5097
▁forwarders	-5098
▁complicated	-5099
▁outstanding	-5100
▁conservation	-5101
▁ratification	-5102
IL	-5103
cipl	-5104
ique	-5105
▁Rad	-5106
▁pie	-5107
ading	-5108
urers	-5109
▁Most	-5110
▁Serv	-5111
▁size	-5112
▁stri	-5113
ective	-5114
mental	-5115
▁seven	-5116
▁tight	-5117
▁losses	-5118
missible	-5119
▁courses	-5120
▁Approval	-5121
▁19.07.1994	-5122
▁Foundation	-5123
▁applicants	-5124
▁dissemination	-5125
.'	-5126
Ue	-5127
avi	-5128
cia	-5129
iff	-5130
zen	-5131
ancy	-5132
▁DOC	-5133
▁Fon	-5134
▁Red	-5135
▁COMM	-5136
▁fine	-5137
▁mach	-5138
▁trib	-5139
anging	-5140
vision	-5141
▁annex	-5142
▁mines	-5143
▁surve	-5144
▁ethnic	-5145
▁hardly	-5146
▁quotas	-5147
▁signal	-5148
▁stable	-5149
liminary	-5150
▁Bertens	-5151
▁coherent	-5152
▁diseases	-5153
▁explicit	-5154
▁Recommend	-5155
▁announced	-5156
▁suffering	-5157
▁television	-5158
▁communities	-5159
▁restructuring	-5160
4­	-5161
DU	-5162
ee	-5163
cer	-5164
pay	-5165
aard	-5166
▁art	-5167
agree	-5168
ariat	-5169
ience	-5170
stedt	-5171
▁1991	-5172
▁Wibe	-5173
▁black	-5174
▁compe	-5175
▁foods	-5176
▁juris	-5177
▁Titley	-5178
▁debated	-5179
▁holding	-5180
▁schools	-5181
▁whereby	-5182
▁decisive	-5183
▁financed	-5184
▁minority	-5185
▁abolition	-5186
▁complaint	-5187
▁economics	-5188
▁incentives	-5189
▁consequence	-5190
▁Consequently	-5191
▁demonstrated	-5192
Uc	-5193
ja	-5194
ape	-5195
net	-5196
ula	-5197
▁%.	-5198
▁2,	-5199
▁Ab	-5200
▁Gr	-5201
onom	-5202
▁Mac	-5203
▁Sil	-5204
▁cow	-5205
oting	-5206
▁Appl	-5207
▁cere	-5208
▁displ	-5209
▁Madrid	-5210
▁excise	-5211
▁twenty	-5212
▁answers	-5213
▁poUtical	-5214
▁shipping	-5215
▁extending	-5216
▁gradually	-5217
▁Socialists	-5218
▁consortium	-5219
▁legitimacy	-5220
▁preference	-5221
▁credibility	-5222
▁distinction	-5223
▁explanation	-5224
▁necessarily	-5225
▁preparations	-5226
9,	-5227
py	-5228
eav	-5229
ijs	-5230
jud	-5231
tan	-5232
tel	-5233
▁60	-5234
▁80	-5235
▁Tl	-5236
amic	-5237
itch	-5238
▁Sir	-5239
▁hor	-5240
▁mil	-5241
antic	-5242
▁pict	-5243
▁unre	-5244
uratom	-5245
▁Annual	-5246
▁conect	-5247
▁endeav	-5248
▁postal	-5249
▁relate	-5250
........	-5251
etheless	-5252
▁arising	-5253
▁logical	-5254
▁pursued	-5255
▁savings	-5256
▁sincere	-5257
▁requests	-5258
▁applicant	-5259
▁combating	-5260
▁strategic	-5261
▁essentially	-5262
▁preliminary	-5263
▁sovereignty	-5264
▁incorporated	-5265
sy	-5266
ua	-5267
fin	-5268
ony	-5269
▁3.	-5270
▁Ac	-5271
▁Wa	-5272
dict	-5273
raid	-5274
usal	-5275
▁Cro	-5276
▁arg	-5277
▁che	-5278
▁saw	-5279
▁Serb	-5280
▁horm	-5281
▁inev	-5282
▁lose	-5283
▁safe	-5284
▁sets	-5285
▁went	-5286
▁1998,	-5287
▁Deleg	-5288
▁Oomen	-5289
▁advoc	-5290
▁began	-5291
▁house	-5292
▁worse	-5293
diction	-5294
▁afraid	-5295
▁charge	-5296
▁delays	-5297
▁doubts	-5298
▁Finance	-5299
▁Western	-5300
▁becomes	-5301
▁budgets	-5302
▁highest	-5303
▁islands	-5304
▁Palestin	-5305
▁disagree	-5306
▁stressed	-5307
▁extensive	-5308
▁virtually	-5309
▁Federation	-5310
▁candidates	-5311
▁collective	-5312
▁registered	-5313
▁acknowledge	-5314
▁politically	-5315
17	-5316
68	-5317
CL	-5318
ING	-5319
ado	-5320
ato	-5321
oll	-5322
ris	-5323
emen	-5324
iers	-5325
oted	-5326
vene	-5327
▁Non	-5328
▁Vol	-5329
▁got	-5330
endly	-5331
▁Aust	-5332
▁Cong	-5333
▁flag	-5334
▁flow	-5335
▁reve	-5336
undred	-5337
▁Youth	-5338
▁divid	-5339
▁breach	-5340
▁volume	-5341
▁capable	-5342
▁protest	-5343
▁attempts	-5344
▁cunently	-5345
▁infringe	-5346
▁supposed	-5347
▁Christian	-5348
▁compliance	-5349
▁percentage	-5350
▁negotiating	-5351
▁unanimously	-5352
65	-5353
Ru	-5354
0).	-5355
LIA	-5356
▁Ed	-5357
Ruij	-5358
like	-5359
ured	-5360
▁CAP	-5361
taine	-5362
▁forg	-5363
▁pros	-5364
atures	-5365
aviour	-5366
necess	-5367
▁drift	-5368
▁route	-5369
Ruijten	-5370
ipheral	-5371
▁centre	-5372
▁honour	-5373
▁resist	-5374
▁severe	-5375
▁stands	-5376
▁widely	-5377
▁Despite	-5378
▁Without	-5379
▁attacks	-5380
▁dignity	-5381
▁equival	-5382
▁restore	-5383
▁Cohesion	-5384
▁fighting	-5385
▁instruct	-5386
▁opposite	-5387
▁overcome	-5388
▁peaceful	-5389
▁ratified	-5390
▁urgently	-5391
regulation	-5392
▁Lindqvist	-5393
▁discharge	-5394
▁executive	-5395
▁smuggling	-5396
▁presenting	-5397
▁vocational	-5398
▁universities	-5399
▁qualifications	-5400
.,	-5401
Al	-5402
EA	-5403
3).	-5404
bon	-5405
cle	-5406
▁IR	-5407
.194	-5408
akis	-5409
ijan	-5410
ilos	-5411
mann	-5412
▁Hol	-5413
2/97)	-5414
erved	-5415
fence	-5416
ropri	-5417
uable	-5418
▁TRAN	-5419
▁Broek	-5420
▁Votes	-5421
▁south	-5422
LIAMENT	-5423
▁Azerba	-5424
▁acting	-5425
▁afford	-5426
▁aftern	-5427
▁agrees	-5428
▁notice	-5429
▁Instead	-5430
▁Ukraine	-5431
▁finding	-5432
▁premium	-5433
▁Austrian	-5434
▁Fontaine	-5435
▁articles	-5436
▁covering	-5437
▁definite	-5438
▁distance	-5439
▁domestic	-5440
▁employed	-5441
▁openness	-5442
▁respects	-5443
▁candidate	-5444
▁emissions	-5445
▁satellite	-5446
▁Azerbaijan	-5447
▁PARLIAMENT	-5448
▁protecting	-5449
▁respective	-5450
▁perspective	-5451
▁significance	-5452
▁automatically	-5453
18	-5454
do	-5455
me	-5456
-00	-5457
ode	-5458
rew	-5459
ros	-5460
▁2.	-5461
▁Ah	-5462
thly	-5463
trib	-5464
▁Has	-5465
▁Its	-5466
▁Mal	-5467
▁beg	-5468
▁dou	-5469
▁dum	-5470
▁sad	-5471
▁syn	-5472
reens	-5473
▁Asia	-5474
▁aids	-5475
ancial	-5476
raband	-5477
urning	-5478
▁boost	-5479
▁conce	-5480
▁pages	-5481
▁relig	-5482
tenance	-5483
▁compon	-5484
▁fellow	-5485
▁unfair	-5486
▁whilst	-5487
▁Collins	-5488
▁clarify	-5489
▁depends	-5490
▁harmful	-5491
▁leaving	-5492
▁release	-5493
▁reserve	-5494
▁historic	-5495
▁misunder	-5496
▁normally	-5497
▁afternoon	-5498
▁behaviour	-5499
▁movements	-5500
▁penalties	-5501
▁preventing	-5502
▁transition	-5503
▁exclusively	-5504
▁reservations	-5505
▁identification	-5506
LT	-5507
amb	-5508
ero	-5509
eva	-5510
hus	-5511
lov	-5512
onz	-5513
ops	-5514
tte	-5515
▁35	-5516
▁Cor	-5517
▁Ore	-5518
ountr	-5519
▁Dist	-5520
▁cast	-5521
▁debt	-5522
▁wait	-5523
celona	-5524
erland	-5525
▁Rural	-5526
▁below	-5527
▁marks	-5528
▁resum	-5529
▁Govern	-5530
▁allows	-5531
▁Special	-5532
▁fifteen	-5533
▁Ministry	-5534
▁actively	-5535
▁unnecess	-5536
Commission	-5537
▁frequently	-5538
▁publication	-5539
ITY	-5540
ken	-5541
ria	-5542
▁El	-5543
anch	-5544
grad	-5545
mper	-5546
▁Net	-5547
▁cou	-5548
ordic	-5549
▁Gonz	-5550
▁Thus	-5551
▁dele	-5552
▁reci	-5553
igence	-5554
stream	-5555
▁Swiss	-5556
▁heavy	-5557
▁optim	-5558
▁persu	-5559
bitious	-5560
ounting	-5561
▁COMMIT	-5562
▁incomp	-5563
▁marked	-5564
▁abandon	-5565
▁helpful	-5566
▁hundred	-5567
▁legally	-5568
▁smaller	-5569
▁wording	-5570
▁forecast	-5571
▁strictly	-5572
▁Democrats	-5573
▁eliminate	-5574
▁highlight	-5575
▁remaining	-5576
▁distributed	-5577
▁suggestions	-5578
▁undertaking	-5579
▁Recommendation	-5580
57	-5581
66	-5582
BL	-5583
ey	-5584
agn	-5585
emb	-5586
iar	-5587
orne	-5588
ucas	-5589
▁buy	-5590
otter	-5591
pping	-5592
raint	-5593
▁Oreja	-5594
▁aside	-5595
▁lobby	-5596
▁ships	-5597
▁stock	-5598
-1994).	-5599
▁Depart	-5600
▁Geneva	-5601
▁advice	-5602
▁easily	-5603
▁larger	-5604
otterdam	-5605
▁Brittan	-5606
▁hearing	-5607
▁illustr	-5608
▁vehicle	-5609
roduction	-5610
▁COMMITTE	-5611
▁northern	-5612
▁petition	-5613
▁replaced	-5614
▁standing	-5615
▁Barcelona	-5616
▁conflicts	-5617
▁examining	-5618
▁Delegation	-5619
▁compatible	-5620
▁subsequently	-5621
37	-5622
ga	-5623
pa	-5624
any	-5625
fers	-5626
path	-5627
road	-5628
▁bat	-5629
-96/0	-5630
lined	-5631
ouses	-5632
▁Fern	-5633
overed	-5634
▁Switz	-5635
▁chann	-5636
▁crops	-5637
▁imper	-5638
▁incon	-5639
▁ports	-5640
▁spend	-5641
onnelly	-5642
▁Action	-5643
▁agency	-5644
▁firmly	-5645
▁ruling	-5646
▁tariff	-5647
building	-5648
▁Defence	-5649
▁Indones	-5650
▁bearing	-5651
▁heading	-5652
▁revised	-5653
▁someone	-5654
ventional	-5655
▁category	-5656
▁launched	-5657
▁millions	-5658
▁suffered	-5659
▁Budgetary	-5660
▁ambitious	-5661
▁unanimous	-5662
▁Directorate	-5663
▁Switzerland	-5664
▁forthcoming	-5665
15	-5666
TS	-5667
ped	-5668
viet	-5669
▁aud	-5670
▁bit	-5671
▁pil	-5672
▁pub	-5673
▁von	-5674
ondon	-5675
▁stay	-5676
▁vice	-5677
visory	-5678
▁Great	-5679
▁trial	-5680
▁veter	-5681
ilosoph	-5682
▁helped	-5683
▁sphere	-5684
▁weight	-5685
▁housing	-5686
▁jointly	-5687
▁offence	-5688
▁prosper	-5689
▁Donnelly	-5690
▁Training	-5691
▁deficits	-5692
▁estimated	-5693
▁producing	-5694
▁prospects	-5695
▁regulatory	-5696
▁xenophobia	-5697
conventional	-5698
▁investigate	-5699
▁investments	-5700
▁considerably	-5701
▁determination	-5702
-2	-5703
gn	-5704
hr	-5705
jer	-5706
anda	-5707
nets	-5708
pone	-5709
▁Cub	-5710
▁III	-5711
▁Woh	-5712
essor	-5713
▁Prot	-5714
▁Year	-5715
▁cuts	-5716
▁phen	-5717
▁proc	-5718
▁vast	-5719
ursday	-5720
▁COMMU	-5721
▁abuse	-5722
▁ineff	-5723
▁posts	-5724
▁truly	-5725
▁Soviet	-5726
▁destro	-5727
▁orient	-5728
▁affects	-5729
▁discipl	-5730
▁patents	-5731
▁realize	-5732
▁subsidy	-5733
▁disaster	-5734
▁conducted	-5735
▁correctly	-5736
▁decentral	-5737
▁delighted	-5738
▁reflected	-5739
▁worldwide	-5740
▁equivalent	-5741
▁procedural	-5742
▁veterinary	-5743
▁maintenance	-5744
34	-5745
54	-5746
58	-5747
PO	-5748
ba	-5749
DER	-5750
akh	-5751
▁EM	-5752
CLAF	-5753
▁Fle	-5754
▁She	-5755
▁dyn	-5756
▁mid	-5757
▁sem	-5758
3/97)	-5759
9/97)	-5760
aside	-5761
lfart	-5762
place	-5763
▁Over	-5764
▁dram	-5765
ATIONS	-5766
▁Clear	-5767
▁Point	-5768
▁Would	-5769
▁blame	-5770
▁breed	-5771
▁Before	-5772
▁Cambod	-5773
▁covers	-5774
▁fleets	-5775
▁solely	-5776
▁Russian	-5777
▁centres	-5778
▁helping	-5779
▁mistake	-5780
▁pension	-5781
▁picture	-5782
▁promise	-5783
▁trading	-5784
▁Thursday	-5785
▁Wohlfart	-5786
▁believes	-5787
▁certific	-5788
▁families	-5789
▁granting	-5790
▁interpre	-5791
▁reliable	-5792
▁Rotterdam	-5793
▁dependent	-5794
▁exemptions	-5795
▁coordinated	-5796
▁exploitation	-5797
EM	-5798
Uow	-5799
ocu	-5800
oly	-5801
pir	-5802
sed	-5803
tin	-5804
▁3,	-5805
▁70	-5806
▁PS	-5807
▁Pa	-5808
disc	-5809
ller	-5810
rent	-5811
▁GDP	-5812
▁awa	-5813
▁ded	-5814
6/97)	-5815
apers	-5816
▁Like	-5817
▁diss	-5818
▁sold	-5819
▁stip	-5820
▁Again	-5821
▁Staff	-5822
▁TRANS	-5823
▁alarm	-5824
▁borne	-5825
▁label	-5826
▁multi	-5827
▁pleas	-5828
comings	-5829
ocation	-5830
▁COMMUN	-5831
▁Greens	-5832
▁nearly	-5833
▁search	-5834
▁Senegal	-5835
▁feeling	-5836
▁regrett	-5837
▁announce	-5838
▁speeches	-5839
▁basically	-5840
▁electoral	-5841
▁exchanges	-5842
▁maintaining	-5843
.6	-5844
2/	-5845
CD	-5846
cl	-5847
tw	-5848
bal	-5849
▁La	-5850
ager	-5851
head	-5852
ores	-5853
rupt	-5854
▁Cur	-5855
▁Vel	-5856
▁fil	-5857
ctors	-5858
organ	-5859
orial	-5860
oured	-5861
▁Prov	-5862
▁Scot	-5863
lantic	-5864
▁Helms	-5865
▁Merit	-5866
▁UCLAF	-5867
▁chair	-5868
▁fixed	-5869
▁forum	-5870
▁logic	-5871
▁moral	-5872
▁spoke	-5873
lectual	-5874
ruption	-5875
▁Agency	-5876
▁London	-5877
▁affair	-5878
▁consci	-5879
▁enthus	-5880
▁listen	-5881
▁looked	-5882
▁plants	-5883
▁prejud	-5884
▁skills	-5885
▁Radical	-5886
▁lasting	-5887
▁primary	-5888
▁privile	-5889
▁recruit	-5890
▁refened	-5891
▁Alliance	-5892
▁Projects	-5893
▁disposal	-5894
▁moreover	-5895
▁phenomen	-5896
▁postpone	-5897
▁rational	-5898
▁reaching	-5899
▁reaction	-5900
▁register	-5901
▁Represent	-5902
▁affecting	-5903
▁employers	-5904
▁minorities	-5905
▁systematic	-5906
▁contributed	-5907
▁consequently	-5908
▁shortcomings	-5909
▁supplementary	-5910
▁congratulating	-5911
bo	-5912
ta	-5913
Bur	-5914
IES	-5915
ars	-5916
ulf	-5917
osen	-5918
stan	-5919
▁Ahl	-5920
▁MED	-5921
▁McM	-5922
▁win	-5923
thern	-5924
▁Cast	-5925
▁Pack	-5926
▁Slov	-5927
▁Tind	-5928
▁airc	-5929
▁ball	-5930
▁exec	-5931
▁nets	-5932
▁pain	-5933
▁util	-5934
▁ware	-5935
Burton	-5936
inated	-5937
▁faith	-5938
▁leads	-5939
▁quote	-5940
outhern	-5941
▁Reform	-5942
▁cattle	-5943
▁prison	-5944
▁surely	-5945
▁taxpay	-5946
▁tonnes	-5947
▁wealth	-5948
▁removed	-5949
▁running	-5950
▁sympath	-5951
▁carriers	-5952
▁commerce	-5953
▁learning	-5954
▁reported	-5955
▁treaties	-5956
▁valuable	-5957
▁welcomes	-5958
▁intensive	-5959
▁surprised	-5960
ECD	-5961
gar	-5962
unk	-5963
▁4.	-5964
enth	-5965
iced	-5966
iver	-5967
oler	-5968
▁lie	-5969
▁upd	-5970
▁vac	-5971
enses	-5972
▁Land	-5973
▁frag	-5974
▁path	-5975
▁room	-5976
▁user	-5977
▁vary	-5978
roduct	-5979
▁built	-5980
▁hence	-5981
▁kinds	-5982
▁novel	-5983
ocrates	-5984
sequent	-5985
▁Norway	-5986
▁Tindem	-5987
▁outset	-5988
▁sexual	-5989
▁Britain	-5990
▁Chapter	-5991
▁Euratom	-5992
▁Rothley	-5993
▁alleged	-5994
▁creates	-5995
▁existed	-5996
▁interim	-5997
▁justify	-5998
▁shortly	-5999
▁Ahlqvist	-6000
▁connected	-6001
▁philosoph	-6002
▁facilities	-6003
▁Agricultural	-6004
UR	-6005
Med	-6006
quis	-6007
time	-6008
wing	-6009
▁Inc	-6010
▁SPD	-6011
▁Sit	-6012
▁pra	-6013
▁spl	-6014
▁tit	-6015
stuff	-6016
which	-6017
▁Well	-6018
▁soft	-6019
▁wine	-6020
artney	-6021
▁1999.	-6022
▁Moroc	-6023
▁catch	-6024
▁compr	-6025
▁eight	-6026
▁intel	-6027
▁liber	-6028
▁meets	-6029
▁pilot	-6030
▁stake	-6031
pection	-6032
▁crimes	-6033
▁freely	-6034
▁paying	-6035
▁Studies	-6036
▁closure	-6037
▁options	-6038
▁topical	-6039
▁Socrates	-6040
▁academic	-6041
▁deserves	-6042
▁informal	-6043
▁reflects	-6044
▁teachers	-6045
▁weakness	-6046
▁welcomed	-6047
▁criminals	-6048
▁disappear	-6049
▁exclusive	-6050
▁personnel	-6051
▁processes	-6052
▁Forwarders	-6053
▁approaches	-6054
▁containing	-6055
▁definitive	-6056
▁negotiated	-6057
▁accompanied	-6058
▁constitutes	-6059
▁supervision	-6060
▁guaranteeing	-6061
▁irregularities	-6062
38	-6063
TA	-6064
no	-6065
1).	-6066
gra	-6067
osp	-6068
yed	-6069
apse	-6070
ried	-6071
tega	-6072
▁Pos	-6073
▁Ste	-6074
▁aro	-6075
▁dro	-6076
cohol	-6077
oring	-6078
▁Ford	-6079
▁goal	-6080
▁save	-6081
▁Croat	-6082
▁Kenya	-6083
▁Plant	-6084
▁Simil	-6085
▁acted	-6086
▁begun	-6087
▁datab	-6088
▁traps	-6089
▁Ortega	-6090
▁Please	-6091
▁chosen	-6092
▁collab	-6093
▁encoun	-6094
▁fairly	-6095
▁traged	-6096
▁Clearly	-6097
▁autonom	-6098
▁waiting	-6099
▁Articles	-6100
▁cultures	-6101
▁directed	-6102
▁drafting	-6103
▁estimate	-6104
▁findings	-6105
▁occurred	-6106
▁broadcast	-6107
▁selection	-6108
▁intentions	-6109
▁inventions	-6110
▁accordingly	-6111
▁engineering	-6112
▁prosecution	-6113
▁satisfaction	-6114
▁simplification	-6115
▁congratulations	-6116
In	-6117
ky	-6118
/95	-6119
asm	-6120
off	-6121
▁36	-6122
acis	-6123
ques	-6124
rain	-6125
reet	-6126
resh	-6127
▁Del	-6128
▁Mob	-6129
▁hes	-6130
gency	-6131
illor	-6132
▁Cuba	-6133
▁Grad	-6134
▁page	-6135
luding	-6136
▁books	-6137
▁minim	-6138
▁seeks	-6139
▁youth	-6140
ensible	-6141
▁Velzen	-6142
▁inside	-6143
▁mittee	-6144
▁suffer	-6145
▁declare	-6146
▁dispute	-6147
▁intoler	-6148
▁invited	-6149
stitution	-6150
▁Protocol	-6151
▁aircraft	-6152
▁benefici	-6153
▁director	-6154
▁features	-6155
▁recovery	-6156
▁regulate	-6157
▁sessions	-6158
▁setaside	-6159
▁Macartney	-6160
▁medicines	-6161
▁categories	-6162
▁contraband	-6163
▁suggestion	-6164
▁suspension	-6165
▁achievement	-6166
▁geographical	-6167
▁jurisdiction	-6168
▁presentation	-6169
35	-6170
YS	-6171
-04	-6172
abs	-6173
chi	-6174
1.19	-6175
CDDA	-6176
comp	-6177
enna	-6178
keep	-6179
rage	-6180
rust	-6181
▁IRU	-6182
▁Nat	-6183
▁Wat	-6184
ensen	-6185
icing	-6186
▁Cross	-6187
▁barri	-6188
▁newsp	-6189
▁twice	-6190
▁acquis	-6191
▁banned	-6192
▁recomm	-6193
▁unions	-6194
ersonnel	-6195
itiative	-6196
▁Working	-6197
▁clarity	-6198
▁deliver	-6199
▁driving	-6200
▁prevail	-6201
▁suspect	-6202
▁warning	-6203
▁Internal	-6204
▁emerging	-6205
▁enhanced	-6206
▁presents	-6207
▁sections	-6208
▁targeted	-6209
▁Municipal	-6210
▁forwarded	-6211
▁integrity	-6212
▁intervene	-6213
▁telephone	-6214
▁varieties	-6215
▁radioactive	-6216
▁unnecessary	-6217
▁intellectual	-6218
HO	-6219
eu	-6220
nn	-6221
ns	-6222
ze	-6223
cal	-6224
eds	-6225
ola	-6226
uis	-6227
▁4,	-6228
ilty	-6229
orde	-6230
orin	-6231
▁500	-6232
▁Bul	-6233
▁NAT	-6234
▁anx	-6235
▁hyp	-6236
acing	-6237
ifies	-6238
▁Bald	-6239
▁High	-6240
▁MEPs	-6241
▁none	-6242
aching	-6243
stuffs	-6244
▁Maced	-6245
▁Phare	-6246
▁Tacis	-6247
▁piece	-6248
▁remed	-6249
▁touch	-6250
▁guilty	-6251
▁nation	-6252
▁oppose	-6253
▁routes	-6254
▁seeing	-6255
▁warmly	-6256
▁Europol	-6257
▁Theorin	-6258
▁awarded	-6259
▁install	-6260
▁letters	-6261
Community	-6262
▁Northern	-6263
▁meantime	-6264
▁thanking	-6265
University	-6266
▁Tindemans	-6267
▁confusion	-6268
▁envisaged	-6269
▁incentive	-6270
▁religious	-6271
▁commission	-6272
▁coordinate	-6273
▁originally	-6274
▁exceptional	-6275
▁foundations	-6276
▁acknowledged	-6277
▁deregulation	-6278
▁Technological	-6279
▁participating	-6280
4/	-6281
90	-6282
EG	-6283
ai	-6284
ana	-6285
cio	-6286
ean	-6287
ife	-6288
iny	-6289
urb	-6290
▁FR	-6291
holm	-6292
obod	-6293
ocal	-6294
pped	-6295
rous	-6296
▁Day	-6297
▁Sup	-6298
▁han	-6299
▁weU	-6300
arant	-6301
comes	-6302
▁Also	-6303
▁Code	-6304
▁Drug	-6305
▁Pact	-6306
▁door	-6307
▁judg	-6308
▁neut	-6309
▁rare	-6310
▁sett	-6311
ersson	-6312
ouchet	-6313
outsis	-6314
▁accur	-6315
▁alter	-6316
▁fines	-6317
▁match	-6318
istical	-6319
ressive	-6320
▁Gradin	-6321
▁output	-6322
▁reveal	-6323
national	-6324
▁Charter	-6325
▁Section	-6326
▁Souchet	-6327
▁confron	-6328
▁dangers	-6329
▁dumping	-6330
▁fraudul	-6331
▁tribute	-6332
▁Albanian	-6333
▁advanced	-6334
▁enabling	-6335
▁longterm	-6336
▁marginal	-6337
▁preserve	-6338
▁stronger	-6339
▁Papoutsis	-6340
▁expensive	-6341
▁receiving	-6342
▁rejection	-6343
▁conversion	-6344
▁ecological	-6345
▁reductions	-6346
▁settlement	-6347
▁economically	-6348
▁representing	-6349
▁substantially	-6350
2.	-6351
3)	-6352
3/	-6353
dd	-6354
cri	-6355
guy	-6356
igu	-6357
ijk	-6358
ils	-6359
ked	-6360
mar	-6361
olf	-6362
umb	-6363
▁75	-6364
▁ah	-6365
▁je	-6366
oles	-6367
petr	-6368
serv	-6369
▁CDU	-6370
▁Ecu	-6371
▁Two	-6372
▁Val	-6373
▁Who	-6374
▁adh	-6375
▁don	-6376
▁dos	-6377
enger	-6378
▁Novo	-6379
▁Telk	-6380
▁Till	-6381
▁Viet	-6382
▁sums	-6383
engers	-6384
esides	-6385
▁earth	-6386
▁fifth	-6387
▁items	-6388
▁usual	-6389
▁worry	-6390
ception	-6391
honment	-6392
iannual	-6393
unction	-6394
▁Invest	-6395
▁entail	-6396
▁extrad	-6397
▁nobody	-6398
▁Fernand	-6399
▁Through	-6400
▁Tillich	-6401
committee	-6402
▁Cambodia	-6403
▁expenses	-6404
▁offences	-6405
▁assisting	-6406
▁succeeded	-6407
▁collection	-6408
▁repeatedly	-6409
▁subsequent	-6410
▁Palestinian	-6411
▁bureaucracy	-6412
▁productivity	-6413
▁authorization	-6414
▁Administration	-6415
▁investigations	-6416
28	-6417
zz	-6418
how	-6419
nam	-6420
osh	-6421
zqu	-6422
▁-1	-6423
▁Sm	-6424
4-04	-6425
asty	-6426
lynn	-6427
obyl	-6428
onow	-6429
zech	-6430
▁Fif	-6431
▁Int	-6432
▁Kos	-6433
▁Pre	-6434
▁Rac	-6435
▁Vir	-6436
▁fit	-6437
▁gap	-6438
andal	-6439
owman	-6440
▁Bjer	-6441
▁NATO	-6442
▁city	-6443
▁fort	-6444
▁push	-6445
▁zone	-6446
zquier	-6447
▁1994,	-6448
▁Flynn	-6449
▁Liber	-6450
▁expos	-6451
▁fresh	-6452
▁plain	-6453
▁socio	-6454
▁worst	-6455
itative	-6456
▁Lastly	-6457
▁School	-6458
▁Silguy	-6459
▁choose	-6460
▁double	-6461
▁retail	-6462
hernobyl	-6463
laration	-6464
▁Service	-6465
▁alcohol	-6466
▁commend	-6467
▁healthy	-6468
▁ongoing	-6469
▁resumed	-6470
administr	-6471
▁contents	-6472
▁extraord	-6473
▁freedoms	-6474
▁mistakes	-6475
▁promised	-6476
▁desirable	-6477
▁emergency	-6478
▁initiated	-6479
▁satisfied	-6480
▁secretary	-6481
▁tradition	-6482
▁acceptance	-6483
▁apparently	-6484
▁exceptions	-6485
▁paragraphs	-6486
▁scientists	-6487
▁translated	-6488
▁Regulations	-6489
▁circulation	-6490
▁composition	-6491
▁incorporate	-6492
▁environmentally	-6493
▁nonconventional	-6494
2,	-6495
26	-6496
3.	-6497
(2)	-6498
.00	-6499
7).	-6500
COD	-6501
pre	-6502
tal	-6503
upp	-6504
▁34	-6505
bitr	-6506
ibet	-6507
rown	-6508
▁Equ	-6509
▁mal	-6510
▁sac	-6511
arted	-6512
elled	-6513
inese	-6514
▁Gall	-6515
▁West	-6516
arding	-6517
itably	-6518
▁Fabre	-6519
▁antic	-6520
▁bases	-6521
▁fails	-6522
▁foUow	-6523
▁space	-6524
ogether	-6525
viously	-6526
▁Racism	-6527
▁forgot	-6528
▁funded	-6529
▁remove	-6530
ographic	-6531
▁Bjerreg	-6532
▁Martens	-6533
▁Vietnam	-6534
▁arrived	-6535
▁devoted	-6536
▁imagine	-6537
▁perpetr	-6538
▁tonight	-6539
▁offering	-6540
▁persuade	-6541
▁recorded	-6542
▁straight	-6543
▁Chernobyl	-6544
▁Similarly	-6545
▁Stability	-6546
▁municipal	-6547
▁terrorist	-6548
▁contradict	-6549
▁expressing	-6550
▁mainstream	-6551
▁passengers	-6552
▁restricted	-6553
▁threatened	-6554
▁withdrawal	-6555
▁Institutional	-6556
▁significantly	-6557
6).	-6558
Aub	-6559
arr	-6560
erd	-6561
ipt	-6562
oye	-6563
▁Dy	-6564
▁IM	-6565
▁IV	-6566
aken	-6567
esty	-6568
ites	-6569
ners	-6570
ower	-6571
▁Ari	-6572
▁CON	-6573
▁Eng	-6574
▁bul	-6575
▁caU	-6576
▁dur	-6577
▁hum	-6578
▁mac	-6579
ioned	-6580
orous	-6581
unate	-6582
woman	-6583
▁Each	-6584
▁OECD	-6585
▁Prof	-6586
▁puts	-6587
Bowman	-6588
ansion	-6589
intosh	-6590
raints	-6591
requis	-6592
▁Berth	-6593
▁Tibet	-6594
▁count	-6595
▁fault	-6596
▁fewer	-6597
▁motiv	-6598
▁poore	-6599
▁unity	-6600
▁Should	-6601
▁assent	-6602
▁endors	-6603
▁frustr	-6604
▁intell	-6605
▁solved	-6606
▁sports	-6607
▁unlike	-6608
▁vision	-6609
chairman	-6610
▁African	-6611
▁Chinese	-6612
▁Israeli	-6613
▁TRANSIT	-6614
▁deserve	-6615
▁emerged	-6616
▁ignored	-6617
▁playing	-6618
▁predict	-6619
▁profits	-6620
▁radical	-6621
▁showing	-6622
▁tomonow	-6623
▁advances	-6624
▁evaluate	-6625
▁missions	-6626
▁obstacle	-6627
▁powerful	-6628
▁resulted	-6629
▁software	-6630
▁transact	-6631
▁Andersson	-6632
▁Financial	-6633
▁expansion	-6634
▁sincerely	-6635
▁prosperity	-6636
▁bureaucratic	-6637
▁concentrated	-6638
▁constituency	-6639
▁publications	-6640
▁approximately	-6641
5,	-6642
5.	-6643
ET	-6644
En	-6645
II	-6646
95)	-6647
FIC	-6648
anz	-6649
lim	-6650
lli	-6651
ovo	-6652
tra	-6653
▁%,	-6654
beek	-6655
enia	-6656
sess	-6657
uton	-6658
▁Ban	-6659
▁Spe	-6660
▁TAC	-6661
▁Vis	-6662
▁arm	-6663
▁haz	-6664
▁vul	-6665
arked	-6666
ednes	-6667
ishes	-6668
itals	-6669
opard	-6670
pread	-6671
respy	-6672
udron	-6673
versi	-6674
▁Docu	-6675
▁ELDR	-6676
▁Habs	-6677
▁Lann	-6678
▁Wolf	-6679
▁arch	-6680
▁fire	-6681
▁nine	-6682
▁symb	-6683
contin	-6684
▁loans	-6685
▁moved	-6686
▁names	-6687
▁spite	-6688
▁Colomb	-6689
▁Poland	-6690
▁abroad	-6691
▁ballot	-6692
▁handic	-6693
▁heland	-6694
▁resort	-6695
▁summer	-6696
ednesday	-6697
▁Caudron	-6698
▁Izquier	-6699
▁Lannoye	-6700
▁decides	-6701
▁divided	-6702
▁tragedy	-6703
▁Habsburg	-6704
▁Japanese	-6705
▁Mcintosh	-6706
▁airlines	-6707
▁assembly	-6708
▁frontier	-6709
▁southern	-6710
▁supplies	-6711
▁survival	-6712
▁undermin	-6713
▁Indonesia	-6714
▁Questions	-6715
▁buildings	-6716
▁campaigns	-6717
▁prerequis	-6718
▁regulated	-6719
▁reinforce	-6720
▁violation	-6721
▁Confederal	-6722
▁accounting	-6723
▁authorized	-6724
▁indication	-6725
▁inspection	-6726
▁Bjerregaard	-6727
▁recommended	-6728
▁clarification	-6729
TEM	-6730
rut	-6731
▁1.	-6732
▁4-	-6733
▁7.	-6734
▁Ky	-6735
▁Sj	-6736
elle	-6737
gent	-6738
icro	-6739
selt	-6740
▁Leg	-6741
▁Tim	-6742
▁WEU	-6743
▁dia	-6744
▁hoc	-6745
enous	-6746
istan	-6747
known	-6748
matic	-6749
petus	-6750
▁Cost	-6751
▁Pala	-6752
▁sale	-6753
▁wise	-6754
encing	-6755
forced	-6756
▁Pasty	-6757
▁diver	-6758
▁north	-6759
▁prime	-6760
▁thera	-6761
▁contra	-6762
▁copies	-6763
▁leader	-6764
▁munity	-6765
▁thinks	-6766
Aubrespy	-6767
▁Posselt	-6768
▁Transca	-6769
▁accepts	-6770
▁adverse	-6771
▁anticip	-6772
▁broader	-6773
▁broadly	-6774
▁decline	-6775
▁impetus	-6776
▁jeopard	-6777
▁journal	-6778
idespread	-6779
ufficient	-6780
▁imported	-6781
▁patients	-6782
▁pleasure	-6783
▁purchase	-6784
▁reactors	-6785
▁COMMUNITY	-6786
▁Macedonia	-6787
▁Wednesday	-6788
▁assessing	-6789
▁cigarette	-6790
▁endeavour	-6791
▁initially	-6792
▁passenger	-6793
▁workforce	-6794
▁allocation	-6795
▁definitely	-6796
▁innovative	-6797
▁invitation	-6798
▁appointment	-6799
▁recruitment	-6800
▁uncertainty	-6801
▁infringement	-6802
▁shipbuilding	-6803
▁interventions	-6804
▁representation	-6805
64	-6806
és	-6807
ask	-6808
aman	-6809
anos	-6810
elve	-6811
ship	-6812
▁PRO	-6813
▁dri	-6814
▁mad	-6815
▁unw	-6816
erted	-6817
haust	-6818
ijsen	-6819
indal	-6820
iques	-6821
▁Iran	-6822
▁Your	-6823
▁asse	-6824
▁hour	-6825
▁keen	-6826
▁reit	-6827
▁sick	-6828
▁zero	-6829
▁1999,	-6830
▁Prior	-6831
▁bears	-6832
▁error	-6833
▁frank	-6834
▁hoped	-6835
▁incur	-6836
▁rehab	-6837
▁scrut	-6838
▁tenor	-6839
▁tools	-6840
versial	-6841
▁EMCDDA	-6842
▁Jensen	-6843
▁Wijsen	-6844
▁arbitr	-6845
▁arises	-6846
▁branch	-6847
▁excuse	-6848
▁geared	-6849
▁mobile	-6850
▁owners	-6851
▁strugg	-6852
▁symbol	-6853
▁trends	-6854
▁turned	-6855
▁vulner	-6856
▁Palacio	-6857
▁biggest	-6858
▁enhance	-6859
▁strange	-6860
▁distingu	-6861
▁governed	-6862
▁premises	-6863
▁sentence	-6864
▁suitable	-6865
▁Obviously	-6866
▁clearance	-6867
▁nationals	-6868
▁providers	-6869
▁shipments	-6870
▁Wijsenbeek	-6871
▁beneficial	-6872
▁eventually	-6873
▁leadership	-6874
▁widespread	-6875
▁Transcaucas	-6876
▁consignments	-6877
▁Communication	-6878
▁consolidation	-6879
▁documentation	-6880
".	-6881
89	-6882
NP	-6883
bk	-6884
ez	-6885
▁:	-6886
5).	-6887
/97-	-6888
beit	-6889
cott	-6890
down	-6891
empl	-6892
iUty	-6893
▁JEP	-6894
▁McC	-6895
▁Rio	-6896
▁dig	-6897
ifest	-6898
▁Bern	-6899
▁Dybk	-6900
▁Flem	-6901
▁Haut	-6902
▁Holm	-6903
▁Vari	-6904
▁deem	-6905
▁encl	-6906
▁rele	-6907
reneur	-6908
ressed	-6909
▁2000,	-6910
▁Czech	-6911
▁Stand	-6912
▁ideal	-6913
▁labor	-6914
▁macro	-6915
▁print	-6916
▁rales	-6917
▁signs	-6918
▁surpl	-6919
▁ultra	-6920
▁Berthu	-6921
▁Kosovo	-6922
▁Sindal	-6923
▁attrib	-6924
▁disreg	-6925
▁entrep	-6926
▁errors	-6927
▁intens	-6928
▁minute	-6929
▁prompt	-6930
▁termin	-6931
appropri	-6932
▁Certain	-6933
▁Hautala	-6934
▁abstain	-6935
▁lessons	-6936
▁persist	-6937
▁popular	-6938
▁receipt	-6939
▁refused	-6940
▁teacher	-6941
▁Fourthly	-6942
▁Independ	-6943
▁airports	-6944
▁contrast	-6945
▁defining	-6946
▁disabled	-6947
▁dramatic	-6948
▁familiar	-6949
▁monopoly	-6950
▁parallel	-6951
▁Otherwise	-6952
▁societies	-6953
▁subjected	-6954
▁Agreements	-6955
▁encouraged	-6956
▁enterprise	-6957
▁forwarding	-6958
▁preventive	-6959
▁recognised	-6960
▁strategies	-6961
▁citizenship	-6962
▁extradition	-6963
▁regrettable	-6964
▁trafficking	-6965
▁confidential	-6966
▁transactions	-6967
administration	-6968
discrimination	-6969
▁extraordinary	-6970
11	-6971
6/	-6972
Ar	-6973
BR	-6974
SC	-6975
ds	-6976
jo	-6977
ka	-6978
.10	-6979
Qua	-6980
att	-6981
erz	-6982
ham	-6983
new	-6984
pen	-6985
sio	-6986
spe	-6987
ura	-6988
urt	-6989
­19	-6990
▁Ev	-6991
▁Ga	-6992
andb	-6993
anes	-6994
iger	-6995
rest	-6996
voet	-6997
▁Mul	-6998
▁Wel	-6999
▁lev	-7000
▁phr	-7001
ordin	-7002
▁Frid	-7003
▁Sant	-7004
▁depr	-7005
▁eyes	-7006
▁plus	-7007
▁sake	-7008
▁Colle	-7009
▁Kelle	-7010
▁blind	-7011
▁detri	-7012
▁fires	-7013
▁hesit	-7014
▁indig	-7015
▁looks	-7016
▁micro	-7017
▁monit	-7018
▁sched	-7019
▁shape	-7020
▁tween	-7021
▁veget	-7022
illance	-7023
▁albeit	-7024
▁stance	-7025
armament	-7026
atorship	-7027
▁Croatia	-7028
▁Islands	-7029
▁Studied	-7030
▁coastal	-7031
▁drafted	-7032
▁formula	-7033
▁friends	-7034
▁guarant	-7035
▁notably	-7036
▁pattern	-7037
▁substit	-7038
▁threats	-7039
▁traders	-7040
▁Building	-7041
▁district	-7042
▁entering	-7043
▁returned	-7044
▁tackling	-7045
▁deadlines	-7046
▁everybody	-7047
▁radiation	-7048
▁councillor	-7049
▁criticisms	-7050
▁foodstuffs	-7051
▁fraudulent	-7052
▁immigrants	-7053
▁regardless	-7054
▁techniques	-7055
Mediterranean	-7056
▁alternatives	-7057
▁demonstrates	-7058
▁participants	-7059
▁complementary	-7060
98	-7061
QU	-7062
Th	-7063
ls	-7064
4­0	-7065
Van	-7066
uck	-7067
umn	-7068
▁43	-7069
▁5,	-7070
▁6.	-7071
▁IT	-7072
aded	-7073
ahon	-7074
isen	-7075
▁Vil	-7076
▁gas	-7077
▁inh	-7078
▁smo	-7079
ITIES	-7080
Quaak	-7081
ensio	-7082
erens	-7083
erson	-7084
iring	-7085
itary	-7086
ogerd	-7087
otion	-7088
ovina	-7089
▁Alav	-7090
▁Lang	-7091
▁OSCE	-7092
▁beUe	-7093
▁cele	-7094
▁depl	-7095
▁gend	-7096
▁seat	-7097
elvoet	-7098
▁Heads	-7099
▁Media	-7100
▁OFFIC	-7101
▁Teach	-7102
▁armed	-7103
▁falls	-7104
▁feels	-7105
▁horiz	-7106
▁night	-7107
▁pubUc	-7108
▁urban	-7109
▁battle	-7110
▁bureau	-7111
▁cities	-7112
▁ethics	-7113
▁liable	-7114
▁raises	-7115
▁refuse	-7116
▁showed	-7117
▁visits	-7118
▁Boogerd	-7119
▁exclude	-7120
▁located	-7121
▁massive	-7122
▁postpon	-7123
▁targets	-7124
▁Alavanos	-7125
▁Atlantic	-7126
▁Contents	-7127
▁Everyone	-7128
▁avoiding	-7129
▁Izquierdo	-7130
▁abolished	-7131
▁replacing	-7132
▁signature	-7133
▁undermine	-7134
▁biological	-7135
▁controlled	-7136
▁corruption	-7137
▁historical	-7138
▁indigenous	-7139
▁Declaration	-7140
▁assessments	-7141
▁efficiently	-7142
▁disadvantage	-7143
▁disappointed	-7144
▁entrepreneur	-7145
▁neighbouring	-7146
▁notification	-7147
▁successfully	-7148
▁corresponding	-7149
▁globalization	-7150
▁harmonisation	-7151
Cs	-7152
DS	-7153
97)	-7154
Ung	-7155
acc	-7156
aud	-7157
ohn	-7158
ows	-7159
rog	-7160
▁CT	-7161
/97,	-7162
adel	-7163
ades	-7164
erly	-7165
oods	-7166
scri	-7167
▁SYS	-7168
▁Sal	-7169
▁War	-7170
▁sil	-7171
▁sla	-7172
5/97)	-7173
Counc	-7174
arged	-7175
erzeg	-7176
level	-7177
scale	-7178
▁Read	-7179
▁Vall	-7180
▁bloc	-7181
▁book	-7182
▁earm	-7183
▁earn	-7184
▁feas	-7185
▁lect	-7186
▁prol	-7187
▁team	-7188
▁uses	-7189
mitted	-7190
resson	-7191
▁Cypri	-7192
▁banks	-7193
▁guard	-7194
▁quota	-7195
▁spect	-7196
ategory	-7197
▁Friday	-7198
▁Within	-7199
▁abuses	-7200
▁beUeve	-7201
▁celebr	-7202
▁descri	-7203
▁domain	-7204
▁engage	-7205
▁listed	-7206
▁stabil	-7207
▁stages	-7208
▁Aelvoet	-7209
▁Asensio	-7210
▁Cresson	-7211
▁Kellett	-7212
▁McMahon	-7213
▁avoided	-7214
▁disturb	-7215
▁engaged	-7216
▁expense	-7217
▁focused	-7218
▁passing	-7219
▁pursuit	-7220
▁realise	-7221
▁scandal	-7222
▁student	-7223
▁summary	-7224
establish	-7225
struction	-7226
▁Contract	-7227
▁District	-7228
▁answered	-7229
▁manifest	-7230
▁officers	-7231
▁organize	-7232
▁outcomes	-7233
▁producer	-7234
▁resource	-7235
▁suggests	-7236
erzegovina	-7237
▁component	-7238
▁criterion	-7239
▁disasters	-7240
▁forgotten	-7241
▁functions	-7242
▁genuinely	-7243
▁increases	-7244
▁negotiate	-7245
▁transfers	-7246
▁adjustment	-7247
▁consisting	-7248
▁diplomatic	-7249
▁indicators	-7250
▁phenomenon	-7251
▁productive	-7252
▁reflection	-7253
▁simplified	-7254
etermination	-7255
▁demographic	-7256
▁experienced	-7257
▁secretariat	-7258
▁achievements	-7259
▁dictatorship	-7260
▁observations	-7261
▁collaboration	-7262
▁justification	-7263
▁multinationals	-7264
▁internationally	-7265
ox	-7266
.30	-7267
ben	-7268
▁32	-7269
Uing	-7270
ador	-7271
aval	-7272
back	-7273
bles	-7274
cape	-7275
ects	-7276
iate	-7277
isha	-7278
stim	-7279
▁Kok	-7280
▁MAR	-7281
▁Ros	-7282
▁Som	-7283
▁fem	-7284
▁psy	-7285
ongol	-7286
right	-7287
ugust	-7288
▁Lect	-7289
▁gene	-7290
▁irre	-7291
▁prag	-7292
icular	-7293
lected	-7294
▁Could	-7295
▁dossi	-7296
▁grave	-7297
▁lists	-7298
▁motor	-7299
▁reass	-7300
▁units	-7301
▁urged	-7302
Council	-7303
quiries	-7304
▁Commis	-7305
▁Degree	-7306
▁SYSTEM	-7307
▁arisen	-7308
▁deeply	-7309
▁grants	-7310
▁hazard	-7311
▁resign	-7312
▁smooth	-7313
▁undere	-7314
▁united	-7315
▁worker	-7316
▁Against	-7317
▁Berisha	-7318
▁adviser	-7319
▁banning	-7320
▁clearer	-7321
▁feature	-7322
▁learned	-7323
▁placing	-7324
▁signing	-7325
▁subscri	-7326
emocratic	-7327
▁Congress	-7328
▁barriers	-7329
▁division	-7330
▁founding	-7331
▁imposing	-7332
▁observed	-7333
▁occupied	-7334
▁stresses	-7335
▁lobbyists	-7336
▁objection	-7337
▁petitions	-7338
appropriate	-7339
▁adequately	-7340
▁envhonment	-7341
▁indirectly	-7342
▁inevitably	-7343
▁objections	-7344
▁practition	-7345
▁traditions	-7346
▁vulnerable	-7347
▁departments	-7348
▁nonetheless	-7349
▁willingness	-7350
▁Publications	-7351
▁compensatory	-7352
▁Environmental	-7353
52	-7354
AM	-7355
DF	-7356
OL	-7357
OS	-7358
(1)	-7359
dum	-7360
gic	-7361
ole	-7362
▁47	-7363
▁ST	-7364
arus	-7365
cker	-7366
grow	-7367
mail	-7368
omet	-7369
ssen	-7370
▁Dis	-7371
▁Tun	-7372
▁ast	-7373
▁bee	-7374
▁die	-7375
▁eld	-7376
▁kil	-7377
▁nar	-7378
▁rid	-7379
▁whe	-7380
anged	-7381
eting	-7382
orage	-7383
ourse	-7384
ulous	-7385
▁1986	-7386
▁Cohn	-7387
▁Hung	-7388
▁Stat	-7389
▁Thom	-7390
▁bill	-7391
▁migr	-7392
▁rect	-7393
▁rely	-7394
▁sees	-7395
Bendit	-7396
▁2000.	-7397
▁Grand	-7398
▁estab	-7399
▁heads	-7400
▁image	-7401
▁notes	-7402
▁param	-7403
▁pharm	-7404
▁plays	-7405
▁semin	-7406
▁shift	-7407
▁watch	-7408
itoring	-7409
▁August	-7410
▁Econom	-7411
▁Mierlo	-7412
▁Mongol	-7413
▁doctor	-7414
▁invite	-7415
▁laying	-7416
▁punish	-7417
▁reconc	-7418
▁salmon	-7419
▁summar	-7420
▁switch	-7421
▁unique	-7422
▁Morocco	-7423
▁artific	-7424
▁carrier	-7425
▁dynamic	-7426
▁exhaust	-7427
▁heavily	-7428
▁recital	-7429
▁selling	-7430
▁Industry	-7431
▁aviation	-7432
▁delicate	-7433
▁exposure	-7434
▁pensions	-7435
▁promises	-7436
▁pursuing	-7437
▁sporting	-7438
▁attitudes	-7439
▁depending	-7440
▁discrimin	-7441
▁monitored	-7442
▁rehabilit	-7443
responsible	-7444
▁comparison	-7445
▁criticized	-7446
▁standpoint	-7447
▁structured	-7448
▁certificate	-7449
▁conventions	-7450
▁destruction	-7451
▁highlighted	-7452
▁performance	-7453
▁concentration	-7454
/00	-7455
ara	-7456
cus	-7457
lez	-7458
uer	-7459
2.19	-7460
QUIR	-7461
conn	-7462
vent	-7463
view	-7464
▁Jos	-7465
▁Kes	-7466
▁eco	-7467
▁squ	-7468
aster	-7469
ayann	-7470
ghold	-7471
while	-7472
▁dual	-7473
▁feed	-7474
▁fuel	-7475
▁hect	-7476
▁prec	-7477
▁rout	-7478
▁sacr	-7479
▁shop	-7480
arters	-7481
ounted	-7482
ulates	-7483
▁(1982	-7484
▁1992,	-7485
▁Among	-7486
▁Apart	-7487
▁Stock	-7488
▁accum	-7489
▁argue	-7490
▁manip	-7491
▁secre	-7492
▁title	-7493
▁zones	-7494
▁Langen	-7495
▁Mulder	-7496
▁Serbia	-7497
▁belief	-7498
▁losing	-7499
▁models	-7500
▁modest	-7501
▁privat	-7502
▁Variety	-7503
▁cereals	-7504
▁choices	-7505
▁conceal	-7506
▁doctors	-7507
▁essence	-7508
▁lacking	-7509
▁recover	-7510
▁testing	-7511
▁violent	-7512
▁Category	-7513
▁advisory	-7514
▁analyses	-7515
▁disputes	-7516
▁electric	-7517
▁listened	-7518
▁notified	-7519
▁simplify	-7520
▁unsatisf	-7521
▁COMMITTEE	-7522
▁Democracy	-7523
▁automatic	-7524
▁chemicals	-7525
▁evolution	-7526
▁indicates	-7527
▁obtaining	-7528
▁patenting	-7529
▁permitted	-7530
▁discovered	-7531
▁generation	-7532
▁greenhouse	-7533
▁precedence	-7534
▁concessions	-7535
▁constraints	-7536
▁interpreted	-7537
▁progressive	-7538
▁conventional	-7539
▁consultations	-7540
▁democratically	-7541
▁democratization	-7542
▁infrastructures	-7543
.7	-7544
1,	-7545
62	-7546
An	-7547
IG	-7548
Pl	-7549
ré	-7550
ATT	-7551
ECU	-7552
cap	-7553
enn	-7554
enz	-7555
law	-7556
loo	-7557
orf	-7558
pin	-7559
▁38	-7560
▁PP	-7561
Alba	-7562
TING	-7563
andz	-7564
irth	-7565
stic	-7566
that	-7567
utor	-7568
▁Air	-7569
▁Eri	-7570
▁GIL	-7571
▁Kaz	-7572
▁Lis	-7573
▁Mus	-7574
▁Ref	-7575
▁hal	-7576
QUIRY	-7577
antly	-7578
apore	-7579
burgh	-7580
encer	-7581
exist	-7582
olved	-7583
sider	-7584
▁1989	-7585
▁Blak	-7586
▁Funk	-7587
▁GATT	-7588
▁Jack	-7589
▁Sing	-7590
▁Soci	-7591
▁corp	-7592
▁crew	-7593
▁thir	-7594
aneous	-7595
arents	-7596
▁Asian	-7597
▁Miert	-7598
▁Schul	-7599
▁chain	-7600
▁guide	-7601
▁lorry	-7602
▁shipy	-7603
▁vigil	-7604
hearted	-7605
inburgh	-7606
urement	-7607
▁Kazakh	-7608
▁Thomas	-7609
▁arrive	-7610
▁deemed	-7611
▁served	-7612
▁tender	-7613
▁Belarus	-7614
▁College	-7615
▁INQUIRY	-7616
▁Network	-7617
▁Spencer	-7618
▁altered	-7619
▁arrival	-7620
▁continu	-7621
▁dismiss	-7622
▁implies	-7623
▁precond	-7624
▁stopped	-7625
▁storage	-7626
▁suspend	-7627
ayannakis	-7628
mentation	-7629
▁Mongolia	-7630
▁Scotland	-7631
▁civilian	-7632
▁creative	-7633
▁diplomas	-7634
▁discover	-7635
▁dissemin	-7636
▁foremost	-7637
▁premiums	-7638
▁selected	-7639
▁Regarding	-7640
▁Singapore	-7641
▁Technical	-7642
▁alongside	-7643
▁demanding	-7644
▁prevented	-7645
▁Monitoring	-7646
▁adaptation	-7647
▁continuous	-7648
▁disastrous	-7649
▁explicitly	-7650
▁neighbours	-7651
▁philosophy	-7652
▁resistance	-7653
▁Institution	-7654
▁limitations	-7655
▁restrictive	-7656
▁surveillance	-7657
▁controversial	-7658
▁encouragement	-7659
▁responsibUity	-7660
Ush	-7661
arz	-7662
oud	-7663
que	-7664
uty	-7665
▁97	-7666
▁Di	-7667
▁du	-7668
anen	-7669
ania	-7670
brid	-7671
hard	-7672
iasm	-7673
look	-7674
mans	-7675
▁300	-7676
▁Bas	-7677
▁Lan	-7678
▁Mos	-7679
▁adm	-7680
iated	-7681
looij	-7682
rible	-7683
▁Plan	-7684
▁Tues	-7685
▁empt	-7686
▁mine	-7687
▁negl	-7688
▁seaf	-7689
andzio	-7690
rammes	-7691
▁Dybkj	-7692
▁Visit	-7693
▁dates	-7694
▁domin	-7695
▁enshr	-7696
▁frame	-7697
▁gross	-7698
▁holds	-7699
▁liter	-7700
▁psych	-7701
▁remit	-7702
▁swift	-7703
▁tries	-7704
▁wareh	-7705
usiness	-7706
▁Delors	-7707
▁Guaran	-7708
▁Plooij	-7709
▁Schulz	-7710
▁Virgin	-7711
▁absurd	-7712
▁broken	-7713
▁emerge	-7714
▁stamps	-7715
/96-96/0	-7716
Chairman	-7717
▁Conserv	-7718
▁Randzio	-7719
▁Teacher	-7720
▁Tuesday	-7721
▁checked	-7722
▁founded	-7723
▁horizon	-7724
▁monopol	-7725
▁outputs	-7726
▁pricing	-7727
▁replies	-7728
▁station	-7729
▁tabling	-7730
▁turning	-7731
▁accurate	-7732
▁confront	-7733
▁hormones	-7734
▁licences	-7735
▁resigned	-7736
▁Edinburgh	-7737
▁Naturally	-7738
▁Whitehead	-7739
▁assurance	-7740
▁exemption	-7741
▁inflation	-7742
▁observers	-7743
▁specified	-7744
▁withdrawn	-7745
▁admissible	-7746
▁convincing	-7747
▁everywhere	-7748
▁remarkable	-7749
▁experiences	-7750
▁intolerable	-7751
▁populations	-7752
▁statistical	-7753
▁multilateral	-7754
▁disadvantaged	-7755
▁inappropriate	-7756
▁manufacturers	-7757
▁practitioners	-7758
8,	-7759
88	-7760
RI	-7761
App	-7762
DAY	-7763
amm	-7764
lex	-7765
▁45	-7766
▁85	-7767
▁95	-7768
▁Os	-7769
aves	-7770
ette	-7771
iler	-7772
omic	-7773
rate	-7774
undi	-7775
urdy	-7776
▁His	-7777
▁lor	-7778
Plath	-7779
TIONS	-7780
ached	-7781
nesty	-7782
state	-7783
▁Jarz	-7784
▁John	-7785
▁Liik	-7786
▁conj	-7787
▁haul	-7788
▁warn	-7789
▁wind	-7790
asures	-7791
embows	-7792
ferent	-7793
idance	-7794
ounder	-7795
ountry	-7796
ughter	-7797
▁1993,	-7798
▁1994.	-7799
▁Camis	-7800
▁Tunis	-7801
▁aspir	-7802
▁birth	-7803
▁clean	-7804
▁conve	-7805
▁homes	-7806
▁intra	-7807
▁mobil	-7808
▁train	-7809
riendly	-7810
▁Anyone	-7811
▁Dayton	-7812
▁Nordic	-7813
▁Sturdy	-7814
▁anange	-7815
▁cultiv	-7816
▁gained	-7817
▁merits	-7818
▁remote	-7819
▁spokes	-7820
islative	-7821
▁Santini	-7822
▁banking	-7823
▁compete	-7824
▁credits	-7825
▁elderly	-7826
▁evident	-7827
▁players	-7828
▁referen	-7829
▁statute	-7830
▁Liikanen	-7831
▁checking	-7832
▁database	-7833
▁deciding	-7834
▁duration	-7835
▁enclosed	-7836
▁handling	-7837
▁judgment	-7838
▁outlined	-7839
▁slightly	-7840
▁struggle	-7841
▁necessity	-7842
▁organisms	-7843
▁residence	-7844
▁secondary	-7845
▁stimulate	-7846
▁Jarzembows	-7847
▁Kazakhstan	-7848
▁Membership	-7849
▁accessible	-7850
▁confronted	-7851
▁enthusiasm	-7852
▁calculation	-7853
▁description	-7854
▁transferred	-7855
▁insufficient	-7856
▁transmission	-7857
▁demonstration	-7858
▁mainstreaming	-7859
▁rehabilitation	-7860
▁unsatisfactory	-7861
▁characteristics	-7862
24	-7863
3,	-7864
69	-7865
Be	-7866
Si	-7867
St	-7868
UT	-7869
fe	-7870
pel	-7871
raf	-7872
▁01	-7873
▁5.	-7874
▁ES	-7875
▁Lu	-7876
ante	-7877
dorf	-7878
from	-7879
iled	-7880
list	-7881
▁130	-7882
▁Bre	-7883
▁DOs	-7884
▁MRS	-7885
▁SIT	-7886
▁Sam	-7887
▁aer	-7888
▁fan	-7889
▁hit	-7890
▁reb	-7891
ardst	-7892
benef	-7893
garia	-7894
ottom	-7895
▁Bund	-7896
▁Crow	-7897
▁Hall	-7898
▁José	-7899
▁Phil	-7900
▁Soul	-7901
▁ence	-7902
▁espe	-7903
▁gall	-7904
▁ties	-7905
erning	-7906
erving	-7907
ivered	-7908
orient	-7909
voorde	-7910
▁(1977	-7911
▁Guine	-7912
▁adult	-7913
▁blood	-7914
▁denom	-7915
▁imped	-7916
▁minds	-7917
▁remov	-7918
ography	-7919
▁Angers	-7920
▁Assist	-7921
▁Doctor	-7922
▁Kestel	-7923
▁Martin	-7924
▁string	-7925
▁talked	-7926
▁unfort	-7927
▁utmost	-7928
▁worthy	-7929
pectives	-7930
▁Crowley	-7931
▁Lancker	-7932
▁Soulier	-7933
▁dismant	-7934
▁edition	-7935
▁failing	-7936
▁illness	-7937
▁leghold	-7938
▁missing	-7939
▁observe	-7940
▁recipro	-7941
▁routine	-7942
▁satisfy	-7943
▁visited	-7944
servatory	-7945
▁Mobility	-7946
▁attaches	-7947
▁channels	-7948
▁convince	-7949
▁damaging	-7950
▁describe	-7951
▁finances	-7952
▁formally	-7953
▁friendly	-7954
▁sectoral	-7955
▁suffrage	-7956
▁terrible	-7957
Presidents	-7958
▁Americans	-7959
▁Liberties	-7960
▁Professor	-7961
▁certainty	-7962
▁earmarked	-7963
▁exercises	-7964
▁exploited	-7965
▁forecasts	-7966
▁forwarder	-7967
▁requiring	-7968
▁department	-7969
▁imperative	-7970
▁peripheral	-7971
▁submission	-7972
▁comparative	-7973
▁conditional	-7974
▁generations	-7975
▁unfortunate	-7976
▁unification	-7977
▁Jarzembowski	-7978
▁Papayannakis	-7979
02	-7980
1/	-7981
55	-7982
7,	-7983
AD	-7984
iy	-7985
-03	-7986
erp	-7987
ita	-7988
nen	-7989
sof	-7990
sub	-7991
una	-7992
uzz	-7993
▁2)	-7994
▁48	-7995
▁Lo	-7996
▁Po	-7997
95).	-7998
ONAL	-7999
anks	-8000
argo	-8001
ason	-8002
atal	-8003
dden	-8004
ests	-8005
hood	-8006
inal	-8007
kind	-8008
olly	-8009
open	-8010
thet	-8011
▁Dav	-8012
▁EPP	-8013
▁Jer	-8014
▁Kar	-8015
▁Lam	-8016
▁Pom	-8017
▁Saf	-8018
▁Sak	-8019
▁Sud	-8020
▁Wee	-8021
▁bra	-8022
▁cul	-8023
▁eye	-8024
▁wis	-8025
ested	-8026
hrend	-8027
ports	-8028
utors	-8029
▁1980	-8030
▁Dell	-8031
▁Hory	-8032
▁INTO	-8033
▁Jean	-8034
▁Kore	-8035
▁cars	-8036
▁erad	-8037
▁magn	-8038
▁roll	-8039
▁trem	-8040
.01.19	-8041
alling	-8042
arious	-8043
hrendt	-8044
racies	-8045
soever	-8046
▁(1987	-8047
▁Exper	-8048
▁Hague	-8049
▁Three	-8050
▁Timor	-8051
▁depth	-8052
▁farms	-8053
▁finds	-8054
▁innoc	-8055
▁merch	-8056
▁merit	-8057
▁split	-8058
-1989).	-8059
Sierens	-8060
entials	-8061
keeping	-8062
▁Bladel	-8063
▁Herman	-8064
▁deaths	-8065
▁ignore	-8066
▁mostly	-8067
▁narrow	-8068
▁openly	-8069
▁refund	-8070
▁saving	-8071
▁simult	-8072
▁twelve	-8073
friendly	-8074
▁SITTING	-8075
▁accused	-8076
▁conform	-8077
▁factory	-8078
▁pending	-8079
▁studied	-8080
▁Lecturer	-8081
▁collapse	-8082
▁concepts	-8083
▁everyday	-8084
▁hundreds	-8085
▁mentions	-8086
▁profound	-8087
▁worrying	-8088
initiative	-8089
peripheral	-8090
rehensible	-8091
▁Kestelijn	-8092
▁Reformist	-8093
▁coherence	-8094
▁container	-8095
▁customers	-8096
▁defending	-8097
▁delivered	-8098
▁performed	-8099
▁harmonized	-8100
▁obligatory	-8101
▁recognizes	-8102
▁referendum	-8103
▁requesting	-8104
▁surprising	-8105
▁underlying	-8106
▁whatsoever	-8107
▁consolidate	-8108
▁distortions	-8109
▁electricity	-8110
▁experiments	-8111
▁multiannual	-8112
▁supervisory	-8113
▁territorial	-8114
▁territories	-8115
▁contradiction	-8116
▁decentralized	-8117
▁reconstruction	-8118
59	-8119
6,	-8120
6.	-8121
8.	-8122
IF	-8123
UL	-8124
ii	-8125
sm	-8126
én	-8127
ike	-8128
▁65	-8129
▁Ra	-8130
▁TV	-8131
▁cy	-8132
▁dw	-8133
(95)	-8134
ENER	-8135
agen	-8136
alia	-8137
arth	-8138
inhe	-8139
isma	-8140
lers	-8141
onas	-8142
pton	-8143
roed	-8144
tegr	-8145
umes	-8146
▁DUS	-8147
▁ECB	-8148
▁GUE	-8149
▁Isl	-8150
▁Out	-8151
▁Tor	-8152
▁fal	-8153
EADER	-8154
liers	-8155
ommod	-8156
orsel	-8157
rance	-8158
rowth	-8159
shall	-8160
twerp	-8161
▁Balk	-8162
▁City	-8163
▁Free	-8164
▁Kurd	-8165
▁Maur	-8166
▁deny	-8167
▁fost	-8168
▁murd	-8169
▁prop	-8170
▁site	-8171
▁wage	-8172
inking	-8173
usalem	-8174
▁Arias	-8175
▁Eisma	-8176
▁Fabra	-8177
▁GONAL	-8178
▁Pinhe	-8179
▁Their	-8180
▁Title	-8181
▁codes	-8182
▁decre	-8183
▁grown	-8184
▁inval	-8185
▁moves	-8186
▁repro	-8187
▁reput	-8188
▁roads	-8189
▁stick	-8190
▁story	-8191
▁thres	-8192
▁tions	-8193
▁unequ	-8194
benefit	-8195
utonium	-8196
▁Perman	-8197
▁adopts	-8198
▁ageing	-8199
▁apolog	-8200
▁invent	-8201
▁phrase	-8202
▁praise	-8203
▁serves	-8204
▁street	-8205
▁sudden	-8206
▁suspic	-8207
▁tragic	-8208
▁viable	-8209
Behrendt	-8210
reaching	-8211
▁Antwerp	-8212
▁Hungary	-8213
▁consent	-8214
▁derived	-8215
▁enabled	-8216
▁gradual	-8217
▁handled	-8218
▁lengthy	-8219
▁lorries	-8220
▁quarter	-8221
▁sharing	-8222
▁tackled	-8223
▁thirdly	-8224
iferation	-8225
mentioned	-8226
▁Bulgaria	-8227
▁Pinheiro	-8228
▁demanded	-8229
▁feelings	-8230
▁generate	-8231
▁incurred	-8232
▁insisted	-8233
▁isolated	-8234
▁managing	-8235
▁reserves	-8236
▁rigorous	-8237
▁servants	-8238
▁sympathy	-8239
▁Jerusalem	-8240
▁Permanent	-8241
▁displaced	-8242
▁evaluated	-8243
▁execution	-8244
▁harmonize	-8245
▁incidents	-8246
▁integrate	-8247
▁plutonium	-8248
▁postponed	-8249
▁reactions	-8250
▁reporting	-8251
▁suppliers	-8252
▁threshold	-8253
▁tolerance	-8254
▁viewpoint	-8255
▁Department	-8256
▁Investment	-8257
▁encourages	-8258
▁revolution	-8259
▁appreciated	-8260
▁consistency	-8261
▁determining	-8262
▁encountered	-8263
▁indications	-8264
▁procurement	-8265
▁prohibition	-8266
▁substantive	-8267
▁transported	-8268
▁prerequisite	-8269
▁fundamentally	-8270
▁qualification	-8271
▁transEuropean	-8272
1.	-8273
OF	-8274
PES	-8275
big	-8276
ibi	-8277
ids	-8278
ipe	-8279
isp	-8280
kes	-8281
uir	-8282
ull	-8283
weg	-8284
▁Av	-8285
▁Su	-8286
4-03	-8287
auer	-8288
best	-8289
endy	-8290
iles	-8291
oren	-8292
seen	-8293
uled	-8294
urch	-8295
▁Dup	-8296
▁Kre	-8297
▁Tax	-8298
▁UPE	-8299
▁Ver	-8300
▁civ	-8301
▁fax	-8302
▁flu	-8303
/97),	-8304
ander	-8305
arers	-8306
icity	-8307
idden	-8308
tions	-8309
viron	-8310
▁CONT	-8311
▁Moor	-8312
▁Rojo	-8313
▁York	-8314
▁club	-8315
▁died	-8316
▁fast	-8317
▁fate	-8318
▁jour	-8319
▁meal	-8320
▁onto	-8321
▁tort	-8322
elance	-8323
endous	-8324
iments	-8325
minent	-8326
othing	-8327
ounded	-8328
thetic	-8329
ulling	-8330
▁(1983	-8331
▁Alber	-8332
▁Front	-8333
▁Peace	-8334
▁agent	-8335
▁cards	-8336
▁cease	-8337
▁incap	-8338
▁inhab	-8339
▁reaUy	-8340
angible	-8341
ctorate	-8342
develop	-8343
roedter	-8344
▁Commer	-8345
▁Growth	-8346
▁Reding	-8347
▁Secret	-8348
▁Unless	-8349
▁absent	-8350
▁assets	-8351
▁finish	-8352
▁papers	-8353
▁quoted	-8354
▁ratify	-8355
▁uphold	-8356
▁victim	-8357
▁Society	-8358
▁Support	-8359
▁blocked	-8360
▁closing	-8361
▁confine	-8362
▁dossier	-8363
▁drivers	-8364
▁embargo	-8365
▁issuing	-8366
▁kilomet	-8367
▁licence	-8368
▁officer	-8369
▁patient	-8370
▁possess	-8371
▁removal	-8372
▁surplus	-8373
▁accommod	-8374
▁assessed	-8375
▁pointing	-8376
▁promoted	-8377
▁wherever	-8378
▁Certainly	-8379
▁Fernandes	-8380
▁Moorhouse	-8381
▁condemned	-8382
▁expertise	-8383
▁hazardous	-8384
▁inability	-8385
▁witnesses	-8386
▁Guidelines	-8387
▁complexity	-8388
▁compliment	-8389
▁Observatory	-8390
▁arrangement	-8391
▁beneficiary	-8392
▁disarmament	-8393
▁ideological	-8394
▁constitution	-8395
▁coordinating	-8396
▁perspectives	-8397
.9	-8398
49	-8399
84	-8400
Am	-8401
CR	-8402
ST	-8403
ém	-8404
8).	-8405
May	-8406
euv	-8407
iki	-8408
let	-8409
oto	-8410
zid	-8411
▁Bi	-8412
▁Dr	-8413
▁Gl	-8414
Math	-8415
atch	-8416
idis	-8417
ilib	-8418
inki	-8419
issl	-8420
▁ARE	-8421
▁Cox	-8422
▁DEL	-8423
▁INT	-8424
▁Num	-8425
▁inj	-8426
▁pup	-8427
▁raw	-8428
8/97)	-8429
akers	-8430
andin	-8431
apped	-8432
ariou	-8433
erent	-8434
espon	-8435
front	-8436
hardt	-8437
ician	-8438
inder	-8439
inery	-8440
itude	-8441
▁Cram	-8442
▁Food	-8443
▁Fort	-8444
▁Main	-8445
▁Wulf	-8446
▁alia	-8447
▁cope	-8448
▁ener	-8449
▁pret	-8450
▁seed	-8451
▁smaU	-8452
▁wave	-8453
contro	-8454
irsten	-8455
ptions	-8456
▁(1979	-8457
▁Mayor	-8458
▁Sandb	-8459
▁TACIS	-8460
▁Watts	-8461
▁disin	-8462
▁empty	-8463
▁false	-8464
▁fears	-8465
▁honey	-8466
▁preca	-8467
▁shame	-8468
▁wages	-8469
▁woman	-8470
certain	-8471
elsinki	-8472
ersundi	-8473
zidakis	-8474
▁Berlin	-8475
▁Gorsel	-8476
▁Monday	-8477
▁Norweg	-8478
▁Though	-8479
▁Torres	-8480
▁carnet	-8481
▁denied	-8482
▁dispar	-8483
▁female	-8484
▁ingred	-8485
▁interf	-8486
▁leaves	-8487
▁relief	-8488
▁strike	-8489
▁struck	-8490
employed	-8491
▁Besides	-8492
▁Kirsten	-8493
▁Kreissl	-8494
▁Regions	-8495
▁Sitting	-8496
▁chamber	-8497
▁enables	-8498
▁exposed	-8499
▁footing	-8500
▁neutral	-8501
▁poorest	-8502
▁raising	-8503
▁secrecy	-8504
▁secured	-8505
▁sending	-8506
▁settled	-8507
▁Business	-8508
▁Crampton	-8509
▁admitted	-8510
▁believed	-8511
▁frequent	-8512
▁machines	-8513
▁reminded	-8514
▁surprise	-8515
▁validity	-8516
▁yourself	-8517
▁Documents	-8518
▁accepting	-8519
▁disregard	-8520
▁judgement	-8521
▁machinery	-8522
▁taxpayers	-8523
▁attractive	-8524
▁Nonetheless	-8525
▁abandonment	-8526
▁explanatory	-8527
▁observation	-8528
▁orientation	-8529
▁researchers	-8530
▁explanations	-8531
▁instructions	-8532
▁wholehearted	-8533
▁macroeconomic	-8534
▁relationships	-8535
▁transnational	-8536
▁classification	-8537
",	-8538
9/	-8539
UN	-8540
rf	-8541
.09	-8542
TAL	-8543
asc	-8544
aza	-8545
can	-8546
efe	-8547
iov	-8548
irm	-8549
mod	-8550
zol	-8551
▁RE	-8552
▁Vi	-8553
▁zu	-8554
berg	-8555
call	-8556
fall	-8557
rium	-8558
ulum	-8559
▁...	-8560
▁10.	-8561
▁Att	-8562
▁Mir	-8563
▁Top	-8564
▁atm	-8565
▁mur	-8566
▁sup	-8567
Mayer	-8568
ciaUy	-8569
horst	-8570
icted	-8571
iller	-8572
journ	-8573
night	-8574
opoul	-8575
pidou	-8576
uirre	-8577
▁100%	-8578
▁CFCs	-8579
▁Dijk	-8580
▁Neil	-8581
▁Qual	-8582
▁Viol	-8583
▁Waal	-8584
▁card	-8585
▁caut	-8586
▁fash	-8587
▁inex	-8588
▁invo	-8589
▁uphe	-8590
▁wild	-8591
Nordic	-8592
versen	-8593
▁River	-8594
▁TOTAL	-8595
▁Until	-8596
▁cheap	-8597
▁coinc	-8598
▁imply	-8599
▁scept	-8600
▁tempt	-8601
▁vouch	-8602
Mathies	-8603
andinav	-8604
atories	-8605
cessing	-8606
umption	-8607
▁Hallam	-8608
▁Points	-8609
▁Rosado	-8610
▁Vienna	-8611
▁autumn	-8612
▁bottom	-8613
▁confer	-8614
▁contam	-8615
▁curric	-8616
▁escape	-8617
▁gramme	-8618
ilibrium	-8619
ountries	-8620
together	-8621
▁Aguirre	-8622
▁Jackson	-8623
▁assumed	-8624
▁clauses	-8625
▁ensures	-8626
▁entrust	-8627
▁falling	-8628
▁knowing	-8629
▁pretext	-8630
▁privacy	-8631
▁renewed	-8632
▁spouses	-8633
▁wishing	-8634
atzidakis	-8635
▁alarming	-8636
▁anywhere	-8637
▁appeared	-8638
▁cautious	-8639
▁consists	-8640
▁distinct	-8641
▁focusing	-8642
▁recourse	-8643
▁sanction	-8644
▁scrutiny	-8645
▁severely	-8646
▁shipment	-8647
▁supplied	-8648
▁Economics	-8649
▁Scandinav	-8650
▁Vilvoorde	-8651
▁exercised	-8652
▁incapable	-8653
▁seafarers	-8654
▁Schroedter	-8655
▁allowances	-8656
▁consulting	-8657
▁eliminated	-8658
▁principals	-8659
▁quantities	-8660
▁references	-8661
▁relocation	-8662
▁respecting	-8663
arliamentary	-8664
▁Application	-8665
▁Secretariat	-8666
▁aspirations	-8667
▁conjunction	-8668
▁consignment	-8669
▁inspections	-8670
▁principally	-8671
▁Introduction	-8672
▁administered	-8673
▁appreciation	-8674
▁availability	-8675
▁consistently	-8676
▁consultative	-8677
▁continuation	-8678
▁disagreement	-8679
▁incompatible	-8680
▁proportional	-8681
▁deliberations	-8682
4)	-8683
4,	-8684
80	-8685
99	-8686
CT	-8687
IM	-8688
PL	-8689
.05	-8690
4).	-8691
BRD	-8692
POV	-8693
agh	-8694
anc	-8695
dep	-8696
iez	-8697
itt	-8698
met	-8699
ran	-8700
tar	-8701
usp	-8702
▁Ul	-8703
(97)	-8704
amed	-8705
irds	-8706
lock	-8707
ulty	-8708
▁Alv	-8709
▁Ice	-8710
▁fix	-8711
7/97)	-8712
OCRAT	-8713
ained	-8714
asion	-8715
cious	-8716
ksson	-8717
odoul	-8718
rable	-8719
rfler	-8720
uries	-8721
utory	-8722
▁EBRD	-8723
▁Lamb	-8724
▁Vise	-8725
▁asks	-8726
▁bare	-8727
▁cell	-8728
▁core	-8729
▁foot	-8730
▁gras	-8731
▁hosp	-8732
▁lays	-8733
▁libr	-8734
▁pace	-8735
ENERAL	-8736
arians	-8737
ennium	-8738
indust	-8739
percus	-8740
▁Baldi	-8741
▁Brink	-8742
▁David	-8743
▁Drugs	-8744
▁Fraud	-8745
▁Sudan	-8746
▁absor	-8747
▁flows	-8748
▁habit	-8749
▁lingu	-8750
▁proud	-8751
▁rigid	-8752
▁seats	-8753
▁topic	-8754
▁track	-8755
▁unres	-8756
▁vague	-8757
English	-8758
OCRATES	-8759
ifiable	-8760
itherto	-8761
odoulou	-8762
opoulos	-8763
▁Graefe	-8764
▁Lisbon	-8765
▁Notice	-8766
▁Slovak	-8767
▁Surely	-8768
▁Vallés	-8769
▁Weiler	-8770
▁compat	-8771
▁ending	-8772
▁farmer	-8773
▁gather	-8774
▁humans	-8775
▁killed	-8776
▁offset	-8777
▁senior	-8778
▁sensit	-8779
▁wished	-8780
▁Barthet	-8781
▁Company	-8782
▁Iversen	-8783
▁Miranda	-8784
▁Parties	-8785
▁Theonas	-8786
▁Whereas	-8787
▁anxious	-8788
▁digital	-8789
▁fashion	-8790
▁incomes	-8791
▁mankind	-8792
▁partial	-8793
▁refrain	-8794
▁refusal	-8795
▁reorgan	-8796
▁reverse	-8797
▁Eriksson	-8798
▁Pompidou	-8799
▁Visegrad	-8800
▁confused	-8801
▁engineer	-8802
▁initiate	-8803
▁operates	-8804
▁released	-8805
▁repercus	-8806
▁socially	-8807
ologically	-8808
respective	-8809
▁Guarantee	-8810
▁fulfilled	-8811
▁guarantor	-8812
▁inquiries	-8813
▁instances	-8814
▁interconn	-8815
▁shipyards	-8816
▁Brinkhorst	-8817
▁Hatzidakis	-8818
▁artificial	-8819
▁horizontal	-8820
▁monopolies	-8821
▁occupation	-8822
▁submitting	-8823
▁tremendous	-8824
▁warehouses	-8825
▁adjustments	-8826
▁conferences	-8827
▁cooperative	-8828
▁counterpart	-8829
▁identifying	-8830
▁accompanying	-8831
▁Christodoulou	-8832
▁installations	-8833
▁modifications	-8834
▁Transcaucasian	-8835
▁ultraperipheral	-8836
CH	-8837
rs	-8838
ACT	-8839
ORT	-8840
awa	-8841
eck	-8842
ett	-8843
nab	-8844
▁6,	-8845
▁CC	-8846
▁Rh	-8847
4-07	-8848
Appl	-8849
aces	-8850
adeo	-8851
aest	-8852
alon	-8853
alum	-8854
gery	-8855
iese	-8856
imed	-8857
oeuv	-8858
otti	-8859
oyal	-8860
unal	-8861
vens	-8862
whel	-8863
xide	-8864
yers	-8865
yria	-8866
▁93/	-8867
▁Cot	-8868
▁Cun	-8869
▁EEC	-8870
▁Eff	-8871
▁Mod	-8872
▁agg	-8873
▁dil	-8874
▁ion	-8875
agher	-8876
being	-8877
emark	-8878
first	-8879
hagen	-8880
iemen	-8881
iguel	-8882
oboda	-8883
riage	-8884
sters	-8885
tings	-8886
trans	-8887
▁Diez	-8888
▁Hein	-8889
▁drop	-8890
▁flat	-8891
▁furn	-8892
▁rede	-8893
▁scar	-8894
▁trap	-8895
bestos	-8896
ceived	-8897
placed	-8898
▁(1981	-8899
▁(1988	-8900
▁(1989	-8901
▁1992.	-8902
▁Above	-8903
▁DELEG	-8904
▁Gians	-8905
▁Hence	-8906
▁Lalum	-8907
▁Medit	-8908
▁badly	-8909
▁boats	-8910
▁colon	-8911
▁depos	-8912
▁diagn	-8913
▁embry	-8914
▁ended	-8915
▁envoy	-8916
▁helps	-8917
▁maize	-8918
▁misle	-8919
▁owing	-8920
▁poses	-8921
▁quiet	-8922
▁reaff	-8923
▁recip	-8924
▁towns	-8925
▁wheat	-8926
aloniki	-8927
aratory	-8928
hective	-8929
nership	-8930
▁Amadeo	-8931
▁Baring	-8932
▁Dupuis	-8933
▁Floren	-8934
▁Miguel	-8935
▁Piment	-8936
▁Provan	-8937
▁Scient	-8938
▁Theato	-8939
▁archit	-8940
▁backed	-8941
▁humane	-8942
▁murder	-8943
▁notion	-8944
▁observ	-8945
▁theore	-8946
▁theory	-8947
▁vessel	-8948
▁voters	-8949
Applause	-8950
aneously	-8951
▁Freedom	-8952
▁Samland	-8953
▁Swoboda	-8954
▁Topical	-8955
▁abolish	-8956
▁adapted	-8957
▁assured	-8958
▁charged	-8959
▁cutting	-8960
▁decades	-8961
▁display	-8962
▁enjoyed	-8963
▁ensured	-8964
▁fishery	-8965
▁gallery	-8966
▁manoeuv	-8967
▁particu	-8968
▁publish	-8969
▁regimes	-8970
▁Lindholm	-8971
▁Sciences	-8972
▁Slovenia	-8973
▁credible	-8974
▁employee	-8975
▁hearings	-8976
▁integral	-8977
▁labelled	-8978
▁overwhel	-8979
▁quantity	-8980
▁receives	-8981
▁surround	-8982
essaloniki	-8983
▁Gallagher	-8984
▁arbitrary	-8985
▁ascertain	-8986
▁clarified	-8987
▁destroyed	-8988
▁expressly	-8989
▁invention	-8990
▁isolation	-8991
▁reiterate	-8992
▁Baringdorf	-8993
▁calculated	-8994
▁condemning	-8995
▁formulated	-8996
▁foundation	-8997
▁profitable	-8998
▁reputation	-8999
▁separately	-9000
▁combination	-9001
▁contractual	-9002
▁methodology	-9003
▁potentially	-9004
▁professions	-9005
▁Conservative	-9006
▁Organisation	-9007
▁condemnation	-9008
▁facilitating	-9009
▁intelligence	-9010
ongovernmental	-9011
▁certification	-9012
▁incorporation	-9013
▁Representation	-9014
▁computerisation	-9015
▁differentiation	-9016
16	-9017
33	-9018
5)	-9019
56	-9020
.97	-9021
Ver	-9022
ahr	-9023
cho	-9024
oss	-9025
▁9,	-9026
▁lf	-9027
▁py	-9028
ECTO	-9029
alus	-9030
arez	-9031
exic	-9032
hand	-9033
olic	-9034
oper	-9035
oris	-9036
sson	-9037
▁10,	-9038
▁11.	-9039
▁129	-9040
▁2.5	-9041
▁400	-9042
▁DIR	-9043
▁Fax	-9044
▁Ger	-9045
▁Hop	-9046
▁Jac	-9047
▁Men	-9048
▁Rov	-9049
▁Une	-9050
▁box	-9051
▁cab	-9052
▁cum	-9053
▁mit	-9054
▁sel	-9055
.1997	-9056
abila	-9057
elong	-9058
eness	-9059
issen	-9060
ivest	-9061
rosci	-9062
thens	-9063
▁Cars	-9064
▁Cler	-9065
▁Next	-9066
▁Prad	-9067
▁UPOV	-9068
▁aUow	-9069
▁army	-9070
▁bomb	-9071
▁desp	-9072
▁hide	-9073
▁load	-9074
▁pays	-9075
▁pose	-9076
▁scen	-9077
▁sell	-9078
▁shaU	-9079
▁shar	-9080
▁stem	-9081
▁stiU	-9082
▁supr	-9083
▁veto	-9084
ancies	-9085
ispens	-9086
ivable	-9087
zolini	-9088
▁(1991	-9089
▁Ahern	-9090
▁Costs	-9091
▁Incre	-9092
▁Mexic	-9093
▁await	-9094
▁decod	-9095
▁goals	-9096
▁inequ	-9097
▁recru	-9098
▁tests	-9099
▁undes	-9100
imation	-9101
ressing	-9102
▁Kabila	-9103
▁Lalumi	-9104
▁Rivera	-9105
▁Vallel	-9106
▁adding	-9107
▁aiming	-9108
▁cereal	-9109
▁crises	-9110
▁fallen	-9111
▁flight	-9112
▁friend	-9113
▁handle	-9114
▁inject	-9115
▁lesson	-9116
▁orders	-9117
▁reluct	-9118
▁remedy	-9119
▁rigour	-9120
▁trials	-9121
▁wastes	-9122
▁wisdom	-9123
attached	-9124
iversary	-9125
ivestock	-9126
izations	-9127
▁Alvarez	-9128
▁Estonia	-9129
▁Garosci	-9130
▁Iceland	-9131
▁Pradier	-9132
▁Tunisia	-9133
▁applaud	-9134
▁ceiling	-9135
▁clients	-9136
▁foresee	-9137
▁frankly	-9138
▁inhabit	-9139
▁renewal	-9140
▁solving	-9141
▁tariffs	-9142
anational	-9143
▁Azzolini	-9144
▁Helsinki	-9145
▁asbestos	-9146
▁expanded	-9147
▁location	-9148
▁omission	-9149
▁operated	-9150
▁reformed	-9151
▁revealed	-9152
▁taxpayer	-9153
▁ultimate	-9154
ispensable	-9155
▁Paragraph	-9156
▁admission	-9157
▁advertise	-9158
▁approving	-9159
▁excluding	-9160
▁gentiemen	-9161
▁inconsist	-9162
▁newspaper	-9163
▁prejudice	-9164
▁scheduled	-9165
▁autonomous	-9166
▁combatting	-9167
▁linguistic	-9168
▁optimistic	-9169
▁positively	-9170
plementation	-9171
▁Authorities	-9172
▁contracting	-9173
▁equilibrium	-9174
▁ministerial	-9175
▁nationality	-9176
▁preparatory	-9177
▁seriousness	-9178
▁Vallelersundi	-9179
▁disappointing	-9180
▁indispensable	-9181
▁repercussions	-9182
▁simultaneously	-9183
▁specifications	-9184
92	-9185
YN	-9186
gi	-9187
▁,	-9188
(3)	-9189
.03	-9190
298	-9191
AGP	-9192
ARY	-9193
IAL	-9194
bat	-9195
dec	-9196
elf	-9197
ili	-9198
imm	-9199
isy	-9200
lub	-9201
opl	-9202
reb	-9203
upl	-9204
zed	-9205
▁44	-9206
▁CS	-9207
aint	-9208
band	-9209
gies	-9210
here	-9211
ompl	-9212
raki	-9213
rant	-9214
rier	-9215
rypt	-9216
▁220	-9217
▁GNP	-9218
▁Mat	-9219
▁Nic	-9220
▁Ott	-9221
▁Ter	-9222
▁cha	-9223
▁fer	-9224
▁ity	-9225
▁lag	-9226
▁mag	-9227
▁miU	-9228
EMENT	-9229
aceut	-9230
icism	-9231
large	-9232
nabis	-9233
naire	-9234
opath	-9235
plete	-9236
▁1970	-9237
▁Blok	-9238
▁ECSC	-9239
▁Farm	-9240
▁Fass	-9241
▁Lenz	-9242
▁Peru	-9243
▁abst	-9244
▁dark	-9245
▁ease	-9246
▁game	-9247
▁hind	-9248
▁insp	-9249
▁knew	-9250
▁liab	-9251
▁ness	-9252
▁unch	-9253
▁unus	-9254
▁vill	-9255
ahrton	-9256
enguer	-9257
erated	-9258
everal	-9259
iguous	-9260
market	-9261
▁(1986	-9262
▁1993.	-9263
▁Perry	-9264
▁Price	-9265
▁Schle	-9266
▁antip	-9267
▁cargo	-9268
▁corre	-9269
▁derog	-9270
▁dream	-9271
▁mixed	-9272
▁outer	-9273
▁pyram	-9274
▁ruled	-9275
▁steel	-9276
▁throw	-9277
▁tough	-9278
▁trace	-9279
▁write	-9280
assador	-9281
idelich	-9282
igation	-9283
ovement	-9284
product	-9285
▁Azores	-9286
▁Diplom	-9287
▁Europa	-9288
▁Safety	-9289
▁aeropl	-9290
▁argued	-9291
▁enrich	-9292
▁formed	-9293
▁lowest	-9294
▁racist	-9295
▁rising	-9296
▁survey	-9297
▁timely	-9298
▁unjust	-9299
graduate	-9300
ramework	-9301
▁Cypriot	-9302
▁Lulling	-9303
▁Statute	-9304
▁accompl	-9305
▁advised	-9306
▁caution	-9307
▁deleted	-9308
▁environ	-9309
▁minimal	-9310
▁victory	-9311
▁visible	-9312
accession	-9313
paragraph	-9314
▁Advisory	-9315
▁Flemming	-9316
▁Heinisch	-9317
▁advisers	-9318
▁attended	-9319
▁autonomy	-9320
▁confined	-9321
▁estabUsh	-9322
▁failings	-9323
▁hitherto	-9324
▁messages	-9325
▁reserved	-9326
▁reviewed	-9327
▁securing	-9328
▁trapping	-9329
▁Norwegian	-9330
▁Waidelich	-9331
▁breakdown	-9332
▁divisions	-9333
▁enshrined	-9334
▁expecting	-9335
▁expresses	-9336
▁incorrect	-9337
▁livestock	-9338
▁missioner	-9339
▁occurring	-9340
▁pragmatic	-9341
▁resolving	-9342
▁slaughter	-9343
▁synthetic	-9344
▁COMMITTEES	-9345
▁completing	-9346
▁components	-9347
▁discipline	-9348
▁emphasizes	-9349
▁highlights	-9350
▁inevitable	-9351
▁newspapers	-9352
▁organizing	-9353
▁privileged	-9354
▁recommends	-9355
▁regulating	-9356
▁safeguards	-9357
▁vegetables	-9358
▁Partnership	-9359
▁contributes	-9360
▁democracies	-9361
▁excessively	-9362
▁practically	-9363
▁preferences	-9364
▁technically	-9365
▁utilization	-9366
▁broadcasting	-9367
▁contributing	-9368
▁experiencing	-9369
▁incidentally	-9370
▁preservation	-9371
▁safeguarding	-9372
▁antipersonnel	-9373
▁modernization	-9374
▁socioeconomic	-9375
▁supranational	-9376
."	-9377
7.	-9378
BA	-9379
GF	-9380
gs	-9381
wa	-9382
-10	-9383
HER	-9384
Weg	-9385
dis	-9386
emy	-9387
irk	-9388
non	-9389
sen	-9390
tre	-9391
▁NO	-9392
▁Pu	-9393
▁ov	-9394
4-05	-9395
RATE	-9396
adox	-9397
alez	-9398
anni	-9399
cons	-9400
dent	-9401
isky	-9402
load	-9403
oked	-9404
osis	-9405
plan	-9406
uant	-9407
uzzi	-9408
▁(2)	-9409
▁Ben	-9410
▁Eph	-9411
▁Lou	-9412
▁McK	-9413
▁Naz	-9414
▁boy	-9415
▁sun	-9416
4/97)	-9417
armon	-9418
celer	-9419
cribe	-9420
ented	-9421
ipped	-9422
isons	-9423
leven	-9424
orily	-9425
otics	-9426
rling	-9427
▁2010	-9428
▁Gold	-9429
▁Need	-9430
▁Oper	-9431
▁Ribe	-9432
▁drew	-9433
▁gold	-9434
▁inad	-9435
▁indu	-9436
▁pick	-9437
▁shap	-9438
▁toll	-9439
▁vent	-9440
▁wood	-9441
Weggen	-9442
decess	-9443
▁Fassa	-9444
▁Forum	-9445
▁Impro	-9446
▁Korea	-9447
▁Puert	-9448
▁Reply	-9449
▁Smith	-9450
▁accus	-9451
▁catal	-9452
▁cycle	-9453
▁faces	-9454
▁forty	-9455
▁ratio	-9456
▁sites	-9457
▁stric	-9458
aestors	-9459
maments	-9460
▁Angola	-9461
▁Ephrem	-9462
▁Hoppen	-9463
▁Pettin	-9464
▁Senior	-9465
▁cancer	-9466
▁career	-9467
▁conven	-9468
▁devote	-9469
▁joined	-9470
▁overse	-9471
▁plural	-9472
▁proven	-9473
▁viewed	-9474
▁weapon	-9475
ECTORATE	-9476
quarters	-9477
regional	-9478
ventions	-9479
▁Balkans	-9480
▁Consult	-9481
▁Gahrton	-9482
▁Islamic	-9483
▁Neither	-9484
▁Officer	-9485
▁Ribeiro	-9486
▁Several	-9487
▁causing	-9488
▁couples	-9489
▁expects	-9490
▁hormone	-9491
▁intense	-9492
▁payable	-9493
ferential	-9494
including	-9495
▁Giansily	-9496
▁Gonzalez	-9497
▁amounted	-9498
▁analysed	-9499
▁approves	-9500
▁breeders	-9501
▁cannabis	-9502
▁conespon	-9503
▁defended	-9504
▁detected	-9505
▁endorsed	-9506
▁finished	-9507
▁innocent	-9508
▁merchand	-9509
▁overview	-9510
▁patterns	-9511
▁refusing	-9512
▁uncontro	-9513
▁whenever	-9514
compulsory	-9515
▁Belenguer	-9516
▁Framework	-9517
▁Temporary	-9518
▁architect	-9519
▁collected	-9520
▁driftnets	-9521
▁especiaUy	-9522
▁identical	-9523
▁intermedi	-9524
▁predecess	-9525
▁protocols	-9526
▁stringent	-9527
▁suspicion	-9528
▁transform	-9529
▁Concerning	-9530
▁Directives	-9531
▁addressing	-9532
▁afterwards	-9533
▁authorised	-9534
▁comparable	-9535
▁conviction	-9536
▁deliberate	-9537
▁millennium	-9538
▁pharmaceut	-9539
▁prohibited	-9540
▁publishing	-9541
▁stipulates	-9542
▁underestim	-9543
▁weaknesses	-9544
............	-9545
continuation	-9546
▁DELEGATIONS	-9547
▁DIRECTORATE	-9548
▁anniversary	-9549
▁controlling	-9550
▁ingredients	-9551
▁manufacture	-9552
▁programming	-9553
▁specialized	-9554
▁Thessaloniki	-9555
▁constituents	-9556
▁governmental	-9557
▁irrespective	-9558
▁participated	-9559
▁partnerships	-9560
▁preferential	-9561
▁disadvantages	-9562
▁questionnaire	-9563
▁systematically	-9564
▁nongovernmental	-9565
23	-9566
63	-9567
7/	-9568
AB	-9569
CA	-9570
La	-9571
PR	-9572
▁/	-9573
Uon	-9574
but	-9575
eme	-9576
ika	-9577
ora	-9578
▁58	-9579
AGGF	-9580
BLES	-9581
OFIN	-9582
anza	-9583
cile	-9584
conc	-9585
gypt	-9586
iant	-9587
ille	-9588
irls	-9589
itar	-9590
risk	-9591
roph	-9592
rote	-9593
▁1.2	-9594
▁110	-9595
▁138	-9596
▁150	-9597
▁Bet	-9598
▁Fac	-9599
▁Tam	-9600
(95)0	-9601
4-199	-9602
RATOM	-9603
odest	-9604
pical	-9605
uated	-9606
▁Cort	-9607
▁Exam	-9608
▁Fant	-9609
▁Nord	-9610
▁Oslo	-9611
▁Tele	-9612
▁Trak	-9613
▁brut	-9614
▁coal	-9615
▁dear	-9616
▁dupl	-9617
▁obsc	-9618
.10.19	-9619
ROBLES	-9620
lander	-9621
mented	-9622
onents	-9623
▁Allow	-9624
▁Catal	-9625
▁Egypt	-9626
▁Liese	-9627
▁Peijs	-9628
▁Prize	-9629
▁Quite	-9630
▁Rober	-9631
▁Young	-9632
▁arose	-9633
▁draws	-9634
▁enact	-9635
▁files	-9636
▁gases	-9637
▁input	-9638
▁repay	-9639
▁saved	-9640
▁utter	-9641
-1992).	-9642
alistic	-9643
balance	-9644
forcing	-9645
growing	-9646
iculous	-9647
ivities	-9648
quality	-9649
ursuant	-9650
▁Breyer	-9651
▁Ottawa	-9652
▁Travel	-9653
▁arable	-9654
▁buying	-9655
▁divers	-9656
▁entity	-9657
▁extrem	-9658
▁judges	-9659
▁lawyer	-9660
▁licens	-9661
▁massac	-9662
▁middle	-9663
▁paraly	-9664
▁plenty	-9665
▁presum	-9666
▁pupils	-9667
▁thirty	-9668
▁update	-9669
▁varied	-9670
/97-96/0	-9671
olutions	-9672
▁Pimenta	-9673
▁Science	-9674
▁acceler	-9675
▁combine	-9676
▁desired	-9677
▁exploit	-9678
▁flights	-9679
▁gaining	-9680
▁paradox	-9681
▁profile	-9682
▁stating	-9683
▁tension	-9684
▁tourist	-9685
▁unified	-9686
financing	-9687
journment	-9688
political	-9689
tegration	-9690
▁Academic	-9691
▁Fantuzzi	-9692
▁Lambraki	-9693
▁Measures	-9694
▁SOCRATES	-9695
▁bankrupt	-9696
▁complied	-9697
▁contempl	-9698
▁envisage	-9699
▁facility	-9700
▁guidance	-9701
▁lecturer	-9702
▁limiting	-9703
▁momentum	-9704
▁mutually	-9705
▁observer	-9706
▁resident	-9707
▁tensions	-9708
▁unlikely	-9709
▁Qualified	-9710
▁addresses	-9711
▁armaments	-9712
▁calculate	-9713
▁democrats	-9714
▁detriment	-9715
▁freelance	-9716
▁generated	-9717
▁maintains	-9718
▁partially	-9719
▁premature	-9720
▁processed	-9721
▁professor	-9722
▁somewhere	-9723
▁statutory	-9724
▁trademark	-9725
resentation	-9726
▁Committees	-9727
▁Ephremidis	-9728
▁distortion	-9729
▁kilometres	-9730
▁repression	-9731
▁Fortunately	-9732
▁competences	-9733
▁differently	-9734
▁establishes	-9735
▁furthermore	-9736
▁merchandise	-9737
▁perpetrated	-9738
▁provisional	-9739
▁translators	-9740
▁examinations	-9741
▁modification	-9742
▁incorporating	-9743
▁investigating	-9744
▁privatization	-9745
▁wholeheartedly	-9746
.:	-9747
32	-9748
8/	-9749
cq	-9750
rb	-9751
)).	-9752
ERS	-9753
UBL	-9754
asy	-9755
cup	-9756
mat	-9757
ogg	-9758
run	-9759
sim	-9760
▁79	-9761
▁8.	-9762
▁96	-9763
▁ER	-9764
▁Mo	-9765
▁Ol	-9766
▁VI	-9767
bing	-9768
cely	-9769
euro	-9770
idal	-9771
inez	-9772
irac	-9773
oses	-9774
pean	-9775
rets	-9776
sely	-9777
temp	-9778
uber	-9779
uble	-9780
wart	-9781
xual	-9782
▁128	-9783
▁Add	-9784
▁CIT	-9785
▁Don	-9786
▁Geb	-9787
▁Ins	-9788
▁Kat	-9789
▁Sri	-9790
▁hol	-9791
accav	-9792
agues	-9793
aired	-9794
apsed	-9795
arlia	-9796
ghreb	-9797
ifice	-9798
osing	-9799
ounty	-9800
ricum	-9801
until	-9802
▁Bell	-9803
▁Hist	-9804
▁Lank	-9805
▁MAGP	-9806
▁MEDA	-9807
▁Post	-9808
▁Sarl	-9809
▁ausp	-9810
▁blow	-9811
▁calm	-9812
▁doll	-9813
▁fill	-9814
▁pity	-9815
▁runs	-9816
▁spon	-9817
▁wake	-9818
commit	-9819
istrib	-9820
▁André	-9821
▁Mayer	-9822
▁Naval	-9823
▁Right	-9824
▁Roman	-9825
▁Svens	-9826
▁aston	-9827
▁debts	-9828
▁exped	-9829
▁genes	-9830
▁grand	-9831
▁owner	-9832
▁posed	-9833
▁sadly	-9834
▁score	-9835
▁sheep	-9836
▁sheet	-9837
▁sight	-9838
▁theme	-9839
Article	-9840
control	-9841
ensions	-9842
iciency	-9843
ideline	-9844
orarily	-9845
taining	-9846
through	-9847
▁Caccav	-9848
▁Cornel	-9849
▁Cortes	-9850
▁Hardst	-9851
▁Marset	-9852
▁Person	-9853
▁Sakell	-9854
▁Taking	-9855
▁Whilst	-9856
▁assert	-9857
▁carbon	-9858
▁endang	-9859
▁famous	-9860
▁guided	-9861
▁judici	-9862
▁labels	-9863
▁misuse	-9864
▁proves	-9865
▁revers	-9866
▁seemed	-9867
▁selves	-9868
▁stored	-9869
▁worksh	-9870
petition	-9871
roducing	-9872
▁Maghreb	-9873
▁McKenna	-9874
▁Medical	-9875
▁Welcome	-9876
▁Workers	-9877
▁backing	-9878
▁cunency	-9879
▁delayed	-9880
▁joining	-9881
▁killing	-9882
▁liberty	-9883
▁noticed	-9884
▁survive	-9885
▁telling	-9886
▁unusual	-9887
▁volumes	-9888
▁western	-9889
▁Gebhardt	-9890
▁Martinez	-9891
▁Movement	-9892
▁Services	-9893
▁acquired	-9894
▁assigned	-9895
▁auspices	-9896
▁confirms	-9897
▁destined	-9898
▁employer	-9899
▁enthusia	-9900
▁inherent	-9901
▁insurers	-9902
▁obstruct	-9903
▁pressing	-9904
▁punished	-9905
▁sacrific	-9906
▁suddenly	-9907
▁threaten	-9908
▁turnover	-9909
industrial	-9910
▁Caccavale	-9911
▁Castricum	-9912
▁Hardstaff	-9913
▁abandoned	-9914
▁conscious	-9915
▁dedicated	-9916
▁guideline	-9917
▁launching	-9918
▁opponents	-9919
▁outermost	-9920
▁precedent	-9921
▁reconcile	-9922
▁relevance	-9923
▁Scientific	-9924
▁compensate	-9925
▁permission	-9926
▁reinforced	-9927
▁terrorists	-9928
▁unilateral	-9929
▁Cornelissen	-9930
▁Legislative	-9931
▁Sakellariou	-9932
▁cooperating	-9933
▁frustration	-9934
▁handicapped	-9935
▁importantly	-9936
▁inhabitants	-9937
▁replacement	-9938
▁temporarily	-9939
▁confirmation	-9940
▁interference	-9941
▁contradictory	-9942
▁misunderstand	-9943
▁pharmaceutical	-9944
▁codetermination	-9945
(2	-9946
39	-9947
51	-9948
EF	-9949
aj	-9950
.04	-9951
.08	-9952
307	-9953
ADE	-9954
EPP	-9955
FOR	-9956
SYN	-9957
che	-9958
ete	-9959
pic	-9960
raq	-9961
tti	-9962
▁52	-9963
▁53	-9964
▁8,	-9965
▁CO	-9966
▁EF	-9967
▁PO	-9968
▁na	-9969
4­00	-9970
East	-9971
eneg	-9972
kola	-9973
nity	-9974
nsch	-9975
pact	-9976
paid	-9977
prog	-9978
rews	-9979
zing	-9980
▁250	-9981
▁Amb	-9982
▁Gar	-9983
▁Luk	-9984
▁Pan	-9985
▁emp	-9986
▁mix	-9987
▁owe	-9988
▁ran	-9989
▁swe	-9990
▁vit	-9991
/96).	-9992
adays	-9993
arthy	-9994
assed	-9995
bling	-9996
board	-9997
egoti	-9998
iably	-9999
inite	-10000
itius	-10001
obody	-10002
ounds	-10003
▁1957	-10004
▁90/2	-10005
▁Carl	-10006
▁Cass	-10007
▁Flag	-10008
▁Maij	-10009
▁Mann	-10010
▁Terr	-10011
▁amaz	-10012
▁born	-10013
▁brid	-10014
▁bulk	-10015
▁cows	-10016
▁epid	-10017
▁extr	-10018
▁kill	-10019
▁radi	-10020
▁shif	-10021
▁shut	-10022
▁subs	-10023
▁tant	-10024
▁wall	-10025
.12.19	-10026
arelli	-10027
ashing	-10028
cribed	-10029
earing	-10030
icable	-10031
iforis	-10032
retion	-10033
▁(1985	-10034
▁Colom	-10035
▁EAGGF	-10036
▁Lakes	-10037
▁Local	-10038
▁Polit	-10039
▁Sport	-10040
▁Thors	-10041
▁dated	-10042
▁exert	-10043
▁newly	-10044
enanean	-10045
orously	-10046
ountain	-10047
uropean	-10048
▁Clercq	-10049
▁ECOFIN	-10050
▁Fourth	-10051
▁LEADER	-10052
▁Myller	-10053
▁Nobody	-10054
▁Podest	-10055
▁Robert	-10056
▁deputy	-10057
▁desper	-10058
▁eleven	-10059
▁embark	-10060
▁encomp	-10061
▁forged	-10062
▁handed	-10063
▁judged	-10064
▁mental	-10065
▁offend	-10066
▁pieces	-10067
▁relies	-10068
▁slowly	-10069
▁speaks	-10070
▁thrust	-10071
▁virtue	-10072
ICATIONS	-10073
ensitive	-10074
ritorial	-10075
▁England	-10076
▁Kokkola	-10077
▁Meeting	-10078
▁Nothing	-10079
▁Session	-10080
▁burdens	-10081
▁cheaper	-10082
▁cleared	-10083
▁grammes	-10084
▁growers	-10085
▁harmony	-10086
▁individ	-10087
▁invalid	-10088
▁journey	-10089
▁linking	-10090
▁parents	-10091
▁passage	-10092
▁printed	-10093
▁prolong	-10094
▁pyramid	-10095
▁regrets	-10096
▁replied	-10097
▁signals	-10098
▁specify	-10099
▁torture	-10100
▁typical	-10101
largement	-10102
▁Flagship	-10103
▁McCarthy	-10104
▁ambition	-10105
▁dominant	-10106
▁favoured	-10107
▁mistaken	-10108
▁operator	-10109
▁overseas	-10110
▁produces	-10111
▁prohibit	-10112
▁reassure	-10113
▁recalled	-10114
▁removing	-10115
▁republic	-10116
▁retained	-10117
▁revenues	-10118
▁sittings	-10119
▁stricter	-10120
▁tangible	-10121
▁tendency	-10122
▁vouchers	-10123
▁weakened	-10124
management	-10125
ornography	-10126
▁Consumers	-10127
▁Doctorate	-10128
▁Katiforis	-10129
▁Mauritius	-10130
▁Yesterday	-10131
▁appearing	-10132
▁assistant	-10133
▁civilians	-10134
▁deepening	-10135
▁delegated	-10136
▁emphasise	-10137
▁encounter	-10138
▁entrusted	-10139
▁licensing	-10140
▁mandatory	-10141
▁manoeuvre	-10142
▁packaging	-10143
▁recognise	-10144
▁selective	-10145
▁suspected	-10146
Herzegovina	-10147
▁Individual	-10148
▁administer	-10149
▁altogether	-10150
▁approached	-10151
▁currencies	-10152
▁exercising	-10153
▁imposition	-10154
▁misleading	-10155
▁officially	-10156
▁protective	-10157
▁reasonably	-10158
▁reciprocal	-10159
▁reconsider	-10160
▁scandalous	-10161
▁specialist	-10162
▁Hoppenstedt	-10163
▁competitors	-10164
▁contractors	-10165
▁coordinator	-10166
▁disparities	-10167
▁evaluations	-10168
▁financially	-10169
▁qualitative	-10170
▁restriction	-10171
▁undesirable	-10172
▁announcement	-10173
▁calculations	-10174
▁investigated	-10175
▁verification	-10176
▁approximation	-10177
▁beneficiaries	-10178
▁compatibility	-10179
▁disappearance	-10180
▁entrepreneurs	-10181
▁independently	-10182
70	-10183
75	-10184
79	-10185
It	-10186
NE	-10187
hm	-10188
/93	-10189
ASS	-10190
Gow	-10191
UES	-10192
ali	-10193
cip	-10194
dez	-10195
hec	-10196
hes	-10197
ica	-10198
mid	-10199
owe	-10200
pat	-10201
pes	-10202
▁1)	-10203
▁66	-10204
▁CE	-10205
▁Ic	-10206
▁NL	-10207
▁Ur	-10208
95/0	-10209
EECs	-10210
ches	-10211
drug	-10212
face	-10213
fund	-10214
nine	-10215
opol	-10216
post	-10217
sole	-10218
▁Cas	-10219
▁Dem	-10220
▁Dok	-10221
▁Ham	-10222
▁MAN	-10223
▁See	-10224
▁Thy	-10225
▁ang	-10226
▁eve	-10227
▁fuU	-10228
▁gri	-10229
▁hot	-10230
▁lod	-10231
▁tum	-10232
Gowan	-10233
andum	-10234
anted	-10235
hecke	-10236
inded	-10237
inter	-10238
party	-10239
rency	-10240
think	-10241
▁Arab	-10242
▁Bond	-10243
▁Bowe	-10244
▁Brok	-10245
▁CPVR	-10246
▁Cent	-10247
▁Cond	-10248
▁Harr	-10249
▁Imaz	-10250
▁Laos	-10251
▁Spec	-10252
▁ance	-10253
▁emot	-10254
▁ends	-10255
▁exag	-10256
▁grat	-10257
▁halt	-10258
▁hast	-10259
▁luck	-10260
▁mail	-10261
▁milk	-10262
▁pool	-10263
▁race	-10264
▁soph	-10265
▁spot	-10266
▁stre	-10267
(96)04	-10268
/97-97	-10269
athers	-10270
azette	-10271
ioxide	-10272
▁(1973	-10273
▁Congo	-10274
▁Icaza	-10275
▁Veter	-10276
▁breat	-10277
▁craft	-10278
▁dimin	-10279
▁doors	-10280
▁dwell	-10281
▁dynam	-10282
▁escal	-10283
▁holid	-10284
▁liked	-10285
▁overt	-10286
▁pregn	-10287
▁shops	-10288
▁tells	-10289
▁token	-10290
▁volun	-10291
atorium	-10292
country	-10293
grading	-10294
orandum	-10295
portion	-10296
reation	-10297
▁Argent	-10298
▁Campos	-10299
▁Engine	-10300
▁Harmon	-10301
▁Lawyer	-10302
▁Puerta	-10303
▁Sarlis	-10304
▁Schmid	-10305
▁Tamino	-10306
▁Thanks	-10307
▁assign	-10308
▁caught	-10309
▁counts	-10310
▁devast	-10311
▁fought	-10312
▁gender	-10313
▁intent	-10314
▁occurs	-10315
▁phased	-10316
▁render	-10317
▁repair	-10318
.07.1989	-10319
stically	-10320
▁Amnesty	-10321
▁Andrews	-10322
▁Chilean	-10323
▁Compact	-10324
▁Jacques	-10325
▁McGowan	-10326
▁Nuclear	-10327
▁Thyssen	-10328
▁acquire	-10329
▁marking	-10330
▁pillars	-10331
▁protein	-10332
▁trained	-10333
▁unclear	-10334
▁unequiv	-10335
▁worried	-10336
existence	-10337
ostlander	-10338
president	-10339
▁Blokland	-10340
▁Eligible	-10341
▁Harrison	-10342
▁Proposal	-10343
▁Svensson	-10344
▁Vanhecke	-10345
▁advocate	-10346
▁annually	-10347
▁crossing	-10348
▁foUowing	-10349
▁foreseen	-10350
▁hesitate	-10351
▁lifelong	-10352
▁mountain	-10353
▁murdered	-10354
▁publicly	-10355
▁recitals	-10356
▁remained	-10357
▁sciences	-10358
▁shopping	-10359
▁studying	-10360
▁tenorism	-10361
▁(1982-198	-10362
▁Commander	-10363
▁Sometimes	-10364
▁belonging	-10365
▁comprises	-10366
▁corrected	-10367
▁declining	-10368
▁differing	-10369
▁exporters	-10370
▁exporting	-10371
▁fraudster	-10372
▁importers	-10373
▁judiciary	-10374
▁motivated	-10375
▁pressures	-10376
▁prisoners	-10377
▁restoring	-10378
▁welcoming	-10379
▁25.07.1989	-10380
▁Baldarelli	-10381
▁Journalist	-10382
▁Veterinary	-10383
▁abolishing	-10384
▁boundaries	-10385
▁conscience	-10386
▁continuity	-10387
▁fulfilment	-10388
▁illustrate	-10389
▁incomplete	-10390
▁journalist	-10391
▁laboratory	-10392
▁limitation	-10393
▁negligence	-10394
▁Adjournment	-10395
▁Contracting	-10396
▁Governments	-10397
▁Independent	-10398
▁allegations	-10399
▁anangements	-10400
▁formulation	-10401
▁partsession	-10402
▁pornography	-10403
▁restoration	-10404
▁theoretical	-10405
▁Institutions	-10406
▁Verification	-10407
▁accumulation	-10408
▁certificates	-10409
▁individually	-10410
▁postponement	-10411
▁disappointment	-10412
▁reconciliation	-10413
▁confidentiality	-10414
▁proportionality	-10415
85	-10416
FT	-10417
OE	-10418
PA	-10419
Ud	-10420
VP	-10421
rd	-10422
/92	-10423
20/	-10424
294	-10425
ata	-10426
bly	-10427
cos	-10428
hed	-10429
ivi	-10430
lor	-10431
▁(3	-10432
▁57	-10433
▁71	-10434
▁PE	-10435
4-06	-10436
Rule	-10437
aine	-10438
ardo	-10439
bean	-10440
ders	-10441
etor	-10442
iest	-10443
ogen	-10444
phet	-10445
writ	-10446
▁169	-10447
▁370	-10448
▁600	-10449
▁Esc	-10450
▁Eth	-10451
▁Fer	-10452
▁Imm	-10453
▁Key	-10454
▁Off	-10455
▁Pac	-10456
▁REP	-10457
▁bon	-10458
▁ers	-10459
▁faU	-10460
▁fed	-10461
▁pig	-10462
▁quo	-10463
▁rub	-10464
▁thé	-10465
artin	-10466
batim	-10467
eader	-10468
grade	-10469
igent	-10470
inton	-10471
month	-10472
occup	-10473
rafts	-10474
▁ECHO	-10475
▁Good	-10476
▁Iraq	-10477
▁Made	-10478
▁Mult	-10479
▁PUBL	-10480
▁Sten	-10481
▁bond	-10482
▁cash	-10483
▁duly	-10484
▁echo	-10485
▁elab	-10486
▁laud	-10487
▁mort	-10488
▁phot	-10489
▁pred	-10490
▁rice	-10491
▁seal	-10492
▁sing	-10493
▁suit	-10494
▁trip	-10495
ataire	-10496
atform	-10497
icting	-10498
ildren	-10499
isible	-10500
owners	-10501
preced	-10502
rality	-10503
ustain	-10504
▁(1990	-10505
▁CEECs	-10506
▁Fifth	-10507
▁Force	-10508
▁Rothe	-10509
▁Volvo	-10510
▁Weele	-10511
▁acced	-10512
▁beaut	-10513
▁chief	-10514
▁cited	-10515
▁coins	-10516
▁keeps	-10517
▁purse	-10518
▁relax	-10519
▁shock	-10520
▁unamb	-10521
▁unden	-10522
▁wrote	-10523
▁yield	-10524
-1990).	-10525
Verrier	-10526
cluding	-10527
ificant	-10528
lements	-10529
▁Altern	-10530
▁County	-10531
▁FinaUy	-10532
▁Forest	-10533
▁Region	-10534
▁Scotch	-10535
▁Volume	-10536
▁antibi	-10537
▁barely	-10538
▁decade	-10539
▁defici	-10540
▁endocr	-10541
▁inland	-10542
▁milUon	-10543
▁minors	-10544
▁persec	-10545
▁propag	-10546
▁retire	-10547
▁seized	-10548
▁topics	-10549
▁unrest	-10550
▁verify	-10551
actorily	-10552
security	-10553
▁Bernard	-10554
▁Clinton	-10555
▁Contact	-10556
▁Coordin	-10557
▁Faculty	-10558
▁Kurdish	-10559
▁Marques	-10560
▁Turning	-10561
▁belongs	-10562
▁claimed	-10563
▁compare	-10564
▁curious	-10565
▁defects	-10566
▁deplore	-10567
▁destroy	-10568
▁diverse	-10569
▁emerges	-10570
▁favours	-10571
▁forming	-10572
▁lawyers	-10573
▁letting	-10574
▁origins	-10575
▁varying	-10576
▁worries	-10577
▁Commerce	-10578
▁Replaced	-10579
▁adapting	-10580
▁assisted	-10581
▁assuming	-10582
▁awaiting	-10583
▁breaches	-10584
▁breeding	-10585
▁commence	-10586
▁councils	-10587
▁deadlock	-10588
▁decrease	-10589
▁deprived	-10590
▁deterior	-10591
▁endorses	-10592
▁failures	-10593
▁fairness	-10594
▁humanity	-10595
▁laudable	-10596
▁likewise	-10597
▁striking	-10598
▁tolerate	-10599
▁verbatim	-10600
▁vigilant	-10601
▁Stockholm	-10602
▁advocates	-10603
▁communaut	-10604
▁criticize	-10605
▁customary	-10606
▁discovery	-10607
▁expanding	-10608
▁informing	-10609
▁investors	-10610
▁preferred	-10611
▁privilege	-10612
▁responded	-10613
▁responses	-10614
▁returning	-10615
▁successes	-10616
▁tolerated	-10617
▁translate	-10618
▁underline	-10619
▁warehouse	-10620
▁weighting	-10621
iodiversity	-10622
▁Conditions	-10623
▁Oostlander	-10624
▁Particular	-10625
▁Priorities	-10626
▁Resumption	-10627
▁aeroplanes	-10628
▁assumption	-10629
▁attributed	-10630
▁classified	-10631
▁congestion	-10632
▁discretion	-10633
▁endeavours	-10634
▁evaluating	-10635
▁mandataire	-10636
▁meaningful	-10637
▁moratorium	-10638
▁neutrality	-10639
▁possession	-10640
▁suggesting	-10641
▁treatments	-10642
▁acquisition	-10643
▁approaching	-10644
▁calculating	-10645
▁compromises	-10646
▁disappeared	-10647
▁feasibility	-10648
▁ineffective	-10649
▁originating	-10650
▁recognizing	-10651
▁resignation	-10652
▁sensitivity	-10653
▁threatening	-10654
▁Independents	-10655
▁Palestinians	-10656
▁emphatically	-10657
▁inadmissible	-10658
▁overwhelming	-10659
▁precondition	-10660
▁quantitative	-10661
▁translations	-10662
▁concentrating	-10663
▁demonstrating	-10664
▁progressively	-10665
▁advertisements	-10666
▁transportation	-10667
▁Representatives	-10668
▁standardization	-10669
91	-10670
Qu	-10671
Sp	-10672
We	-10673
va	-10674
▁)	-10675
.1.	-10676
/94	-10677
CTS	-10678
III	-10679
TIC	-10680
ani	-10681
cow	-10682
ded	-10683
idy	-10684
ixt	-10685
oin	-10686
ook	-10687
ray	-10688
rel	-10689
rey	-10690
tes	-10691
▁42	-10692
▁46	-10693
▁51	-10694
▁9.	-10695
▁AU	-10696
▁DE	-10697
▁Ha	-10698
▁ON	-10699
▁SG	-10700
▁km	-10701
▁ol	-10702
▁rh	-10703
Euro	-10704
agog	-10705
ands	-10706
ayot	-10707
eper	-10708
ibly	-10709
iful	-10710
life	-10711
mese	-10712
olen	-10713
outo	-10714
pine	-10715
raga	-10716
this	-10717
ulth	-10718
wijk	-10719
▁11,	-10720
▁15,	-10721
▁8.2	-10722
▁800	-10723
▁Ant	-10724
▁CIS	-10725
▁Eco	-10726
▁Kon	-10727
▁Lim	-10728
▁RPR	-10729
▁Ume	-10730
▁adj	-10731
▁cos	-10732
▁dub	-10733
▁ero	-10734
▁nut	-10735
▁une	-10736
4-000	-10737
Scott	-10738
appro	-10739
archy	-10740
chair	-10741
enitz	-10742
group	-10743
ierra	-10744
othes	-10745
rical	-10746
sofar	-10747
▁4-50	-10748
▁Alan	-10749
▁Hans	-10750
▁Much	-10751
▁Unit	-10752
▁Wall	-10753
▁arre	-10754
▁coUe	-10755
▁dile	-10756
▁elim	-10757
▁fing	-10758
▁gest	-10759
▁hier	-10760
▁seas	-10761
▁slog	-10762
▁tail	-10763
▁tone	-10764
.03.19	-10765
author	-10766
change	-10767
erries	-10768
ibbean	-10769
ocking	-10770
ottish	-10771
ushing	-10772
▁1989,	-10773
▁CITES	-10774
▁Compl	-10775
▁Couto	-10776
▁Fayot	-10777
▁Frank	-10778
▁Malta	-10779
▁Medic	-10780
▁atmos	-10781
▁chaos	-10782
▁clubs	-10783
▁cruel	-10784
▁defer	-10785
▁drive	-10786
▁facto	-10787
▁fluct	-10788
▁indef	-10789
▁looph	-10790
▁maybe	-10791
▁mayor	-10792
▁opens	-10793
▁skill	-10794
▁stood	-10795
▁timid	-10796
assment	-10797
ilation	-10798
keepers	-10799
▁Atomic	-10800
▁Guinea	-10801
▁Higher	-10802
▁Leader	-10803
▁Malone	-10804
▁Mexico	-10805
▁Moscow	-10806
▁Mostar	-10807
▁OFFICE	-10808
▁Pillar	-10809
▁Princi	-10810
▁Sierra	-10811
▁anyway	-10812
▁arrest	-10813
▁convey	-10814
▁couple	-10815
▁detect	-10816
▁deteri	-10817
▁enjoys	-10818
▁foster	-10819
▁harder	-10820
▁impart	-10821
▁lesser	-10822
▁planet	-10823
▁preval	-10824
▁rarely	-10825
▁redund	-10826
▁requis	-10827
▁resume	-10828
▁reward	-10829
▁splend	-10830
▁troops	-10831
▁varies	-10832
frontier	-10833
ilingual	-10834
speaking	-10835
▁Burmese	-10836
▁Pacific	-10837
▁Product	-10838
▁Senator	-10839
▁Various	-10840
▁besides	-10841
▁carries	-10842
▁circles	-10843
▁erosion	-10844
▁harvest	-10845
▁illicit	-10846
▁lagging	-10847
▁neglect	-10848
▁records	-10849
▁refugee	-10850
▁seminar	-10851
▁streets	-10852
▁therapy	-10853
▁unknown	-10854
identally	-10855
organisms	-10856
▁24.07.19	-10857
▁Aviation	-10858
▁Colombia	-10859
▁Currency	-10860
▁Dhective	-10861
▁Florence	-10862
▁Graenitz	-10863
▁Particip	-10864
▁Scottish	-10865
▁Standing	-10866
▁administ	-10867
▁blocking	-10868
▁charging	-10869
▁convened	-10870
▁coverage	-10871
▁currendy	-10872
▁enforced	-10873
▁enlarged	-10874
▁feasible	-10875
▁fruitful	-10876
▁magnific	-10877
▁moderate	-10878
▁nowadays	-10879
▁opposing	-10880
▁scarcely	-10881
▁seminars	-10882
▁shortage	-10883
▁tourists	-10884
▁unpreced	-10885
▁vertical	-10886
ignificant	-10887
▁Caribbean	-10888
▁Countries	-10889
▁Situation	-10890
▁attempted	-10891
▁communist	-10892
▁databases	-10893
▁detection	-10894
▁directors	-10895
▁factories	-10896
▁formulate	-10897
▁listening	-10898
▁offensive	-10899
▁practised	-10900
▁publicity	-10901
▁slightest	-10902
▁spokesman	-10903
▁wondering	-10904
▁Personally	-10905
▁appearance	-10906
▁explaining	-10907
▁indicative	-10908
▁inequality	-10909
▁socialists	-10910
▁Enlargement	-10911
▁anticipated	-10912
▁authorizing	-10913
▁continually	-10914
▁disciplines	-10915
▁eliminating	-10916
▁elimination	-10917
▁instability	-10918
▁liabilities	-10919
▁terminology	-10920
▁workrelated	-10921
▁headquarters	-10922
▁transposition	-10923
▁unprecedented	-10924
▁accountability	-10925
▁satisfactorily	-10926
▁underestimated	-10927
▁understandable	-10928
▁interconnection	-10929
▁representations	-10930
27	-10931
31	-10932
87	-10933
93	-10934
AU	-10935
CC	-10936
PS	-10937
VI	-10938
fu	-10939
ho	-10940
ih	-10941
mn	-10942
ég	-10943
ér	-10944
.06	-10945
AND	-10946
ahn	-10947
bed	-10948
bis	-10949
cul	-10950
cyc	-10951
dro	-10952
eli	-10953
iev	-10954
iop	-10955
oid	-10956
tax	-10957
éon	-10958
▁(1	-10959
▁41	-10960
▁62	-10961
▁7,	-10962
▁86	-10963
▁BY	-10964
▁Es	-10965
▁Il	-10966
▁OJ	-10967
▁TH	-10968
▁au	-10969
-200	-10970
adow	-10971
aste	-10972
bled	-10973
cean	-10974
ithu	-10975
itis	-10976
loch	-10977
neth	-10978
nitz	-10979
okes	-10980
rade	-10981
uren	-10982
usse	-10983
▁1.1	-10984
▁102	-10985
▁117	-10986
▁119	-10987
▁12.	-10988
▁140	-10989
▁Bra	-10990
▁Fal	-10991
▁Que	-10992
▁SAF	-10993
▁eat	-10994
▁fee	-10995
▁tox	-10996
/97).	-10997
abakh	-10998
amble	-10999
depth	-11000
falus	-11001
huber	-11002
ocate	-11003
power	-11004
scept	-11005
worth	-11006
▁Cred	-11007
▁JEPs	-11008
▁Nass	-11009
▁Pery	-11010
▁Requ	-11011
▁bioc	-11012
▁capt	-11013
▁cold	-11014
▁crop	-11015
▁fasc	-11016
▁forb	-11017
▁gets	-11018
▁hygi	-11019
▁intr	-11020
▁rape	-11021
▁rapp	-11022
▁rush	-11023
▁soil	-11024
▁tick	-11025
▁undu	-11026
▁vacu	-11027
(96)00	-11028
.09.19	-11029
France	-11030
French	-11031
amines	-11032
health	-11033
icants	-11034
import	-11035
lessly	-11036
minded	-11037
rupted	-11038
solete	-11039
uccess	-11040
▁(1978	-11041
▁Hulth	-11042
▁INTER	-11043
▁Kyoto	-11044
▁Lanka	-11045
▁MANAG	-11046
▁annum	-11047
▁antif	-11048
▁backs	-11049
▁coach	-11050
▁dilem	-11051
▁flour	-11052
▁girls	-11053
▁imple	-11054
▁modes	-11055
▁resid	-11056
▁safer	-11057
▁stead	-11058
-1979).	-11059
astroph	-11060
ections	-11061
embered	-11062
falussy	-11063
inction	-11064
initely	-11065
ranging	-11066
sighted	-11067
station	-11068
▁1994).	-11069
▁Athens	-11070
▁Canary	-11071
▁Falcon	-11072
▁Fiscal	-11073
▁Garcia	-11074
▁Howitt	-11075
▁Import	-11076
▁Master	-11077
▁Menrad	-11078
▁Morgan	-11079
▁Parlia	-11080
▁Peters	-11081
▁Rather	-11082
▁Whisky	-11083
▁adhere	-11084
▁adults	-11085
▁advise	-11086
▁attain	-11087
▁begins	-11088
▁calend	-11089
▁dispro	-11090
▁exempl	-11091
▁faster	-11092
▁freeze	-11093
▁incred	-11094
▁mature	-11095
▁modify	-11096
▁pestic	-11097
▁spring	-11098
▁stolen	-11099
▁urging	-11100
mbudsmen	-11101
▁Banotti	-11102
▁Kenneth	-11103
▁Looking	-11104
▁analyse	-11105
▁authors	-11106
▁categor	-11107
▁charter	-11108
▁dioxide	-11109
▁dubious	-11110
▁ferries	-11111
▁fragile	-11112
▁herself	-11113
▁moments	-11114
▁outline	-11115
▁permits	-11116
▁qualify	-11117
▁refunds	-11118
▁rejects	-11119
▁reveals	-11120
▁seconds	-11121
▁smoking	-11122
▁touched	-11123
▁trouble	-11124
▁volunte	-11125
▁wanting	-11126
excluding	-11127
▁Honorary	-11128
▁Maritime	-11129
▁McCartin	-11130
▁Together	-11131
▁applause	-11132
▁attacked	-11133
▁chairmen	-11134
▁composed	-11135
▁comprise	-11136
▁customer	-11137
▁exceeded	-11138
▁followup	-11139
▁gendemen	-11140
▁generous	-11141
▁guardian	-11142
▁honestly	-11143
▁passport	-11144
▁platform	-11145
▁preoccup	-11146
▁railways	-11147
▁splendid	-11148
ordination	-11149
▁(1979-198	-11150
▁Quaestors	-11151
▁addiction	-11152
▁analysing	-11153
▁backwards	-11154
▁institute	-11155
▁interfere	-11156
▁prominent	-11157
▁qualities	-11158
▁registers	-11159
▁socialist	-11160
▁spreading	-11161
▁Ambassador	-11162
▁Initiative	-11163
▁Lamfalussy	-11164
▁MANAGEMENT	-11165
▁Throughout	-11166
▁assistants	-11167
▁atmosphere	-11168
▁catastroph	-11169
▁committing	-11170
▁correction	-11171
▁exhaustive	-11172
▁foreigners	-11173
▁fraudsters	-11174
▁responding	-11175
▁retirement	-11176
▁substitute	-11177
▁successive	-11178
▁thoroughly	-11179
▁travelling	-11180
▁undergoing	-11181
▁worthwhile	-11182
roliferation	-11183
▁Herzegovina	-11184
▁antibiotics	-11185
▁credentials	-11186
▁detrimental	-11187
▁dismantling	-11188
▁distinguish	-11189
▁emphasizing	-11190
▁integrating	-11191
▁permanently	-11192
▁stimulating	-11193
▁substitutes	-11194
▁surrounding	-11195
▁transaction	-11196
▁breakthrough	-11197
▁competitions	-11198
▁deliberately	-11199
▁manipulation	-11200
▁fragmentation	-11201
▁irresponsible	-11202
▁owninitiative	-11203
▁profitability	-11204
▁demonstrations	-11205
▁complementarity	-11206
6)	-11207
DO	-11208
ND	-11209
SI	-11210
fo	-11211
▁;	-11212
-05	-11213
.).	-11214
/98	-11215
291	-11216
500	-11217
TIV	-11218
afe	-11219
ama	-11220
aur	-11221
bro	-11222
cut	-11223
hst	-11224
kop	-11225
ttp	-11226
two	-11227
via	-11228
▁63	-11229
▁67	-11230
▁82	-11231
▁MA	-11232
▁Ms	-11233
Loth	-11234
ault	-11235
ched	-11236
chez	-11237
date	-11238
enal	-11239
hent	-11240
inos	-11241
isco	-11242
ogau	-11243
orio	-11244
pled	-11245
prof	-11246
pson	-11247
vert	-11248
▁0.5	-11249
▁1.5	-11250
▁12,	-11251
▁196	-11252
▁235	-11253
▁700	-11254
▁900	-11255
▁Cap	-11256
▁ICT	-11257
▁Kit	-11258
▁Nag	-11259
▁Wad	-11260
▁bio	-11261
▁coU	-11262
▁cyn	-11263
▁era	-11264
▁sam	-11265
▁teU	-11266
4-017	-11267
cient	-11268
cosur	-11269
eters	-11270
grace	-11271
ichol	-11272
illan	-11273
legal	-11274
nther	-11275
otted	-11276
owers	-11277
perre	-11278
rence	-11279
space	-11280
techn	-11281
yster	-11282
▁(196	-11283
▁Alex	-11284
▁Etti	-11285
▁Fitz	-11286
▁Kill	-11287
▁MECU	-11288
▁PSOE	-11289
▁Very	-11290
▁adds	-11291
▁blat	-11292
▁burn	-11293
▁carc	-11294
▁evil	-11295
▁fell	-11296
▁gaps	-11297
▁laps	-11298
▁scra	-11299
▁tact	-11300
▁wars	-11301
.11.19	-11302
Christ	-11303
affner	-11304
amount	-11305
arging	-11306
astass	-11307
derman	-11308
esting	-11309
export	-11310
iersma	-11311
ilater	-11312
imedia	-11313
incial	-11314
iously	-11315
ocrisy	-11316
orship	-11317
ounger	-11318
policy	-11319
éonard	-11320
▁(1975	-11321
▁(1976	-11322
▁(1980	-11323
▁Bloch	-11324
▁Blott	-11325
▁Equal	-11326
▁Fraga	-11327
▁James	-11328
▁Medal	-11329
▁Mobut	-11330
▁Noord	-11331
▁Round	-11332
▁Small	-11333
▁Wogau	-11334
▁alike	-11335
▁allev	-11336
▁audit	-11337
▁divor	-11338
▁gains	-11339
▁hyper	-11340
▁ofthe	-11341
▁sexes	-11342
▁store	-11343
dington	-11344
forward	-11345
icating	-11346
iiament	-11347
osexual	-11348
roduced	-11349
▁Alpine	-11350
▁Kittel	-11351
▁Knight	-11352
▁Morris	-11353
▁Nagorn	-11354
▁Nichol	-11355
▁Others	-11356
▁driven	-11357
▁editor	-11358
▁embass	-11359
▁fixing	-11360
▁flying	-11361
▁holder	-11362
▁hoping	-11363
▁insult	-11364
▁marine	-11365
▁parent	-11366
▁strive	-11367
▁tested	-11368
▁therap	-11369
▁vacuum	-11370
Question	-11371
idencies	-11372
ressions	-11373
▁Current	-11374
▁Diploma	-11375
▁Founder	-11376
▁GENERAL	-11377
▁Hulthén	-11378
▁Leperre	-11379
▁Malerba	-11380
▁Serbian	-11381
▁Simpson	-11382
▁Wiersma	-11383
▁carnets	-11384
▁channel	-11385
▁confess	-11386
▁devised	-11387
▁extends	-11388
▁focuses	-11389
▁gesture	-11390
▁handing	-11391
▁informa	-11392
▁monthly	-11393
▁passive	-11394
▁silence	-11395
▁simpler	-11396
▁surgery	-11397
▁updated	-11398
itization	-11399
personnel	-11400
▁Anastass	-11401
▁Canadian	-11402
▁Councils	-11403
▁Falconer	-11404
▁Leonardo	-11405
▁adjusted	-11406
▁disgrace	-11407
▁equipped	-11408
▁exported	-11409
▁hectares	-11410
▁ideology	-11411
▁inspired	-11412
▁invested	-11413
▁obsolete	-11414
▁overlook	-11415
▁patience	-11416
▁salaries	-11417
▁speeding	-11418
▁subordin	-11419
▁transmit	-11420
committees	-11421
phetamines	-11422
▁Blottnitz	-11423
▁Nicholson	-11424
▁Noordwijk	-11425
▁Schaffner	-11426
▁advocated	-11427
▁antifraud	-11428
▁centuries	-11429
▁computers	-11430
▁encompass	-11431
▁endocrine	-11432
▁exemplary	-11433
▁hypocrisy	-11434
▁immigrant	-11435
▁neglected	-11436
▁perceived	-11437
▁redistrib	-11438
▁requisite	-11439
▁signatory	-11440
▁sustained	-11441
▁threatens	-11442
▁unchanged	-11443
▁undertook	-11444
▁unwilling	-11445
▁wellbeing	-11446
development	-11447
information	-11448
▁Applicants	-11449
▁Networking	-11450
▁Waddington	-11451
▁conformity	-11452
▁consultant	-11453
▁containers	-11454
▁insistence	-11455
▁jeopardize	-11456
▁motivation	-11457
▁preserving	-11458
▁prevailing	-11459
▁proceeding	-11460
▁remembered	-11461
▁ridiculous	-11462
▁specifying	-11463
▁undermined	-11464
▁unresolved	-11465
ertification	-11466
withstanding	-11467
▁complainant	-11468
▁costbenefit	-11469
▁cultivation	-11470
▁innovations	-11471
▁liberalized	-11472
▁nominations	-11473
▁strengthens	-11474
▁transmitted	-11475
▁undermining	-11476
determination	-11477
▁Departmental	-11478
▁PUBLICATIONS	-11479
▁Subcommittee	-11480
▁acknowledges	-11481
▁biodiversity	-11482
▁counterparts	-11483
▁experimental	-11484
▁preaccession	-11485
▁respectively	-11486
▁Harmonization	-11487
▁communautaire	-11488
▁distinguished	-11489
▁Constitutional	-11490
▁establishments	-11491
▁Anastassopoulos	-11492
%.	-11493
')	-11494
'?	-11495
//	-11496
3(	-11497
4.	-11498
5(	-11499
81	-11500
AV	-11501
CW	-11502
FE	-11503
LE	-11504
TT	-11505
ao	-11506
da	-11507
hd	-11508
://	-11509
Con	-11510
PPL	-11511
ada	-11512
ags	-11513
aki	-11514
bre	-11515
ceU	-11516
ddy	-11517
eni	-11518
flu	-11519
ios	-11520
mas	-11521
pal	-11522
rac	-11523
raw	-11524
rec	-11525
rov	-11526
rum	-11527
uay	-11528
uts	-11529
ynn	-11530
▁07	-11531
▁89	-11532
▁99	-11533
▁Eu	-11534
▁PR	-11535
▁Ty	-11536
▁Up	-11537
▁eg	-11538
▁ta	-11539
ario	-11540
arry	-11541
avar	-11542
city	-11543
etal	-11544
fold	-11545
ford	-11546
gage	-11547
iaUy	-11548
iden	-11549
ilea	-11550
ione	-11551
iter	-11552
nder	-11553
ndez	-11554
ockx	-11555
prov	-11556
rick	-11557
ubUc	-11558
uned	-11559
will	-11560
▁0.4	-11561
▁170	-11562
▁450	-11563
▁626	-11564
▁91/	-11565
▁CBA	-11566
▁Fel	-11567
▁Gib	-11568
▁McN	-11569
▁Mil	-11570
▁Pay	-11571
▁Wil	-11572
▁bab	-11573
▁cas	-11574
▁fab	-11575
▁fat	-11576
▁gel	-11577
▁hus	-11578
▁mus	-11579
▁phy	-11580
▁sat	-11581
4-024	-11582
bauer	-11583
ellaf	-11584
ethyl	-11585
incre	-11586
inees	-11587
iracy	-11588
obile	-11589
ormor	-11590
there	-11591
unnel	-11592
venth	-11593
▁1000	-11594
▁Ange	-11595
▁Disc	-11596
▁EFTA	-11597
▁Elli	-11598
▁Fhst	-11599
▁None	-11600
▁Wynn	-11601
▁bees	-11602
▁clin	-11603
▁defe	-11604
▁elig	-11605
▁evol	-11606
▁file	-11607
▁leap	-11608
▁nons	-11609
▁ours	-11610
▁paed	-11611
▁pipe	-11612
▁pled	-11613
▁root	-11614
▁rope	-11615
▁sion	-11616
▁tuna	-11617
▁unex	-11618
▁unlo	-11619
▁visa	-11620
German	-11621
Uities	-11622
bridge	-11623
depend	-11624
emberg	-11625
erence	-11626
ighter	-11627
makers	-11628
member	-11629
opathy	-11630
orable	-11631
raltar	-11632
ringen	-11633
simons	-11634
teenth	-11635
▁(1992	-11636
▁12.00	-11637
▁1990,	-11638
▁1991,	-11639
▁Along	-11640
▁Bonde	-11641
▁Estim	-11642
▁Guide	-11643
▁India	-11644
▁Lukas	-11645
▁Pract	-11646
▁Tever	-11647
▁UNION	-11648
▁Viola	-11649
▁Which	-11650
▁align	-11651
▁asset	-11652
▁broch	-11653
▁cabin	-11654
▁cells	-11655
▁crews	-11656
▁franc	-11657
▁indul	-11658
▁inher	-11659
▁lands	-11660
▁older	-11661
▁scene	-11662
▁sharp	-11663
▁toxic	-11664
▁unlaw	-11665
▁white	-11666
-1995).	-11667
Léonard	-11668
atellis	-11669
istrust	-11670
limited	-11671
looking	-11672
ructive	-11673
▁Mobutu	-11674
▁Patent	-11675
▁Respon	-11676
▁Sellaf	-11677
▁Watson	-11678
▁actors	-11679
▁bigger	-11680
▁bought	-11681
▁commod	-11682
▁decent	-11683
▁deepen	-11684
▁heroin	-11685
▁miUion	-11686
▁occupy	-11687
▁poorer	-11688
▁poorly	-11689
▁possib	-11690
▁silent	-11691
▁superv	-11692
▁upheld	-11693
▁wholes	-11694
capacity	-11695
oriented	-11696
versible	-11697
▁1997/98	-11698
▁Gazette	-11699
▁Madeira	-11700
▁Tibetan	-11701
▁chaired	-11702
▁chances	-11703
▁dilemma	-11704
▁discrep	-11705
▁embryos	-11706
▁fathers	-11707
▁forcing	-11708
▁harbour	-11709
▁husband	-11710
▁inhuman	-11711
▁manager	-11712
▁ovarian	-11713
▁presupp	-11714
▁readily	-11715
▁telecom	-11716
▁venture	-11717
▁virtual	-11718
▁younger	-11719
isticated	-11720
openhagen	-11721
▁01.01.19	-11722
▁Election	-11723
▁Killilea	-11724
▁McMillan	-11725
▁Moroccan	-11726
▁Numerous	-11727
▁OFFICIAL	-11728
▁Teverson	-11729
▁alliance	-11730
▁calendar	-11731
▁contempt	-11732
▁entirety	-11733
▁headings	-11734
▁illusion	-11735
▁lowering	-11736
▁measured	-11737
▁preamble	-11738
▁provider	-11739
▁realized	-11740
▁thoughts	-11741
▁tribunal	-11742
▁violated	-11743
▁visiting	-11744
▁warnings	-11745
Lothringen	-11746
employment	-11747
ilaterally	-11748
▁(1981-198	-11749
▁Gibraltar	-11750
▁Pettinari	-11751
▁abstained	-11752
▁associate	-11753
▁competing	-11754
▁concerted	-11755
▁conferred	-11756
▁converted	-11757
▁describes	-11758
▁diplomacy	-11759
▁dissatisf	-11760
▁emergence	-11761
▁impartial	-11762
▁impressed	-11763
▁incidence	-11764
▁phenomena	-11765
▁reception	-11766
▁reforming	-11767
▁rejecting	-11768
▁republics	-11769
▁retailers	-11770
▁supplying	-11771
▁viability	-11772
▁vigilance	-11773
▁workplace	-11774
▁Chairwoman	-11775
▁Fitzsimons	-11776
▁Kittelmann	-11777
▁Sellafield	-11778
▁abandoning	-11779
▁admittedly	-11780
▁anticipate	-11781
▁correspond	-11782
▁courageous	-11783
▁curriculum	-11784
▁estimating	-11785
▁influenced	-11786
▁introduces	-11787
▁mentioning	-11788
▁multimedia	-11789
▁nomination	-11790
▁recipients	-11791
▁supportive	-11792
▁tantamount	-11793
▁transposed	-11794
▁Schmidbauer	-11795
▁Trakatellis	-11796
▁corresponds	-11797
▁eligibility	-11798
▁fortunately	-11799
▁magnificent	-11800
▁reliability	-11801
▁universally	-11802
▁unrealistic	-11803
▁wideranging	-11804
▁withdrawing	-11805
▁Incidentally	-11806
▁Presentation	-11807
▁Scandinavian	-11808
▁collectively	-11809
▁irreversible	-11810
▁manufactured	-11811
▁perpetrators	-11812
▁reprocessing	-11813
▁transporting	-11814
▁vicechairman	-11815
▁accommodation	-11816
▁confrontation	-11817
▁investigative	-11818
▁patentability	-11819
▁professionals	-11820
▁Implementation	-11821
▁contradictions	-11822
▁discriminatory	-11823
▁liberalisation	-11824
▁reorganization	-11825
▁sustainability	-11826
4(	-11827
9(	-11828
OW	-11829
SS	-11830
Wh	-11831
za	-11832
EDT	-11833
Fin	-11834
abo	-11835
ahu	-11836
imb	-11837
log	-11838
oms	-11839
rez	-11840
rtt	-11841
▁33	-11842
▁39	-11843
▁49	-11844
▁55	-11845
▁61	-11846
▁92	-11847
▁IA	-11848
▁IS	-11849
▁IU	-11850
▁LE	-11851
▁Na	-11852
▁Ut	-11853
▁ru	-11854
/96,	-11855
94).	-11856
Dell	-11857
Enca	-11858
IONS	-11859
atem	-11860
cale	-11861
chet	-11862
cona	-11863
conf	-11864
dist	-11865
haul	-11866
iety	-11867
lets	-11868
nero	-11869
omed	-11870
onym	-11871
tary	-11872
tive	-11873
ylen	-11874
▁Adv	-11875
▁Cus	-11876
▁Did	-11877
▁Dif	-11878
▁EIS	-11879
▁Env	-11880
▁God	-11881
▁Lat	-11882
▁Mel	-11883
▁Pex	-11884
▁SCH	-11885
▁SGS	-11886
▁Sol	-11887
▁TEN	-11888
▁Ten	-11889
▁Ult	-11890
▁dog	-11891
▁egg	-11892
▁fru	-11893
▁ham	-11894
▁ike	-11895
▁lia	-11896
▁seg	-11897
▁sle	-11898
▁tem	-11899
▁web	-11900
.1944	-11901
/2000	-11902
4-019	-11903
State	-11904
alaki	-11905
backs	-11906
ceive	-11907
eUing	-11908
eland	-11909
erity	-11910
estag	-11911
irker	-11912
iture	-11913
ivate	-11914
nchez	-11915
ocrat	-11916
ogene	-11917
osses	-11918
puter	-11919
stant	-11920
tempi	-11921
teneg	-11922
émicy	-11923
▁1979	-11924
▁1984	-11925
▁2007	-11926
▁Carr	-11927
▁Chad	-11928
▁Dask	-11929
▁Hugh	-11930
▁Link	-11931
▁Mand	-11932
▁Oddy	-11933
▁Poll	-11934
▁QUES	-11935
▁Sund	-11936
▁Urug	-11937
▁aust	-11938
▁barb	-11939
▁horr	-11940
▁lobb	-11941
▁love	-11942
▁miss	-11943
▁nice	-11944
▁plea	-11945
▁soya	-11946
▁tees	-11947
▁tied	-11948
▁vers	-11949
▁wors	-11950
.02.19	-11951
.08.19	-11952
Ancona	-11953
aining	-11954
anyahu	-11955
assion	-11956
egular	-11957
ertime	-11958
irming	-11959
ocated	-11960
owards	-11961
pected	-11962
rators	-11963
taking	-11964
▁(1972	-11965
▁Cunha	-11966
▁Danes	-11967
▁Essen	-11968
▁Evans	-11969
▁Eylen	-11970
▁Large	-11971
▁Lithu	-11972
▁Louis	-11973
▁Rhine	-11974
▁Wales	-11975
▁alert	-11976
▁chose	-11977
▁drags	-11978
▁flags	-11979
▁fuels	-11980
▁grasp	-11981
▁grips	-11982
▁immen	-11983
▁kitch	-11984
▁maxim	-11985
▁nomic	-11986
▁overl	-11987
▁phone	-11988
▁posal	-11989
▁recyc	-11990
▁seals	-11991
▁seize	-11992
▁sugar	-11993
-1987).	-11994
fficial	-11995
general	-11996
lusions	-11997
raction	-11998
stimate	-11999
working	-12000
▁1995).	-12001
▁Berger	-12002
▁Chirac	-12003
▁Either	-12004
▁Explan	-12005
▁Florio	-12006
▁Gallou	-12007
▁Guatem	-12008
▁Modern	-12009
▁Newens	-12010
▁Pirker	-12011
▁Referr	-12012
▁borrow	-12013
▁delete	-12014
▁derive	-12015
▁fabric	-12016
▁finger	-12017
▁hidden	-12018
▁hinder	-12019
▁interl	-12020
▁lapses	-12021
▁notify	-12022
▁pretty	-12023
▁pushed	-12024
▁rhetor	-12025
▁slogan	-12026
▁speedy	-12027
▁square	-12028
▁tended	-12029
▁troubl	-12030
▁wasted	-12031
Encausse	-12032
asonable	-12033
decision	-12034
lessness	-12035
▁Amongst	-12036
▁Applied	-12037
▁Between	-12038
▁Carnero	-12039
▁Contrib	-12040
▁Elliott	-12041
▁Hamburg	-12042
▁History	-12043
▁Karaman	-12044
▁McNally	-12045
▁Recital	-12046
▁Romania	-12047
▁Uruguay	-12048
▁adhered	-12049
▁annexed	-12050
▁annexes	-12051
▁anxiety	-12052
▁anybody	-12053
▁college	-12054
▁damaged	-12055
▁entails	-12056
▁haulage	-12057
▁hectare	-12058
▁holders	-12059
▁inconce	-12060
▁insofar	-12061
▁inteneg	-12062
▁isolate	-12063
▁lifting	-12064
▁ministr	-12065
▁multipl	-12066
▁paedoph	-12067
▁railway	-12068
▁reacted	-12069
▁servant	-12070
▁swiftly	-12071
▁taxfree	-12072
▁thereof	-12073
Christian	-12074
rttemberg	-12075
▁(1984-19	-12076
▁Progress	-12077
▁Slovakia	-12078
▁Whatever	-12079
▁Willockx	-12080
▁clearing	-12081
▁delegate	-12082
▁dividing	-12083
▁entities	-12084
▁extrater	-12085
▁graduate	-12086
▁hardware	-12087
▁implicit	-12088
▁incoming	-12089
▁ionizing	-12090
▁labelUng	-12091
▁monitors	-12092
▁morality	-12093
▁patented	-12094
▁precious	-12095
▁receipts	-12096
▁restored	-12097
▁scenario	-12098
▁steadily	-12099
▁symbolic	-12100
▁widening	-12101
Democratic	-12102
ustainable	-12103
▁(1977-198	-12104
▁1999/2000	-12105
▁Assistant	-12106
▁Bundestag	-12107
▁Daskalaki	-12108
▁Netanyahu	-12109
▁concludes	-12110
▁enhancing	-12111
▁illegally	-12112
▁interview	-12113
▁populated	-12114
▁preceding	-12115
▁preserved	-12116
▁radically	-12117
▁reasoning	-12118
▁recruited	-12119
▁sceptical	-12120
▁similarly	-12121
▁stressing	-12122
▁strongest	-12123
▁subscribe	-12124
▁telephony	-12125
▁witnessed	-12126
established	-12127
▁24.07.1984	-12128
▁Copenhagen	-12129
▁Senegalese	-12130
▁automobile	-12131
▁controller	-12132
▁dimensions	-12133
▁directions	-12134
▁disturbing	-12135
▁experiment	-12136
▁extinction	-12137
▁impressive	-12138
▁indicating	-12139
▁instituted	-12140
▁literature	-12141
▁parameters	-12142
▁perception	-12143
▁presumably	-12144
▁prosecutor	-12145
▁punishment	-12146
▁purchasing	-12147
▁supporters	-12148
▁telecommun	-12149
▁undeniable	-12150
▁yourselves	-12151
▁Alternative	-12152
▁Parliaments	-12153
▁coexistence	-12154
▁constituent	-12155
▁continental	-12156
▁devastating	-12157
▁endorsement	-12158
▁foreseeable	-12159
▁imagination	-12160
▁precautions	-12161
▁regrettably	-12162
▁sympathetic	-12163
▁transformed	-12164
▁enthusiastic	-12165
▁fluctuations	-12166
▁installation	-12167
▁uncontrolled	-12168
▁undemocratic	-12169
▁Confederation	-12170
▁Transcaucasia	-12171
▁deteriorating	-12172
▁disproportion	-12173
▁philosophical	-12174
▁preconditions	-12175
▁responsibiUty	-12176
▁sophisticated	-12177
▁comprehensible	-12178
▁conditionality	-12179
▁differentiated	-12180
▁organizational	-12181
-9	-12182
36	-12183
77	-12184
82	-12185
BU	-12186
nd	-12187
po	-12188
rt	-12189
/19	-12190
ART	-12191
BER	-12192
EMP	-12193
INE	-12194
IST	-12195
LEC	-12196
aid	-12197
arn	-12198
era	-12199
gyz	-12200
hem	-12201
hne	-12202
iek	-12203
olk	-12204
try	-12205
uce	-12206
yle	-12207
▁(2	-12208
▁-(	-12209
▁54	-12210
▁64	-12211
▁93	-12212
▁AR	-12213
▁Cr	-12214
▁DA	-12215
▁MP	-12216
▁Oj	-12217
2912	-12218
This	-12219
adly	-12220
aked	-12221
arag	-12222
card	-12223
care	-12224
eset	-12225
furt	-12226
ghan	-12227
itro	-12228
otic	-12229
rank	-12230
reas	-12231
rgyz	-12232
role	-12233
stat	-12234
uaUy	-12235
▁103	-12236
▁13,	-12237
▁Bad	-12238
▁Bah	-12239
▁Ced	-12240
▁Dim	-12241
▁ESF	-12242
▁Ext	-12243
▁Her	-12244
▁Inn	-12245
▁Occ	-12246
▁Rap	-12247
▁STO	-12248
▁Sur	-12249
▁Ust	-12250
▁Wim	-12251
▁bog	-12252
▁cot	-12253
▁fro	-12254
▁fur	-12255
▁jun	-12256
▁lin	-12257
▁odd	-12258
▁rum	-12259
-2000	-12260
4-014	-12261
Union	-12262
after	-12263
ailed	-12264
asmus	-12265
erned	-12266
ester	-12267
fraud	-12268
icher	-12269
marck	-12270
sided	-12271
▁1975	-12272
▁1985	-12273
▁5.30	-12274
▁9.00	-12275
▁ANNE	-12276
▁Coal	-12277
▁Cold	-12278
▁Coun	-12279
▁Fran	-12280
▁Gros	-12281
▁Hind	-12282
▁NCTS	-12283
▁Paas	-12284
▁Piqu	-12285
▁STAT	-12286
▁Summ	-12287
▁TEMP	-12288
▁Task	-12289
▁ally	-12290
▁culp	-12291
▁diff	-12292
▁fuUy	-12293
▁gath	-12294
▁grad	-12295
▁grey	-12296
▁lend	-12297
▁mamm	-12298
▁mast	-12299
▁rain	-12300
▁sequ	-12301
▁stab	-12302
▁ster	-12303
▁suic	-12304
▁unav	-12305
▁wife	-12306
(96)03	-12307
.05.19	-12308
4-1999	-12309
aarder	-12310
andest	-12311
ertion	-12312
ionale	-12313
obacco	-12314
origin	-12315
oxenia	-12316
public	-12317
sement	-12318
tering	-12319
▁(1996	-12320
▁Advis	-12321
▁Escud	-12322
▁Langu	-12323
▁Lower	-12324
▁Ojala	-12325
▁Yemen	-12326
▁abide	-12327
▁bench	-12328
▁bills	-12329
▁capac	-12330
▁exceU	-12331
▁flood	-12332
▁grass	-12333
▁hydro	-12334
▁ignor	-12335
▁larly	-12336
▁naive	-12337
▁prize	-12338
▁reint	-12339
▁retro	-12340
▁roots	-12341
▁scour	-12342
▁tends	-12343
-1991).	-12344
Euratom	-12345
alities	-12346
bersome	-12347
ilitary	-12348
version	-12349
▁Afghan	-12350
▁Crimin	-12351
▁Employ	-12352
▁Groups	-12353
▁Kyrgyz	-12354
▁Letter	-12355
▁Montre	-12356
▁Needle	-12357
▁Orders	-12358
▁Powers	-12359
▁Proble	-12360
▁abused	-12361
▁advent	-12362
▁ambigu	-12363
▁bridge	-12364
▁church	-12365
▁corner	-12366
▁corrid	-12367
▁costly	-12368
▁eating	-12369
▁fertil	-12370
▁frauds	-12371
▁impris	-12372
▁metres	-12373
▁missed	-12374
▁native	-12375
▁perpet	-12376
▁pertin	-12377
▁salary	-12378
▁starts	-12379
▁thirds	-12380
▁unders	-12381
▁unduly	-12382
▁voices	-12383
cultural	-12384
essional	-12385
paration	-12386
sessions	-12387
untarily	-12388
émicycle	-12389
▁Bearing	-12390
▁Carnets	-12391
▁Fishing	-12392
▁Haarder	-12393
▁Hindley	-12394
▁Holland	-12395
▁Offices	-12396
▁Rovsing	-12397
▁Washing	-12398
▁airline	-12399
▁arguing	-12400
▁broaden	-12401
▁cancell	-12402
▁command	-12403
▁earthqu	-12404
▁evasion	-12405
▁exagger	-12406
▁forgive	-12407
▁honesty	-12408
▁hopeful	-12409
▁hygiene	-12410
▁imposes	-12411
▁infring	-12412
▁notable	-12413
▁outlook	-12414
▁outrage	-12415
▁painful	-12416
▁reactor	-12417
▁returns	-12418
▁rulings	-12419
▁scrutin	-12420
▁strikes	-12421
continued	-12422
intensive	-12423
sensitive	-12424
▁(1974-19	-12425
▁Biotechn	-12426
▁Chairmen	-12427
▁Cultural	-12428
▁Cypriots	-12429
▁Forestry	-12430
▁Instance	-12431
▁Nordmann	-12432
▁afforded	-12433
▁agreeing	-12434
▁allocate	-12435
▁backward	-12436
▁brochure	-12437
▁clandest	-12438
▁dealings	-12439
▁decoders	-12440
▁denounce	-12441
▁destabil	-12442
▁discoura	-12443
▁energies	-12444
▁expropri	-12445
▁gathered	-12446
▁inegular	-12447
▁labeUing	-12448
▁prevents	-12449
▁readings	-12450
▁referral	-12451
▁revising	-12452
▁sickness	-12453
▁spectrum	-12454
▁superflu	-12455
▁tractors	-12456
▁unlawful	-12457
government	-12458
rapporteur	-12459
▁Australia	-12460
▁Stenmarck	-12461
▁Stockmann	-12462
▁contacted	-12463
▁envisages	-12464
▁eradicate	-12465
▁inspector	-12466
▁judgments	-12467
▁libraries	-12468
▁loopholes	-12469
▁massacres	-12470
▁medicinal	-12471
▁migration	-12472
▁ombudsman	-12473
▁ombudsmen	-12474
▁ownership	-12475
▁passports	-12476
▁reluctant	-12477
▁reminding	-12478
▁restraint	-12479
▁sacrifice	-12480
▁vegetable	-12481
▁Petersberg	-12482
▁Resolution	-12483
▁Technology	-12484
▁Ultimately	-12485
▁Washington	-12486
▁accurately	-12487
▁analytical	-12488
▁attendance	-12489
▁capacities	-12490
▁cumbersome	-12491
▁dependence	-12492
▁designated	-12493
▁discharged	-12494
▁documented	-12495
▁fragmented	-12496
▁fulfilling	-12497
▁harassment	-12498
▁insecurity	-12499
▁instructed	-12500
▁memorandum	-12501
▁oppression	-12502
▁pesticides	-12503
▁precaution	-12504
▁shipowners	-12505
▁summertime	-12506
▁tightening	-12507
▁underlined	-12508
▁Resolutions	-12509
▁accountable	-12510
▁cofinancing	-12511
▁constituted	-12512
▁facilitated	-12513
▁farreaching	-12514
▁intolerance	-12515
▁journalists	-12516
▁proportions	-12517
▁reservation	-12518
▁safeguarded	-12519
▁signatories	-12520
▁simplifying	-12521
▁subordinate	-12522
▁appointments	-12523
▁computerised	-12524
▁destinations	-12525
▁indefinitely	-12526
▁intenegional	-12527
▁interpreting	-12528
▁irregularity	-12529
▁postgraduate	-12530
▁prostitution	-12531
▁thirdcountry	-12532
▁consolidating	-12533
▁deterioration	-12534
▁exceptionally	-12535
▁inconceivable	-12536
▁methodologies	-12537
▁transformation	-12538
▁acknowledgement	-12539
.•	-12540
46	-12541
7)	-12542
76	-12543
Ag	-12544
GR	-12545
Mr	-12546
NA	-12547
OP	-12548
SW	-12549
Sh	-12550
Te	-12551
UC	-12552
UM	-12553
ae	-12554
kt	-12555
mo	-12556
ng	-12557
sk	-12558
ADO	-12559
ANT	-12560
IDS	-12561
Kar	-12562
SEC	-12563
TIN	-12564
VER	-12565
col	-12566
den	-12567
ela	-12568
fav	-12569
fia	-12570
gna	-12571
haz	-12572
idi	-12573
iry	-12574
obs	-12575
opy	-12576
pec	-12577
qey	-12578
rer	-12579
sto	-12580
ude	-12581
vez	-12582
yyn	-12583
zil	-12584
▁00	-12585
▁76	-12586
▁BA	-12587
▁Er	-12588
▁Fé	-12589
▁GM	-12590
▁Jo	-12591
▁Rw	-12592
▁Ve	-12593
▁ax	-12594
(2),	-12595
IEDN	-12596
PTER	-12597
atri	-12598
bach	-12599
cher	-12600
cost	-12601
eded	-12602
exam	-12603
fuUy	-12604
hall	-12605
ilia	-12606
inte	-12607
lude	-12608
norm	-12609
oded	-12610
ourl	-12611
uate	-12612
udge	-12613
évez	-12614
▁1.4	-12615
▁20,	-12616
▁92/	-12617
▁95/	-12618
▁Det	-12619
▁Far	-12620
▁Fil	-12621
▁Gas	-12622
▁Had	-12623
▁Mur	-12624
▁POL	-12625
▁PRI	-12626
▁Vec	-12627
▁bid	-12628
▁coc	-12629
▁deg	-12630
▁ecu	-12631
▁lhe	-12632
▁ost	-12633
▁ted	-12634
▁unh	-12635
▁wal	-12636
Amato	-12637
CTION	-12638
LECAT	-12639
anmar	-12640
asive	-12641
cated	-12642
class	-12643
domin	-12644
ensch	-12645
fened	-12646
hrkop	-12647
human	-12648
icaUy	-12649
icacy	-12650
ickel	-12651
irmed	-12652
mines	-12653
modal	-12654
ostic	-12655
rimon	-12656
stasy	-12657
▁....	-12658
▁1981	-12659
▁2002	-12660
▁APPL	-12661
▁Adam	-12662
▁Alle	-12663
▁Area	-12664
▁Bonn	-12665
▁Dury	-12666
▁Giov	-12667
▁Graz	-12668
▁Have	-12669
▁IAEA	-12670
▁Karl	-12671
▁Lama	-12672
▁Mich	-12673
▁Paul	-12674
▁Pers	-12675
▁Prom	-12676
▁Ryyn	-12677
▁STCW	-12678
▁TACs	-12679
▁Writ	-12680
▁agri	-12681
▁baby	-12682
▁blue	-12683
▁bone	-12684
▁coup	-12685
▁eigh	-12686
▁exac	-12687
▁foll	-12688
▁inse	-12689
▁male	-12690
▁obey	-12691
▁pron	-12692
▁prud	-12693
▁pure	-12694
▁rale	-12695
▁shel	-12696
▁tive	-12697
▁unqu	-12698
common	-12699
embers	-12700
etical	-12701
itious	-12702
lining	-12703
pelled	-12704
social	-12705
uscott	-12706
utable	-12707
waiger	-12708
▁(1971	-12709
▁Brian	-12710
▁Faced	-12711
▁Major	-12712
▁Novel	-12713
▁Panel	-12714
▁Peter	-12715
▁Royal	-12716
▁Syria	-12717
▁Vries	-12718
▁arena	-12719
▁birds	-12720
▁caUed	-12721
▁empow	-12722
▁impor	-12723
▁lacks	-12724
▁lapse	-12725
▁march	-12726
▁named	-12727
▁remin	-12728
▁seeds	-12729
▁spare	-12730
▁spons	-12731
▁storm	-12732
▁stret	-12733
▁sympt	-12734
▁taxed	-12735
▁tiger	-12736
▁unite	-12737
▁upset	-12738
▁walls	-12739
▁weigh	-12740
amental	-12741
atholic	-12742
ictions	-12743
itology	-12744
listing	-12745
ounding	-12746
ovation	-12747
pletion	-12748
quently	-12749
ritical	-12750
▁Ariane	-12751
▁Bruton	-12752
▁CLECAT	-12753
▁Carnet	-12754
▁Cigare	-12755
▁Consid	-12756
▁Ecofin	-12757
▁Future	-12758
▁Impact	-12759
▁MARTIN	-12760
▁Motion	-12761
▁Muslim	-12762
▁Number	-12763
▁Piquer	-12764
▁Polish	-12765
▁Recent	-12766
▁Robles	-12767
▁Termin	-12768
▁Todini	-12769
▁Vecchi	-12770
▁adjour	-12771
▁brutal	-12772
▁dating	-12773
▁devise	-12774
▁geopol	-12775
▁headed	-12776
▁hypoth	-12777
▁imagin	-12778
▁levies	-12779
▁prerog	-12780
▁season	-12781
▁shadow	-12782
▁thrown	-12783
▁tomato	-12784
▁weaken	-12785
children	-12786
ignation	-12787
orations	-12788
petitive	-12789
undering	-12790
▁Bahrain	-12791
▁CHAPTER	-12792
▁Cassidy	-12793
▁Country	-12794
▁Danesin	-12795
▁EURATOM	-12796
▁Estévez	-12797
▁Farmers	-12798
▁Fifteen	-12799
▁Greater	-12800
▁Myanmar	-12801
▁Pollack	-12802
▁Stewart	-12803
▁Supreme	-12804
▁amnesty	-12805
▁appeals	-12806
▁catches	-12807
▁cocaine	-12808
▁damages	-12809
▁defines	-12810
▁discred	-12811
▁divorce	-12812
▁energet	-12813
▁exerted	-12814
▁obliges	-12815
▁redress	-12816
▁reminds	-12817
▁rethink	-12818
▁shaping	-12819
▁stamped	-12820
▁surface	-12821
▁tempted	-12822
▁thereto	-12823
▁unavoid	-12824
▁undergo	-12825
▁utterly	-12826
▁wrongly	-12827
programme	-12828
▁Alleanza	-12829
▁Bontempi	-12830
▁Computer	-12831
▁Mercosur	-12832
▁Nassauer	-12833
▁Planning	-12834
▁Priority	-12835
▁QUESTION	-12836
▁airspace	-12837
▁branches	-12838
▁breaking	-12839
▁classify	-12840
▁delivery	-12841
▁dictator	-12842
▁doubtful	-12843
▁eastward	-12844
▁flatrate	-12845
▁holdings	-12846
▁invoiced	-12847
▁marketed	-12848
▁nonsense	-12849
▁perverse	-12850
▁predomin	-12851
▁printing	-12852
▁releases	-12853
▁rhetoric	-12854
▁smoothly	-12855
▁stepping	-12856
▁updating	-12857
cellaneous	-12858
ectiveness	-12859
productive	-12860
▁Algerians	-12861
▁Authority	-12862
▁Colombian	-12863
▁Establish	-12864
▁Frankfurt	-12865
▁Guatemala	-12866
▁Karamanou	-12867
▁Lithuania	-12868
▁Nazionale	-12869
▁Schwaiger	-12870
▁Secondary	-12871
▁accompany	-12872
▁allowance	-12873
▁appalling	-12874
▁austerity	-12875
▁beautiful	-12876
▁blackmail	-12877
▁borrowing	-12878
▁complying	-12879
▁displayed	-12880
▁embassies	-12881
▁hierarchy	-12882
▁hospitals	-12883
▁illnesses	-12884
▁imbalance	-12885
▁invisible	-12886
▁logically	-12887
▁offenders	-12888
▁omissions	-12889
▁parUament	-12890
▁prioritiz	-12891
▁realities	-12892
▁recovered	-12893
▁summarize	-12894
▁targeting	-12895
▁therapies	-12896
▁weakening	-12897
▁01.01.1995	-12898
▁Immunities	-12899
▁Indonesian	-12900
▁Pariiament	-12901
▁Rapporteur	-12902
▁Schleicher	-12903
▁Television	-12904
▁accusation	-12905
▁allocating	-12906
▁beekeeping	-12907
▁capitalism	-12908
▁concluding	-12909
▁electorate	-12910
▁elementary	-12911
▁federation	-12912
▁incredible	-12913
▁ministries	-12914
▁networking	-12915
▁occasional	-12916
▁overcoming	-12917
▁politician	-12918
▁questioned	-12919
▁separation	-12920
▁trademarks	-12921
▁uniformity	-12922
▁Afghanistan	-12923
▁COMMUNITIES	-12924
▁Credentials	-12925
▁Eurocontrol	-12926
▁ascertained	-12927
▁centralized	-12928
▁clandestine	-12929
▁compliments	-12930
▁conflicting	-12931
▁consultants	-12932
▁countryside	-12933
▁drastically	-12934
▁harmonizing	-12935
▁intensified	-12936
▁meaningless	-12937
▁predecessor	-12938
▁presupposes	-12939
▁superfluous	-12940
▁unambiguous	-12941
▁Explanations	-12942
▁amphetamines	-12943
▁consolidated	-12944
▁deficiencies	-12945
▁disciplinary	-12946
▁ecologically	-12947
▁imprisonment	-12948
▁inconsistent	-12949
▁inefficiency	-12950
▁multilingual	-12951
▁overcapacity	-12952
▁presidencies	-12953
▁presidential	-12954
▁subparagraph	-12955
▁unreasonable	-12956
▁appropriately	-12957
▁congratulated	-12958
▁denominations	-12959
▁disseminating	-12960
▁mismanagement	-12961
▁misunderstood	-12962
▁prerequisites	-12963
▁proliferation	-12964
▁subcommittees	-12965
▁uncertainties	-12966
▁characteristic	-12967
▁contraventions	-12968
▁industrialized	-12969
▁interpretations	-12970
▁straightforward	-12971
,'	-12972
71	-12973
CP	-12974
CS	-12975
Cl	-12976
DN	-12977
Gu	-12978
IB	-12979
LG	-12980
LO	-12981
di	-12982
ym	-12983
ét	-12984
.2.	-12985
.96	-12986
113	-12987
614	-12988
ANC	-12989
IGH	-12990
MAN	-12991
ORK	-12992
REG	-12993
RRE	-12994
UTI	-12995
Urb	-12996
aks	-12997
asa	-12998
due	-12999
eré	-13000
exp	-13001
roc	-13002
rub	-13003
van	-13004
zis	-13005
▁(0	-13006
▁2:	-13007
▁56	-13008
▁59	-13009
▁77	-13010
▁OT	-13011
▁Pé	-13012
▁Ri	-13013
▁SW	-13014
▁ot	-13015
▁sn	-13016
/96-	-13017
Club	-13018
DELG	-13019
Kall	-13020
LEIC	-13021
bish	-13022
drom	-13023
east	-13024
fici	-13025
gone	-13026
ifts	-13027
illa	-13028
made	-13029
main	-13030
step	-13031
uded	-13032
word	-13033
▁10%	-13034
▁13.	-13035
▁19,	-13036
▁23,	-13037
▁4-4	-13038
▁750	-13039
▁Aid	-13040
▁Ald	-13041
▁Bot	-13042
▁Dom	-13043
▁Fig	-13044
▁Khm	-13045
▁Pop	-13046
▁REC	-13047
▁Six	-13048
▁Ven	-13049
▁Web	-13050
▁cam	-13051
▁cry	-13052
▁dry	-13053
▁lax	-13054
▁neo	-13055
▁pit	-13056
▁son	-13057
▁unp	-13058
-1996	-13059
4-020	-13060
acket	-13061
arela	-13062
arism	-13063
atine	-13064
aware	-13065
cture	-13066
drome	-13067
enues	-13068
eping	-13069
fined	-13070
hable	-13071
imbur	-13072
ingly	-13073
isual	-13074
itate	-13075
lager	-13076
metic	-13077
pless	-13078
terpr	-13079
treat	-13080
uracy	-13081
verde	-13082
▁ANSW	-13083
▁Alps	-13084
▁CENT	-13085
▁Card	-13086
▁Case	-13087
▁Club	-13088
▁Craw	-13089
▁Cres	-13090
▁ELEC	-13091
▁GUTI	-13092
▁Hamm	-13093
▁Home	-13094
▁Hong	-13095
▁INST	-13096
▁Init	-13097
▁Kong	-13098
▁List	-13099
▁Pass	-13100
▁Rack	-13101
▁Road	-13102
▁Supp	-13103
▁WORK	-13104
▁anom	-13105
▁appU	-13106
▁boat	-13107
▁civU	-13108
▁dare	-13109
▁deaf	-13110
▁enor	-13111
▁fant	-13112
▁feet	-13113
▁flaw	-13114
▁gulf	-13115
▁inac	-13116
▁levy	-13117
▁loan	-13118
▁vacc	-13119
.04.19	-13120
.1997.	-13121
Sharry	-13122
amanca	-13123
except	-13124
iances	-13125
ivided	-13126
levant	-13127
lusive	-13128
ocally	-13129
ogenic	-13130
ortion	-13131
please	-13132
zation	-13133
▁(1970	-13134
▁Based	-13135
▁Commu	-13136
▁Dimit	-13137
▁Disse	-13138
▁Draft	-13139
▁Ewing	-13140
▁Goods	-13141
▁Matik	-13142
▁Occup	-13143
▁Ocean	-13144
▁SAFET	-13145
▁Steel	-13146
▁Weeks	-13147
▁Works	-13148
▁abund	-13149
▁assem	-13150
▁deval	-13151
▁embra	-13152
▁ences	-13153
▁enemy	-13154
▁feeds	-13155
▁fever	-13156
▁fifty	-13157
▁flout	-13158
▁heter	-13159
▁index	-13160
▁intim	-13161
▁loyal	-13162
▁lunch	-13163
▁remun	-13164
▁rough	-13165
▁secur	-13166
▁theft	-13167
▁visas	-13168
-1993).	-13169
DELGADO	-13170
LEICHER	-13171
ORITIES	-13172
leaving	-13173
liberal	-13174
orating	-13175
raining	-13176
▁Brazil	-13177
▁Church	-13178
▁Colino	-13179
▁Editor	-13180
▁Ethiop	-13181
▁Frisch	-13182
▁Konrad	-13183
▁Latvia	-13184
▁Mosiek	-13185
▁Negoti	-13186
▁Nicole	-13187
▁Olsson	-13188
▁REPORT	-13189
▁TEMPUS	-13190
▁butter	-13191
▁cotton	-13192
▁dollar	-13193
▁driver	-13194
▁epidem	-13195
▁format	-13196
▁fright	-13197
▁fronts	-13198
▁frozen	-13199
▁golden	-13200
▁houses	-13201
▁inspir	-13202
▁lament	-13203
▁levied	-13204
▁lifted	-13205
▁master	-13206
▁noting	-13207
▁poison	-13208
▁taught	-13209
▁themes	-13210
▁tional	-13211
▁tunnel	-13212
▁vigour	-13213
▁wholly	-13214
▁yearly	-13215
ethylene	-13216
fficking	-13217
iculture	-13218
ogeneous	-13219
▁90/220/	-13220
▁Century	-13221
▁Crawley	-13222
▁Fifthly	-13223
▁Flemish	-13224
▁Improve	-13225
▁Iranian	-13226
▁Manager	-13227
▁Nagorno	-13228
▁Overall	-13229
▁Partner	-13230
▁Schuman	-13231
▁apprent	-13232
▁aroused	-13233
▁authent	-13234
▁barrier	-13235
▁comfort	-13236
▁costing	-13237
▁demagog	-13238
▁devices	-13239
▁diploma	-13240
▁disrupt	-13241
▁doubled	-13242
▁dropped	-13243
▁explore	-13244
▁generic	-13245
▁holiday	-13246
▁hostage	-13247
▁kitchen	-13248
▁library	-13249
▁lobbies	-13250
▁married	-13251
▁obscure	-13252
▁occuned	-13253
▁onwards	-13254
▁optimum	-13255
▁plainly	-13256
▁pressed	-13257
▁primacy	-13258
▁quicker	-13259
▁rectify	-13260
▁reduces	-13261
▁relying	-13262
▁scourge	-13263
▁serving	-13264
▁somehow	-13265
▁useless	-13266
▁weather	-13267
/96-96/02	-13268
icultural	-13269
istically	-13270
ourlanges	-13271
rehensive	-13272
uccessful	-13273
▁Belgrade	-13274
▁Escudero	-13275
▁Giovanni	-13276
▁Medicine	-13277
▁Meditena	-13278
▁Truscott	-13279
▁Valverde	-13280
▁accessed	-13281
▁accuracy	-13282
▁balances	-13283
▁blockade	-13284
▁boosting	-13285
▁catalyst	-13286
▁clinical	-13287
▁colonial	-13288
▁conveyed	-13289
▁deshable	-13290
▁drinking	-13291
▁dynamism	-13292
▁exceUent	-13293
▁gelatine	-13294
▁hauliers	-13295
▁homeless	-13296
▁imminent	-13297
▁impunity	-13298
▁incompet	-13299
▁opportun	-13300
▁optimism	-13301
▁overhaul	-13302
▁packages	-13303
▁parental	-13304
▁protests	-13305
▁province	-13306
▁religion	-13307
▁resolute	-13308
▁reversed	-13309
▁schedule	-13310
▁situated	-13311
▁smuggled	-13312
▁supplier	-13313
▁tropical	-13314
▁underpin	-13315
riminatory	-13316
stitutions	-13317
▁Argentina	-13318
▁ELECTIONS	-13319
▁Salamanca	-13320
▁Standards	-13321
▁adjourned	-13322
▁advancing	-13323
▁allegedly	-13324
▁amounting	-13325
▁benefited	-13326
▁confusing	-13327
▁curricula	-13328
▁directory	-13329
▁distorted	-13330
▁dominated	-13331
▁emotional	-13332
▁entertain	-13333
▁finishing	-13334
▁formation	-13335
▁fortunate	-13336
▁household	-13337
▁intensify	-13338
▁landmines	-13339
▁literally	-13340
▁paralysis	-13341
▁prohibits	-13342
▁purchased	-13343
▁repeating	-13344
▁selecting	-13345
▁shortfall	-13346
▁smugglers	-13347
▁technique	-13348
▁workshops	-13349
missibility	-13350
▁Activities	-13351
▁Experience	-13352
▁Forwarding	-13353
▁Objectives	-13354
▁SCHLEICHER	-13355
▁affordable	-13356
▁aggressive	-13357
▁consequent	-13358
▁enormously	-13359
▁federalist	-13360
▁guarantors	-13361
▁inspectors	-13362
▁institutes	-13363
▁internally	-13364
▁legislator	-13365
▁profoundly	-13366
▁propaganda	-13367
▁reiterated	-13368
▁supposedly	-13369
▁unexpected	-13370
▁vigorously	-13371
▁volunteers	-13372
▁arbitration	-13373
▁compensated	-13374
▁definitions	-13375
▁disseminate	-13376
▁generalized	-13377
▁illustrates	-13378
▁indignation	-13379
▁inefficient	-13380
▁intelligent	-13381
▁interrupted	-13382
▁pollination	-13383
▁predictable	-13384
▁specialists	-13385
▁subscribers	-13386
▁transporter	-13387
▁unavoidable	-13388
▁voluntarily	-13389
▁Associations	-13390
▁Humanitarian	-13391
▁Occupational	-13392
▁Vicechairman	-13393
▁architecture	-13394
▁contaminated	-13395
▁entitlements	-13396
▁highlighting	-13397
▁illustration	-13398
▁manufacturer	-13399
▁recommending	-13400
▁supplemented	-13401
▁thecommittee	-13402
▁transferring	-13403
▁Biotechnology	-13404
▁Dissemination	-13405
▁Participation	-13406
▁characterized	-13407
▁inegularities	-13408
▁infringements	-13409
▁manufacturing	-13410
▁psychological	-13411
▁stabilization	-13412
▁underestimate	-13413
▁unnecessarily	-13414
▁microorganisms	-13415
▁desertification	-13416
▁marginalization	-13417
';	-13418
,.	-13419
/4	-13420
42	-13421
48	-13422
86	-13423
Ad	-13424
If	-13425
OD	-13426
OK	-13427
Ro	-13428
Tr	-13429
.12	-13430
3),	-13431
94)	-13432
AST	-13433
Car	-13434
SEM	-13435
akl	-13436
aux	-13437
bec	-13438
cdy	-13439
cue	-13440
eal	-13441
elt	-13442
hil	-13443
iam	-13444
irs	-13445
lem	-13446
ohl	-13447
orp	-13448
phe	-13449
rou	-13450
sum	-13451
sur	-13452
ump	-13453
ums	-13454
▁03	-13455
▁72	-13456
▁AL	-13457
▁DM	-13458
▁FE	-13459
▁Hy	-13460
▁Ke	-13461
▁MO	-13462
▁Sk	-13463
▁iU	-13464
ALYS	-13465
FORM	-13466
ONTA	-13467
West	-13468
aled	-13469
aris	-13470
bett	-13471
case	-13472
emit	-13473
glas	-13474
grav	-13475
iani	-13476
iard	-13477
iner	-13478
inks	-13479
inth	-13480
keli	-13481
loro	-13482
nits	-13483
ondo	-13484
oski	-13485
such	-13486
tera	-13487
ulle	-13488
vity	-13489
▁14,	-13490
▁171	-13491
▁94/	-13492
▁Bod	-13493
▁Bol	-13494
▁EIB	-13495
▁HIV	-13496
▁IMO	-13497
▁Jew	-13498
▁Lib	-13499
▁Luc	-13500
▁MEM	-13501
▁Ren	-13502
▁Ret	-13503
▁Rom	-13504
▁Ser	-13505
▁Ull	-13506
▁fib	-13507
▁hun	-13508
▁hur	-13509
▁sin	-13510
▁tie	-13511
▁upp	-13512
-1995	-13513
Clark	-13514
Spain	-13515
ademy	-13516
adors	-13517
afran	-13518
ainen	-13519
anium	-13520
arest	-13521
dated	-13522
draft	-13523
elect	-13524
esive	-13525
etime	-13526
gyros	-13527
igers	-13528
ijing	-13529
inent	-13530
ktash	-13531
omass	-13532
owned	-13533
peace	-13534
pered	-13535
print	-13536
rafat	-13537
roupe	-13538
sight	-13539
trade	-13540
ustod	-13541
water	-13542
works	-13543
▁000.	-13544
▁1988	-13545
▁2001	-13546
▁AIDS	-13547
▁Anne	-13548
▁Anti	-13549
▁Bart	-13550
▁Blot	-13551
▁Bulg	-13552
▁CEDT	-13553
▁Flex	-13554
▁Hogg	-13555
▁Inte	-13556
▁Jose	-13557
▁Kakl	-13558
▁Keny	-13559
▁Kerr	-13560
▁MARK	-13561
▁Miss	-13562
▁Opin	-13563
▁Pino	-13564
▁Proc	-13565
▁Rich	-13566
▁Text	-13567
▁Unes	-13568
▁alph	-13569
▁bans	-13570
▁coff	-13571
▁cure	-13572
▁fals	-13573
▁fles	-13574
▁gift	-13575
▁glob	-13576
▁ings	-13577
▁leaf	-13578
▁liqu	-13579
▁mira	-13580
▁nuis	-13581
▁park	-13582
▁pull	-13583
▁rela	-13584
▁spar	-13585
▁succ	-13586
▁tbis	-13587
▁tens	-13588
▁thro	-13589
▁tiny	-13590
-96/00	-13591
ALYSIS	-13592
LATION	-13593
akyria	-13594
amanis	-13595
aragua	-13596
arting	-13597
artite	-13598
atical	-13599
enburg	-13600
ensity	-13601
erschi	-13602
ethnic	-13603
ewable	-13604
inging	-13605
jacket	-13606
normal	-13607
orated	-13608
others	-13609
person	-13610
thirds	-13611
▁1994-	-13612
▁1996:	-13613
▁2010.	-13614
▁ACTIV	-13615
▁Admit	-13616
▁Anton	-13617
▁Award	-13618
▁Baden	-13619
▁Bosch	-13620
▁Cairo	-13621
▁Elect	-13622
▁FONTA	-13623
▁Final	-13624
▁Féret	-13625
▁Gener	-13626
▁Leban	-13627
▁Niger	-13628
▁Press	-13629
▁TRADE	-13630
▁acute	-13631
▁aller	-13632
▁arrog	-13633
▁blank	-13634
▁champ	-13635
▁clash	-13636
▁corps	-13637
▁donor	-13638
▁focal	-13639
▁giant	-13640
▁graph	-13641
▁hypoc	-13642
▁loads	-13643
▁loses	-13644
▁miles	-13645
▁oilse	-13646
▁overn	-13647
▁pione	-13648
▁roles	-13649
▁sends	-13650
▁stone	-13651
▁straw	-13652
▁sumer	-13653
▁unfav	-13654
▁wards	-13655
Kallstr	-13656
afranca	-13657
chement	-13658
customs	-13659
emitism	-13660
endance	-13661
idation	-13662
ighting	-13663
ivation	-13664
ourably	-13665
reating	-13666
riculum	-13667
▁1992).	-13668
▁ANSWER	-13669
▁Access	-13670
▁Arafat	-13671
▁Bundes	-13672
▁Caucas	-13673
▁Denver	-13674
▁Hansen	-13675
▁Indian	-13676
▁Instru	-13677
▁League	-13678
▁Linder	-13679
▁Linkoh	-13680
▁Living	-13681
▁Philip	-13682
▁Police	-13683
▁Street	-13684
▁Ukrain	-13685
▁Varela	-13686
▁accede	-13687
▁aggrav	-13688
▁assass	-13689
▁attent	-13690
▁commem	-13691
▁cormor	-13692
▁crafts	-13693
▁custod	-13694
▁disbur	-13695
▁divide	-13696
▁hamper	-13697
▁legacy	-13698
▁liveli	-13699
▁miscon	-13700
▁mother	-13701
▁nickel	-13702
▁passes	-13703
▁pledge	-13704
▁pounds	-13705
▁reopen	-13706
▁richer	-13707
▁sheets	-13708
▁sooner	-13709
▁steady	-13710
▁suited	-13711
▁tained	-13712
▁titles	-13713
▁uncond	-13714
▁weaker	-13715
▁window	-13716
Karabakh	-13717
approved	-13718
assadors	-13719
atlantic	-13720
balanced	-13721
contract	-13722
ensation	-13723
igration	-13724
islation	-13725
rankoski	-13726
▁Annexes	-13727
▁Argyros	-13728
▁Beijing	-13729
▁Commons	-13730
▁Corbett	-13731
▁Distrib	-13732
▁Enterpr	-13733
▁Organic	-13734
▁Redondo	-13735
▁Summary	-13736
▁Trained	-13737
▁Whether	-13738
▁blatant	-13739
▁bureaux	-13740
▁complac	-13741
▁confisc	-13742
▁confuse	-13743
▁derives	-13744
▁dictate	-13745
▁differs	-13746
▁exceeds	-13747
▁filling	-13748
▁insists	-13749
▁landing	-13750
▁loading	-13751
▁mineral	-13752
▁objects	-13753
▁proving	-13754
▁rearing	-13755
▁reimbur	-13756
▁spectac	-13757
▁synergy	-13758
▁vacancy	-13759
akyriazis	-13760
ativeness	-13761
itenanean	-13762
▁Denktash	-13763
▁FONTAINE	-13764
▁Graziani	-13765
▁Pinochet	-13766
▁Products	-13767
▁Pursuant	-13768
▁Referral	-13769
▁Rothmans	-13770
▁audience	-13771
▁billions	-13772
▁cohesive	-13773
▁colonies	-13774
▁commonly	-13775
▁condemns	-13776
▁deletion	-13777
▁dispatch	-13778
▁editions	-13779
▁electron	-13780
▁endanger	-13781
▁exciting	-13782
▁flagrant	-13783
▁hospital	-13784
▁immunity	-13785
▁inconven	-13786
▁juncture	-13787
▁marriage	-13788
▁oriented	-13789
▁pleasant	-13790
▁practise	-13791
▁quarters	-13792
▁realised	-13793
▁soldiers	-13794
▁superior	-13795
▁thematic	-13796
▁treating	-13797
▁vigorous	-13798
▁visitors	-13799
chairwoman	-13800
enschlager	-13801
orestation	-13802
▁1994-1999	-13803
▁Accession	-13804
▁Addiction	-13805
▁Bulgarian	-13806
▁Decisions	-13807
▁Increased	-13808
▁MacSharry	-13809
▁Reference	-13810
▁Something	-13811
▁Statement	-13812
▁adversely	-13813
▁advisable	-13814
▁alliances	-13815
▁ambiguous	-13816
▁apologise	-13817
▁apologize	-13818
▁classical	-13819
▁corporate	-13820
▁criticise	-13821
▁deterrent	-13822
▁diagnosis	-13823
▁handicaps	-13824
▁infection	-13825
▁installed	-13826
▁justifies	-13827
▁liberties	-13828
▁mediation	-13829
▁observing	-13830
▁opportune	-13831
▁overnight	-13832
▁paramount	-13833
▁polluting	-13834
▁pregnancy	-13835
▁recycling	-13836
▁repayment	-13837
▁reviewing	-13838
▁surpluses	-13839
▁transpose	-13840
▁trialogue	-13841
▁typically	-13842
▁upgrading	-13843
▁wonderful	-13844
ternational	-13845
▁Bourlanges	-13846
▁Contraband	-13847
▁Curriculum	-13848
▁Kaklamanis	-13849
▁Matikainen	-13850
▁PRIORITIES	-13851
▁Salafranca	-13852
▁attempting	-13853
▁beekeepers	-13854
▁communitar	-13855
▁complained	-13856
▁comprising	-13857
▁conducting	-13858
▁derogation	-13859
▁earthquake	-13860
▁escalation	-13861
▁estimation	-13862
▁favourably	-13863
▁nationally	-13864
▁precarious	-13865
▁privileges	-13866
▁progressed	-13867
▁properties	-13868
▁quantified	-13869
▁resumption	-13870
▁securities	-13871
▁underlines	-13872
▁witnessing	-13873
▁Engineering	-13874
▁Operational	-13875
▁Scandinavia	-13876
▁Virrankoski	-13877
▁accelerated	-13878
▁accumulated	-13879
▁allocations	-13880
▁appreciates	-13881
▁comparisons	-13882
▁connections	-13883
▁constructed	-13884
▁contentious	-13885
▁convenience	-13886
▁desperately	-13887
▁destructive	-13888
▁entitlement	-13889
▁eradication	-13890
▁exaggerated	-13891
▁illustrated	-13892
▁intervening	-13893
▁jeopardized	-13894
▁legislators	-13895
▁observatory	-13896
▁permissible	-13897
▁personality	-13898
▁portability	-13899
▁reinforcing	-13900
▁restricting	-13901
▁specialised	-13902
▁understands	-13903
proliferation	-13904
▁Consultation	-13905
▁Papakyriazis	-13906
▁Particularly	-13907
▁Registration	-13908
▁commercially	-13909
▁endeavouring	-13910
▁geopolitical	-13911
▁laboratories	-13912
▁participates	-13913
▁prosecutions	-13914
▁questionable	-13915
▁selfemployed	-13916
▁additionality	-13917
▁administering	-13918
▁authorisation	-13919
▁contamination	-13920
▁insignificant	-13921
▁precautionary	-13922
▁proportionate	-13923
▁subscriptions	-13924
▁abovementioned	-13925
▁disintegration	-13926
▁intraCommunity	-13927
▁communitization	-13928
,,	-13929
.;	-13930
22	-13931
25	-13932
43	-13933
83	-13934
As	-13935
DG	-13936
Ex	-13937
IP	-13938
Is	-13939
Le	-13940
No	-13941
RA	-13942
Ua	-13943
uh	-13944
vi	-13945
(4)	-13946
(5)	-13947
/17	-13948
400	-13949
ACP	-13950
ENI	-13951
ESS	-13952
Ecu	-13953
For	-13954
IFE	-13955
OPO	-13956
URE	-13957
bek	-13958
bel	-13959
cil	-13960
des	-13961
ede	-13962
esh	-13963
ght	-13964
ien	-13965
lab	-13966
may	-13967
ois	-13968
pez	-13969
rak	-13970
ser	-13971
uel	-13972
unu	-13973
▁(4	-13974
▁3)	-13975
▁69	-13976
▁73	-13977
▁81	-13978
▁83	-13979
▁87	-13980
▁AA	-13981
▁AT	-13982
▁Ap	-13983
▁LA	-13984
▁NI	-13985
▁OR	-13986
▁SV	-13987
▁Us	-13988
▁Uz	-13989
▁ju	-13990
▁oU	-13991
/95)	-13992
Hons	-13993
UARY	-13994
ULOS	-13995
agon	-13996
appy	-13997
asse	-13998
bert	-13999
bery	-14000
bone	-14001
book	-14002
cuit	-14003
duty	-14004
egis	-14005
elux	-14006
erns	-14007
fash	-14008
hael	-14009
http	-14010
ials	-14011
ider	-14012
imal	-14013
irer	-14014
isan	-14015
laim	-14016
laus	-14017
llor	-14018
otro	-14019
pass	-14020
ronk	-14021
stam	-14022
uent	-14023
unge	-14024
week	-14025
­198	-14026
▁(1)	-14027
▁(3)	-14028
▁113	-14029
▁14.	-14030
▁16,	-14031
▁350	-14032
▁DNA	-14033
▁Dep	-14034
▁Dou	-14035
▁EMI	-14036
▁FIF	-14037
▁Fam	-14038
▁Gil	-14039
▁Har	-14040
▁IMF	-14041
▁Imb	-14042
▁Kyi	-14043
▁Lar	-14044
▁MON	-14045
▁NGO	-14046
▁NIS	-14047
▁Pen	-14048
▁Put	-14049
▁Rem	-14050
▁Roc	-14051
▁Too	-14052
▁USS	-14053
▁Unk	-14054
▁Vaz	-14055
▁YES	-14056
▁aux	-14057
▁bag	-14058
▁biU	-14059
▁bis	-14060
▁bur	-14061
▁dém	-14062
▁luc	-14063
▁wip	-14064
-00/0	-14065
-1997	-14066
4-054	-14067
Chair	-14068
agers	-14069
aints	-14070
anzes	-14071
apagn	-14072
appin	-14073
ashed	-14074
astic	-14075
atial	-14076
chter	-14077
clear	-14078
clock	-14079
crypt	-14080
disch	-14081
erend	-14082
essim	-14083
igger	-14084
imbra	-14085
inist	-14086
inner	-14087
itory	-14088
ongue	-14089
pegna	-14090
pring	-14091
stone	-14092
unker	-14093
urate	-14094
▁Bren	-14095
▁Brun	-14096
▁Cert	-14097
▁Dank	-14098
▁Gulf	-14099
▁Hend	-14100
▁Kiew	-14101
▁Mean	-14102
▁NOTE	-14103
▁PACT	-14104
▁Page	-14105
▁Prep	-14106
▁Sepp	-14107
▁Trib	-14108
▁UNIC	-14109
▁Umit	-14110
▁Vand	-14111
▁barg	-14112
▁beer	-14113
▁dair	-14114
▁ears	-14115
▁gang	-14116
▁grub	-14117
▁ines	-14118
▁infl	-14119
▁ized	-14120
▁peer	-14121
▁rose	-14122
▁seiz	-14123
▁shed	-14124
▁sphe	-14125
▁tape	-14126
▁ther	-14127
▁tide	-14128
▁trac	-14129
▁wond	-14130
298614	-14131
57/97)	-14132
ASSOPO	-14133
ECTION	-14134
Urbahn	-14135
ajanni	-14136
apters	-14137
avaria	-14138
cetera	-14139
chance	-14140
elnits	-14141
endium	-14142
erting	-14143
ervice	-14144
etting	-14145
forces	-14146
funded	-14147
hement	-14148
iUties	-14149
ibUity	-14150
itives	-14151
opping	-14152
rained	-14153
ratory	-14154
roduce	-14155
roleum	-14156
tional	-14157
▁1988.	-14158
▁1989.	-14159
▁2002.	-14160
▁ANAST	-14161
▁Chich	-14162
▁PROGR	-14163
▁Pronk	-14164
▁Rovno	-14165
▁Sadly	-14166
▁Silva	-14167
▁Tones	-14168
▁Uzbek	-14169
▁Vinci	-14170
▁aegis	-14171
▁angle	-14172
▁cryst	-14173
▁deput	-14174
▁discl	-14175
▁dissu	-14176
▁dread	-14177
▁eleph	-14178
▁escap	-14179
▁essen	-14180
▁filed	-14181
▁gifts	-14182
▁gloss	-14183
▁magaz	-14184
▁overf	-14185
▁owned	-14186
▁recur	-14187
▁rests	-14188
▁scape	-14189
▁sixth	-14190
▁smart	-14191
▁steer	-14192
▁swine	-14193
▁tenth	-14194
▁theat	-14195
▁upper	-14196
-1988).	-14197
Customs	-14198
DUCTION	-14199
GENERAL	-14200
Section	-14201
entious	-14202
ervedly	-14203
etermin	-14204
finding	-14205
growers	-14206
ichloro	-14207
ippines	-14208
ishment	-14209
justice	-14210
markets	-14211
onomous	-14212
ouncing	-14213
perform	-14214
rupting	-14215
sharing	-14216
▁CENTRE	-14217
▁Gaulle	-14218
▁Grants	-14219
▁Imbeni	-14220
▁Kenyan	-14221
▁Larive	-14222
▁Moreau	-14223
▁Republ	-14224
▁Rocard	-14225
▁Secchi	-14226
▁Tappin	-14227
▁Turqey	-14228
▁Twenty	-14229
▁Urgent	-14230
▁accent	-14231
▁affirm	-14232
▁allies	-14233
▁audiov	-14234
▁breath	-14235
▁capita	-14236
▁carcin	-14237
▁cartel	-14238
▁colour	-14239
▁deduct	-14240
▁deeper	-14241
▁donors	-14242
▁filled	-14243
▁framew	-14244
▁francs	-14245
▁inaccu	-14246
▁incumb	-14247
▁lodged	-14248
▁memory	-14249
▁misery	-14250
▁panels	-14251
▁parcel	-14252
▁pessim	-14253
▁prises	-14254
▁propri	-14255
▁spouse	-14256
▁stimul	-14257
▁strait	-14258
▁stream	-14259
▁temper	-14260
▁ticket	-14261
▁tigers	-14262
▁timing	-14263
▁tioned	-14264
▁unsafe	-14265
▁weekly	-14266
▁widest	-14267
▁worded	-14268
/97-95/0	-14269
/97-97/0	-14270
apagnini	-14271
entrally	-14272
favoured	-14273
itations	-14274
official	-14275
pursuant	-14276
rupulous	-14277
▁Airport	-14278
▁Alexand	-14279
▁Barents	-14280
▁Bavaria	-14281
▁Belleré	-14282
▁Bosnian	-14283
▁Brenner	-14284
▁Changes	-14285
▁Collado	-14286
▁Colombo	-14287
▁Conduct	-14288
▁Dankert	-14289
▁Douglas	-14290
▁Experts	-14291
▁Limited	-14292
▁Linkohr	-14293
▁Pailler	-14294
▁Precise	-14295
▁Raphael	-14296
▁Reports	-14297
▁Suanzes	-14298
▁Tobacco	-14299
▁ancient	-14300
▁beneath	-14301
▁competi	-14302
▁cynical	-14303
▁drastic	-14304
▁earnest	-14305
▁employs	-14306
▁endless	-14307
▁engines	-14308
▁exacerb	-14309
▁expired	-14310
▁foUowed	-14311
▁handful	-14312
▁implied	-14313
▁induced	-14314
▁institu	-14315
▁insured	-14316
▁locally	-14317
▁magistr	-14318
▁migrant	-14319
▁morally	-14320
▁nowhere	-14321
▁percept	-14322
▁pharmac	-14323
▁premise	-14324
▁reaches	-14325
▁repatri	-14326
▁restaur	-14327
▁revital	-14328
▁rubbish	-14329
▁spheres	-14330
▁subsist	-14331
▁suffers	-14332
▁suffice	-14333
▁tactics	-14334
▁tenders	-14335
▁tighten	-14336
▁tighter	-14337
▁touches	-14338
▁utilize	-14339
▁village	-14340
▁violate	-14341
fashioned	-14342
financial	-14343
iological	-14344
itiatives	-14345
ouncement	-14346
valuation	-14347
▁ANALYSIS	-14348
▁Criminal	-14349
▁Dimitrak	-14350
▁Likewise	-14351
▁Parallel	-14352
▁Recently	-14353
▁Tribunal	-14354
▁Violence	-14355
▁allotted	-14356
▁broadest	-14357
▁carriage	-14358
▁complies	-14359
▁conectly	-14360
▁counting	-14361
▁deposits	-14362
▁efficacy	-14363
▁entrance	-14364
▁explains	-14365
▁goodwill	-14366
▁handicap	-14367
▁honoured	-14368
▁ignoring	-14369
▁improper	-14370
▁invasion	-14371
▁matching	-14372
▁mistrust	-14373
▁nuisance	-14374
▁outdated	-14375
▁probable	-14376
▁promotes	-14377
▁prompted	-14378
▁residues	-14379
▁settling	-14380
▁sparsely	-14381
▁stopping	-14382
▁superfic	-14383
▁tomatoes	-14384
▁underway	-14385
▁usefully	-14386
▁utilized	-14387
▁versions	-14388
▁waterway	-14389
..........	-14390
ASSOPOULOS	-14391
generation	-14392
processing	-14393
▁Cambridge	-14394
▁Cederschi	-14395
▁Christmas	-14396
▁Colajanni	-14397
▁Communist	-14398
▁Meanwhile	-14399
▁Nicaragua	-14400
▁Voluntary	-14401
▁adherence	-14402
▁ambitions	-14403
▁authorize	-14404
▁celebrate	-14405
▁coUeagues	-14406
▁complains	-14407
▁geography	-14408
▁highlevel	-14409
▁injection	-14410
▁intending	-14411
▁jurisdict	-14412
▁penalized	-14413
▁pertinent	-14414
▁pointless	-14415
▁proactive	-14416
▁rationale	-14417
▁remainder	-14418
▁residents	-14419
▁sociology	-14420
▁stipulate	-14421
▁supporter	-14422
▁undergone	-14423
▁unloading	-14424
▁violating	-14425
trafficking	-14426
▁Assistance	-14427
▁Chichester	-14428
▁Commercial	-14429
▁Councillor	-14430
[...]
