<unk>	0
<s>	0
</s>	0
en	-0
is	-1
ta	-2
in	-3
tä	-4
an	-5
▁k	-6
ll	-7
te	-8
si	-9
▁j	-10
va	-11
▁o	-12
tu	-13
▁m	-14
▁e	-15
▁p	-16
▁s	-17
ti	-18
es	-19
to	-20
sa	-21
it	-22
ka	-23
▁ja	-24
än	-25
▁a	-26
et	-27
on	-28
▁v	-29
uu	-30
▁h	-31
ik	-32
▁va	-33
▁on	-34
ks	-35
la	-36
ttä	-37
mis	-38
us	-39
li	-40
ma	-41
oi	-42
tta	-43
lu	-44
ty	-45
▁ko	-46
▁n	-47
▁ta	-48
er	-49
▁y	-50
ksi	-51
▁jo	-52
le	-53
den	-54
uo	-55
op	-56
aa	-57
el	-58
lla	-59
mm	-60
llis	-61
ke	-62
ro	-63
ää	-64
mi	-65
lle	-66
ten	-67
▁että	-68
▁E	-69
▁tu	-70
un	-71
▁tä	-72
ja	-73
vä	-74
ar	-75
sta	-76
▁to	-77
isi	-78
ra	-79
▁si	-80
ista	-81
tö	-82
ys	-83
ki	-84
hd	-85
sä	-86
ssa	-87
ko	-88
vo	-89
inen	-90
een	-91
mme	-92
vat	-93
uh	-94
eu	-95
itä	-96
mä	-97
▁te	-98
roop	-99
im	-100
▁T	-101
vi	-102
▁ka	-103
uroop	-104
kin	-105
▁ku	-106
lo	-107
llä	-108
▁(	-109
▁yh	-110
pa	-111
ri	-112
▁jä	-113
▁Euroop	-114
▁ei	-115
ksen	-116
men	-117
de	-118
▁K	-119
ih	-120
▁kan	-121
▁kä	-122
ös	-123
iden	-124
▁Euroopan	-125
▁se	-126
▁ma	-127
▁l	-128
tel	-129
▁M	-130
▁S	-131
teis	-132
▁ole	-133
▁ti	-134
ön	-135
il	-136
rj	-137
▁-	-138
▁la	-139
sen	-140
jen	-141
▁mu	-142
▁A	-143
arla	-144
esta	-145
▁P	-146
arlamen	-147
esti	-148
ne	-149
tte	-150
taa	-151
tus	-152
▁voi	-153
▁hy	-154
▁my	-155
kä	-156
issa	-157
▁vi	-158
▁vä	-159
ut	-160
missi	-161
▁ra	-162
▁mi	-163
▁puh	-164
isen	-165
▁1	-166
ei	-167
hdo	-168
taan	-169
▁ha	-170
arlament	-171
se	-172
yt	-173
▁en	-174
usta	-175
▁tar	-176
na	-177
essa	-178
▁esi	-179
rit	-180
▁pa	-181
istä	-182
sto	-183
man	-184
▁kos	-185
▁yhteis	-186
jä	-187
sia	-188
män	-189
▁jäsen	-190
da	-191
▁kes	-192
▁pää	-193
▁ty	-194
▁komissi	-195
tka	-196
sti	-197
lta	-198
vät	-199
▁ni	-200
oli	-201
▁r	-202
ään	-203
teen	-204
▁per	-205
▁myös	-206
inn	-207
ok	-208
eh	-209
maan	-210
utta	-211
▁li	-212
jo	-213
▁nä	-214
van	-215
nn	-216
ia	-217
▁ki	-218
▁val	-219
▁V	-220
yy	-221
uks	-222
estä	-223
mp	-224
ttu	-225
istu	-226
▁saa	-227
uste	-228
dän	-229
euvo	-230
▁toi	-231
▁huo	-232
▁Tä	-233
emi	-234
▁O	-235
▁joka	-236
▁lu	-237
▁parlament	-238
▁ovat	-239
essä	-240
rvo	-241
isesti	-242
▁sa	-243
▁tie	-244
▁vuo	-245
ittä	-246
isten	-247
isä	-248
ksia	-249
ul	-250
ano	-251
hta	-252
rjes	-253
▁kaik	-254
itta	-255
kaan	-256
isa	-257
eksi	-258
▁ol	-259
emies	-260
▁kesk	-261
llisuu	-262
▁an	-263
val	-264
ion	-265
yh	-266
▁koske	-267
re	-268
▁suu	-269
minen	-270
stä	-271
▁H	-272
▁un	-273
▁käy	-274
▁sen	-275
▁kansa	-276
▁L	-277
▁oik	-278
lan	-279
▁so	-280
opim	-281
oiden	-282
▁vasta	-283
rvoisa	-284
▁kys	-285
äär	-286
▁muu	-287
▁union	-288
▁N	-289
99	-290
ika	-291
euvosto	-292
▁toim	-293
oita	-294
iten	-295
ita	-296
rke	-297
).	-298
▁jotka	-299
ku	-300
mista	-301
unn	-302
so	-303
erk	-304
▁hyvä	-305
▁uu	-306
▁J	-307
▁osa	-308
▁ed	-309
lua	-310
lou	-311
ino	-312
iset	-313
▁tai	-314
kuu	-315
▁väl	-316
▁työ	-317
ina	-318
ttava	-319
lli	-320
▁käsi	-321
isuu	-322
tti	-323
ssä	-324
utu	-325
▁erit	-326
itse	-327
▁tule	-328
▁teh	-329
▁toimi	-330
▁asia	-331
ve	-332
isiin	-333
▁B	-334
▁puhemies	-335
stu	-336
▁siitä	-337
▁maa	-338
ikka	-339
ille	-340
▁I	-341
▁mahdo	-342
iste	-343
▁laa	-344
▁keh	-345
do	-346
▁puo	-347
uksen	-348
valti	-349
isia	-350
ha	-351
▁Arvoisa	-352
isin	-353
ttaa	-354
kset	-355
▁komissio	-356
tään	-357
▁alu	-358
ien	-359
liok	-360
▁miet	-361
▁kuin	-362
▁tark	-363
▁199	-364
▁komission	-365
▁il	-366
eidän	-367
▁ehdo	-368
▁keskuste	-369
yn	-370
itty	-371
yttä	-372
oliti	-373
vin	-374
ym	-375
etta	-376
▁sitä	-377
pi	-378
▁Y	-379
▁tuo	-380
maa	-381
rjestel	-382
je	-383
ise	-384
▁suo	-385
jan	-386
▁sel	-387
iksi	-388
itte	-389
issä	-390
oin	-391
mmä	-392
▁parlamentin	-393
äh	-394
▁R	-395
ken	-396
▁hyväks	-397
ikä	-398
▁asi	-399
nut	-400
▁ar	-401
pä	-402
▁tapa	-403
▁mutta	-404
misen	-405
▁sekä	-406
▁miel	-407
ur	-408
▁neuvosto	-409
or	-410
▁min	-411
▁tämän	-412
▁kaikki	-413
ikan	-414
äärä	-415
dellis	-416
▁2	-417
vien	-418
tuksen	-419
vän	-420
os	-421
▁olisi	-422
▁talou	-423
▁kuiten	-424
▁tärke	-425
▁men	-426
raa	-427
tää	-428
ihin	-429
▁unionin	-430
▁kuu	-431
▁kanssa	-432
kseen	-433
▁sisä	-434
mat	-435
▁kun	-436
▁var	-437
neet	-438
iko	-439
▁al	-440
▁jäsenvalti	-441
▁po	-442
▁vaik	-443
jel	-444
▁puheen	-445
▁oikeu	-446
johta	-447
ky	-448
mio	-449
ea	-450
unnan	-451
nyt	-452
rva	-453
sin	-454
▁sopim	-455
▁päätö	-456
▁keskustelu	-457
▁erity	-458
▁yksi	-459
miseksi	-460
▁pi	-461
kaa	-462
▁us	-463
ni	-464
ris	-465
▁seu	-466
▁par	-467
di	-468
▁oli	-469
▁sano	-470
▁vaa	-471
ellis	-472
lin	-473
mään	-474
pan	-475
▁mitä	-476
ella	-477
ir	-478
ton	-479
▁liitty	-480
itt	-481
▁pal	-482
▁tämä	-483
▁voida	-484
gel	-485
▁pitä	-486
▁läh	-487
yty	-488
tii	-489
massa	-490
▁puol	-491
tön	-492
▁Ko	-493
▁tut	-494
ste	-495
▁jon	-496
elä	-497
▁me	-498
▁ih	-499
kan	-500
mien	-501
▁hän	-502
▁ne	-503
▁kuitenkin	-504
hjel	-505
▁kysym	-506
llinen	-507
▁yhteisön	-508
ian	-509
▁merk	-510
▁C	-511
▁Parlament	-512
oliitt	-513
von	-514
▁Tämä	-515
▁tote	-516
tävä	-517
ittaa	-518
det	-519
vaa	-520
mu	-521
▁ker	-522
▁suh	-523
▁niin	-524
tin	-525
▁hyvin	-526
▁Va	-527
▁aih	-528
tiin	-529
emm	-530
▁määrä	-531
▁luo	-532
▁väh	-533
ulu	-534
tia	-535
johtaja	-536
▁On	-537
miseen	-538
tuu	-539
▁mon	-540
tetaan	-541
▁sy	-542
kon	-543
00	-544
pu	-545
▁ase	-546
rja	-547
▁alue	-548
▁hyväksy	-549
▁kau	-550
ga	-551
tty	-552
ot	-553
▁vain	-554
dä	-555
▁eivät	-556
▁halua	-557
▁kuten	-558
lleen	-559
▁tieto	-560
kkin	-561
järjestel	-562
▁huomio	-563
▁koko	-564
▁koska	-565
siaa	-566
via	-567
kun	-568
▁ai	-569
ttää	-570
▁he	-571
▁yle	-572
▁epä	-573
▁ongel	-574
▁ihmis	-575
▁EU	-576
mia	-577
▁ryh	-578
▁jonka	-579
politi	-580
▁meidän	-581
▁vielä	-582
▁mahdollis	-583
vu	-584
▁jos	-585
▁toimin	-586
▁kul	-587
tettu	-588
▁Parlamentin	-589
no	-590
▁yhte	-591
▁tulee	-592
itys	-593
▁Ha	-594
▁"	-595
▁lop	-596
hin	-597
97	-598
liokun	-599
ettel	-600
töön	-601
mistä	-602
tettava	-603
▁mietinn	-604
ssi	-605
tuks	-606
▁eri	-607
▁olla	-608
▁joita	-609
kö	-610
tan	-611
lä	-612
llut	-613
▁ri	-614
▁yrit	-615
▁U	-616
oilla	-617
yksi	-618
▁jul	-619
▁tehd	-620
▁yhteisty	-621
len	-622
▁poliitt	-623
keen	-624
▁ään	-625
mus	-626
▁voidaan	-627
mpä	-628
▁koh	-629
▁ver	-630
SE	-631
min	-632
▁sosiaa	-633
ktii	-634
uon	-635
▁keskustelut	-636
▁tässä	-637
▁joh	-638
▁kansala	-639
▁nyt	-640
llisesti	-641
▁as	-642
elle	-643
ttele	-644
eto	-645
▁lisä	-646
han	-647
lous	-648
▁kol	-649
▁tava	-650
illa	-651
ran	-652
esty	-653
vuu	-654
eet	-655
oik	-656
yksen	-657
▁na	-658
enki	-659
▁suur	-660
mpäris	-661
▁niiden	-662
tik	-663
tusta	-664
▁tode	-665
▁turva	-666
inä	-667
▁Se	-668
▁G	-669
laus	-670
malla	-671
▁halli	-672
▁sillä	-673
ud	-674
nen	-675
isty	-676
▁neuvoston	-677
▁no	-678
▁jota	-679
voi	-680
liokunnan	-681
▁ede	-682
kea	-683
▁de	-684
iseen	-685
▁perus	-686
▁kon	-687
ytä	-688
misesta	-689
vää	-690
▁tutki	-691
▁parlamentti	-692
▁kulu	-693
▁D	-694
ins	-695
▁b	-696
▁Puh	-697
▁mietin	-698
po	-699
sopim	-700
▁halu	-701
▁raken	-702
▁teke	-703
▁kyse	-704
rjo	-705
uksessa	-706
hän	-707
ihen	-708
▁in	-709
ch	-710
paa	-711
iaa	-712
uttaa	-713
▁puolesta	-714
▁puheenjohtaja	-715
per	-716
▁jossa	-717
▁jäl	-718
▁F	-719
▁En	-720
▁perusta	-721
ito	-722
eus	-723
llisuus	-724
jat	-725
missa	-726
▁valti	-727
pala	-728
▁tätä	-729
▁tilan	-730
ua	-731
san	-732
▁vastu	-733
▁siihen	-734
▁kohd	-735
▁kanna	-736
▁ympäris	-737
mok	-738
▁tiet	-739
▁aika	-740
▁liik	-741
▁mukaan	-742
ikko	-743
▁kansallis	-744
toa	-745
tun	-746
merk	-747
▁3	-748
väl	-749
kään	-750
▁jotta	-751
tava	-752
tteli	-753
yks	-754
▁To	-755
▁pyy	-756
▁seuraa	-757
jon	-758
▁mei	-759
▁ratka	-760
▁kas	-761
▁ala	-762
▁olemme	-763
▁tavo	-764
▁0	-765
▁myön	-766
▁Komissi	-767
enpi	-768
▁huomioon	-769
viä	-770
assa	-771
ukset	-772
vista	-773
▁artik	-774
▁käyt	-775
ime	-776
kau	-777
▁vir	-778
PE	-779
yd	-780
staan	-781
▁olen	-782
nä	-783
täin	-784
enkil	-785
▁pä	-786
tusten	-787
isiä	-788
muka	-789
▁sään	-790
eren	-791
mät	-792
iin	-793
▁Nä	-794
▁taloudellis	-795
tettä	-796
yky	-797
▁ter	-798
▁tapah	-799
▁vo	-800
▁muka	-801
net	-802
inoa	-803
puo	-804
insää	-805
jien	-806
össä	-807
anoma	-808
hoi	-809
▁erityisesti	-810
matta	-811
▁vaan	-812
▁väli	-813
▁vah	-814
▁esittä	-815
desta	-816
ittää	-817
▁mikä	-818
al	-819
ho	-820
▁ensi	-821
▁vuoden	-822
▁har	-823
▁päätös	-824
insäädän	-825
me	-826
ksien	-827
estäni	-828
▁main	-829
yys	-830
▁di	-831
ilu	-832
▁asian	-833
ttiin	-834
rektii	-835
▁yhd	-836
ksiin	-837
▁vastaa	-838
iä	-839
▁mietintö	-840
eli	-841
EN	-842
▁ul	-843
▁tarkistu	-844
▁erittäin	-845
▁itse	-846
),	-847
▁ollut	-848
▁euroop	-849
ans	-850
tt	-851
▁peruste	-852
▁pro	-853
dessa	-854
▁käsittele	-855
▁ro	-856
kke	-857
▁muo	-858
▁sov	-859
▁anta	-860
muu	-861
▁han	-862
▁tarv	-863
▁mieltä	-864
▁vara	-865
llan	-866
▁edusta	-867
▁hall	-868
tetään	-869
▁Kys	-870
don	-871
emme	-872
▁op	-873
inväl	-874
▁py	-875
vuo	-876
toi	-877
ystä	-878
▁eurooppala	-879
▁ennen	-880
▁mil	-881
▁tulo	-882
oikeu	-883
tetta	-884
ohjel	-885
▁toimenpi	-886
tua	-887
oihin	-888
▁Ka	-889
laa	-890
▁ainoa	-891
▁demok	-892
mar	-893
▁järjestel	-894
tetty	-895
▁esitteli	-896
▁pitää	-897
▁eikä	-898
▁henkil	-899
▁jälkeen	-900
▁tek	-901
▁tähän	-902
kka	-903
▁mar	-904
▁puu	-905
llisen	-906
▁aiheu	-907
▁kolle	-908
▁otta	-909
▁er	-910
▁pys	-911
▁antaa	-912
elta	-913
em	-914
▁Sa	-915
järjes	-916
▁hyö	-917
▁W	-918
▁nyky	-919
uun	-920
ussa	-921
masta	-922
▁paljon	-923
▁luon	-924
▁sella	-925
▁politi	-926
ip	-927
sten	-928
/97	-929
▁tarka	-930
▁tehdä	-931
teet	-932
tien	-933
▁täys	-934
din	-935
▁oso	-936
eita	-937
▁koskeva	-938
emmän	-939
lis	-940
log	-941
▁vuoksi	-942
▁Mi	-943
▁siir	-944
▁arvi	-945
▁Puhemies	-946
▁le	-947
▁tasa	-948
▁alo	-949
▁tällä	-950
iseksi	-951
▁vaih	-952
ellä	-953
▁Jos	-954
uksia	-955
▁lainsäädän	-956
▁osallis	-957
▁san	-958
19	-959
▁maan	-960
uonna	-961
▁direktii	-962
▁yli	-963
▁tul	-964
▁passi	-965
▁mahdollisuu	-966
inno	-967
▁elä	-968
ein	-969
▁tulli	-970
▁neuvo	-971
rin	-972
tojen	-973
▁viime	-974
staa	-975
lausel	-976
▁kirja	-977
illä	-978
▁siis	-979
yttää	-980
▁sisäl	-981
▁esimerk	-982
▁aja	-983
ettely	-984
▁joiden	-985
PSE	-986
vaisuu	-987
▁yhteistyö	-988
at	-989
▁ympäristö	-990
▁saada	-991
▁her	-992
▁paran	-993
▁osalta	-994
▁arvoisa	-995
ker	-996
▁nim	-997
▁maata	-998
aan	-999
rvi	-1000
▁tarkoi	-1001
▁yhteen	-1002
markkin	-1003
▁kansainväl	-1004
tuksia	-1005
▁välttä	-1006
▁huoma	-1007
▁Yhd	-1008
▁jat	-1009
pää	-1010
eseen	-1011
ine	-1012
toja	-1013
▁ohjel	-1014
▁koulu	-1015
as	-1016
io	-1017
mmin	-1018
mmär	-1019
ryh	-1020
▁eli	-1021
ydessä	-1022
▁ensimmä	-1023
emp	-1024
tie	-1025
kohta	-1026
ustann	-1027
sien	-1028
▁vaka	-1029
velu	-1030
▁Tämän	-1031
▁kehitys	-1032
▁suun	-1033
kuuta	-1034
lloin	-1035
▁aina	-1036
▁su	-1037
ikkaa	-1038
▁jäsenvaltioiden	-1039
▁ette	-1040
uuri	-1041
sarvi	-1042
▁niitä	-1043
▁4	-1044
▁valiokun	-1045
▁yhteydessä	-1046
▁lis	-1047
mo	-1048
▁etu	-1049
▁kunn	-1050
isesta	-1051
▁5	-1052
▁valmis	-1053
▁tästä	-1054
▁Komissio	-1055
mer	-1056
östä	-1057
▁kaup	-1058
pe	-1059
▁emme	-1060
▁olemassa	-1061
kul	-1062
uda	-1063
västi	-1064
▁parlamen	-1065
▁suuri	-1066
▁vuonna	-1067
▁yhden	-1068
▁vastaan	-1069
▁Ku	-1070
missaar	-1071
▁kala	-1072
▁työn	-1073
199	-1074
▁markkin	-1075
▁tunn	-1076
yksiä	-1077
▁ky	-1078
ttelu	-1079
mma	-1080
▁Yh	-1081
▁päi	-1082
▁syy	-1083
ksin	-1084
tar	-1085
▁pyr	-1086
▁pien	-1087
▁kil	-1088
▁arvo	-1089
▁ainoastaan	-1090
oille	-1091
sio	-1092
nö	-1093
▁edistä	-1094
▁koro	-1095
usten	-1096
▁eh	-1097
▁nouda	-1098
▁lopu	-1099
▁tärkeä	-1100
vasti	-1101
▁tiedo	-1102
▁valvon	-1103
▁tapahtu	-1104
gia	-1105
emmin	-1106
▁päätöslausel	-1107
▁oikeus	-1108
▁ke	-1109
▁terve	-1110
▁Olen	-1111
miin	-1112
▁haluaisin	-1113
ttel	-1114
▁vaati	-1115
miä	-1116
▁sää	-1117
matto	-1118
PPE	-1119
▁kilpa	-1120
son	-1121
▁vakuu	-1122
ittu	-1123
tten	-1124
ysten	-1125
teiden	-1126
▁kulutta	-1127
kko	-1128
▁taso	-1129
▁laajen	-1130
▁täysin	-1131
stus	-1132
▁komissaar	-1133
elin	-1134
▁hänen	-1135
▁henkilö	-1136
jän	-1137
ykset	-1138
▁tärkeää	-1139
iaatte	-1140
▁aikan	-1141
▁tulevaisuu	-1142
aika	-1143
▁laus	-1144
▁kehittä	-1145
▁maiden	-1146
tys	-1147
muksen	-1148
▁talousarvi	-1149
▁teo	-1150
▁tälla	-1151
▁käytä	-1152
▁työllis	-1153
▁mää	-1154
tyä	-1155
▁vaikka	-1156
tut	-1157
lemme	-1158
▁sosiaal	-1159
▁käyttöön	-1160
ie	-1161
▁muuto	-1162
▁näin	-1163
jö	-1164
▁enemmän	-1165
▁todella	-1166
ippu	-1167
▁täy	-1168
4-	-1169
jaa	-1170
töä	-1171
llisuuden	-1172
▁raha	-1173
▁julk	-1174
ette	-1175
▁käyttä	-1176
ver	-1177
valta	-1178
▁voivat	-1179
tto	-1180
▁johta	-1181
DE	-1182
lun	-1183
▁Toi	-1184
▁merkittä	-1185
▁toiminta	-1186
joon	-1187
tellä	-1188
rasto	-1189
▁ilma	-1190
▁vapa	-1191
▁sitten	-1192
▁het	-1193
▁tun	-1194
▁i	-1195
▁van	-1196
▁muuta	-1197
▁aikana	-1198
▁järjes	-1199
▁Halua	-1200
▁Meidän	-1201
▁miljoon	-1202
▁nämä	-1203
▁lisäksi	-1204
▁asiassa	-1205
▁rahoi	-1206
▁sanoa	-1207
ksista	-1208
▁­	-1209
mman	-1210
oissa	-1211
▁talous	-1212
▁Me	-1213
feren	-1214
▁laati	-1215
▁yhteisö	-1216
llista	-1217
▁muodo	-1218
▁valiokunnan	-1219
ter	-1220
▁juuri	-1221
▁voisi	-1222
▁koskevan	-1223
▁prosen	-1224
raatt	-1225
▁ymmär	-1226
▁mahdollista	-1227
▁maail	-1228
ksa	-1229
▁ec	-1230
kunnan	-1231
isille	-1232
mää	-1233
lue	-1234
ttuu	-1235
▁seura	-1236
kop	-1237
kirja	-1238
tenä	-1239
▁Ta	-1240
tion	-1241
nassa	-1242
▁ottaa	-1243
▁u	-1244
▁herra	-1245
▁korke	-1246
ksu	-1247
vulla	-1248
netta	-1249
ltä	-1250
▁yleis	-1251
▁välillä	-1252
▁tois	-1253
▁mukaisesti	-1254
▁kat	-1255
▁vapaa	-1256
▁1996	-1257
▁ajan	-1258
▁pit	-1259
▁puhu	-1260
▁jolla	-1261
▁vero	-1262
▁ilman	-1263
000	-1264
isto	-1265
▁sosiaali	-1266
▁pu	-1267
vänä	-1268
tella	-1269
▁miten	-1270
esk	-1271
tuo	-1272
▁Kan	-1273
he	-1274
kirj	-1275
llen	-1276
itsee	-1277
▁kiel	-1278
▁joilla	-1279
▁mietinnön	-1280
▁toteutta	-1281
gen	-1282
▁näkö	-1283
tyy	-1284
▁uud	-1285
töjen	-1286
▁kustann	-1287
mite	-1288
öytä	-1289
▁meillä	-1290
▁näiden	-1291
EL	-1292
▁kaksi	-1293
▁passitus	-1294
▁esimerkiksi	-1295
▁vali	-1296
itteen	-1297
▁Pa	-1298
▁ettei	-1299
▁Ma	-1300
viin	-1301
▁tän	-1302
▁osallistu	-1303
▁olevan	-1304
▁mielestäni	-1305
▁kulje	-1306
misestä	-1307
▁sija	-1308
▁suhteen	-1309
tukset	-1310
▁keskus	-1311
esi	-1312
▁yhtä	-1313
▁tehok	-1314
▁koskee	-1315
yyden	-1316
▁tehtävä	-1317
▁avulla	-1318
▁haluan	-1319
äs	-1320
▁hel	-1321
▁sä	-1322
mättö	-1323
joitta	-1324
ytyy	-1325
▁Si	-1326
hden	-1327
ukseen	-1328
▁f	-1329
nan	-1330
▁kuulu	-1331
▁tehtä	-1332
▁aikaan	-1333
▁19	-1334
ikke	-1335
tettiin	-1336
määrä	-1337
▁elin	-1338
▁vahvista	-1339
ossa	-1340
▁kehit	-1341
▁tarjo	-1342
joi	-1343
elvo	-1344
kien	-1345
▁aivan	-1346
tettävä	-1347
▁edell	-1348
▁toivo	-1349
▁tulisi	-1350
▁os	-1351
lista	-1352
▁uude	-1353
▁Mutta	-1354
tra	-1355
uva	-1356
▁Al	-1357
▁asiasta	-1358
▁kollega	-1359
▁tuke	-1360
▁pitäisi	-1361
iken	-1362
▁tila	-1363
nin	-1364
▁määr	-1365
▁d	-1366
mpi	-1367
▁tavalla	-1368
llisten	-1369
▁Ja	-1370
▁1997	-1371
itto	-1372
▁poh	-1373
era	-1374
▁sopimuksen	-1375
▁suhte	-1376
▁viranoma	-1377
/97)	-1378
▁siten	-1379
jet	-1380
nni	-1381
▁Vi	-1382
▁alalla	-1383
FR	-1384
ksiä	-1385
politiikan	-1386
ili	-1387
▁tänään	-1388
nistu	-1389
▁siksi	-1390
itsi	-1391
masti	-1392
yyttä	-1393
▁joissa	-1394
kkaa	-1395
maiden	-1396
▁odo	-1397
▁hyöd	-1398
▁Tässä	-1399
▁siinä	-1400
▁vuosi	-1401
istaa	-1402
▁riittä	-1403
▁mitään	-1404
▁Sen	-1405
▁Siksi	-1406
▁artiklan	-1407
kia	-1408
▁myö	-1409
▁suosi	-1410
▁Haluaisin	-1411
▁hetke	-1412
▁neuvottelu	-1413
ria	-1414
ällä	-1415
mätön	-1416
▁peto	-1417
isessä	-1418
▁vähen	-1419
▁yhtenä	-1420
▁6	-1421
198	-1422
isuus	-1423
▁tapauksessa	-1424
päätö	-1425
▁koskevat	-1426
ltava	-1427
▁varten	-1428
▁hä	-1429
▁hu	-1430
▁kaikkia	-1431
kerta	-1432
▁voimme	-1433
oh	-1434
toim	-1435
▁Min	-1436
▁sop	-1437
inta	-1438
tele	-1439
▁Kysym	-1440
▁Itä	-1441
teki	-1442
▁ulkop	-1443
innan	-1444
▁kokon	-1445
▁tavoitte	-1446
isu	-1447
▁aihe	-1448
▁esittelijä	-1449
▁Lisä	-1450
▁tiedon	-1451
isessa	-1452
isista	-1453
▁mer	-1454
▁pyrki	-1455
isti	-1456
▁yksin	-1457
▁uudelleen	-1458
▁komissaari	-1459
▁tutkin	-1460
että	-1461
▁Esi	-1462
tamme	-1463
▁ulko	-1464
▁hetkellä	-1465
▁parlamenti	-1466
ES	-1467
▁Rans	-1468
..	-1469
teissa	-1470
▁käsittel	-1471
vir	-1472
▁ehkä	-1473
▁ener	-1474
▁selv	-1475
tyksen	-1476
▁kolman	-1477
ett	-1478
▁kerto	-1479
▁istu	-1480
▁keske	-1481
▁oikea	-1482
järjestelmän	-1483
▁suoje	-1484
euvoston	-1485
▁tasolla	-1486
taisiin	-1487
sopimuksen	-1488
uus	-1489
▁voima	-1490
ittava	-1491
▁unioni	-1492
nolog	-1493
▁vaar	-1494
▁Miel	-1495
▁työs	-1496
ala	-1497
llin	-1498
▁yksity	-1499
▁lai	-1500
▁kansalaisten	-1501
nös	-1502
▁pel	-1503
▁täällä	-1504
▁kuitenkaan	-1505
▁ent	-1506
▁äänestä	-1507
▁usko	-1508
▁Eurooppa	-1509
▁9	-1510
▁Lisäksi	-1511
▁kaikkien	-1512
▁menettely	-1513
▁nop	-1514
▁uusi	-1515
▁heidän	-1516
▁kri	-1517
▁riko	-1518
▁edelleen	-1519
▁konferen	-1520
oida	-1521
▁Maa	-1522
nnitel	-1523
tukseen	-1524
▁liiken	-1525
st	-1526
istus	-1527
▁minun	-1528
▁ero	-1529
vallan	-1530
▁täytyy	-1531
yhteis	-1532
▁asiaa	-1533
▁muiden	-1534
miel	-1535
llaan	-1536
▁tuotte	-1537
▁kilpailu	-1538
ttia	-1539
▁selke	-1540
▁yhä	-1541
opu	-1542
ek	-1543
ihe	-1544
▁saan	-1545
▁varo	-1546
▁demokra	-1547
puh	-1548
▁alueella	-1549
▁7	-1550
▁Jo	-1551
▁samaa	-1552
koko	-1553
uksesta	-1554
▁meille	-1555
tuus	-1556
▁käsitel	-1557
▁uh	-1558
▁saav	-1559
▁vaikutu	-1560
▁toimenpite	-1561
kää	-1562
▁esittää	-1563
pro	-1564
isuuden	-1565
▁artikla	-1566
▁paika	-1567
▁palvelu	-1568
ykseen	-1569
suo	-1570
▁it	-1571
▁Yhteis	-1572
▁perustamis	-1573
osta	-1574
oista	-1575
▁eten	-1576
osa	-1577
pal	-1578
▁nuo	-1579
isteri	-1580
kas	-1581
▁liikku	-1582
asia	-1583
▁sisäll	-1584
tuksesta	-1585
▁8	-1586
llisia	-1587
▁äänesty	-1588
▁periaatte	-1589
▁tukea	-1590
▁osoitta	-1591
mällä	-1592
udjet	-1593
▁hyväksyä	-1594
vasta	-1595
ryhmän	-1596
▁tod	-1597
▁josta	-1598
uksista	-1599
ite	-1600
sel	-1601
hasto	-1602
kirjo	-1603
▁tekn	-1604
▁kiinn	-1605
mppan	-1606
urg	-1607
▁Kun	-1608
▁kään	-1609
▁tarpe	-1610
▁Olemme	-1611
▁käyttää	-1612
mättä	-1613
ts	-1614
eille	-1615
▁Mitä	-1616
▁sovelta	-1617
▁teki	-1618
▁katso	-1619
▁puheenvuo	-1620
▁kaikkea	-1621
▁kysymys	-1622
▁sopimus	-1623
uole	-1624
ytän	-1625
▁usein	-1626
mioistu	-1627
▁maailman	-1628
▁säil	-1629
kuussa	-1630
lliset	-1631
▁demokraatt	-1632
▁rauh	-1633
▁syn	-1634
▁huol	-1635
▁jatku	-1636
nto	-1637
▁hyvät	-1638
▁niistä	-1639
▁vai	-1640
neen	-1641
▁sito	-1642
ee	-1643
NL	-1644
4-0	-1645
▁korva	-1646
▁tiedä	-1647
span	-1648
emmis	-1649
▁1995	-1650
▁järj	-1651
sasia	-1652
▁mietinnössä	-1653
▁pidä	-1654
▁tilante	-1655
▁kerran	-1656
kunta	-1657
arvo	-1658
▁pako	-1659
▁velvo	-1660
▁oltava	-1661
rop	-1662
▁oma	-1663
▁kuinka	-1664
▁edisty	-1665
gan	-1666
ehto	-1667
▁kannalta	-1668
▁riippu	-1669
luu	-1670
laito	-1671
vissä	-1672
laisia	-1673
▁paino	-1674
▁Mielestäni	-1675
yö	-1676
▁sove	-1677
▁turvallisuus	-1678
▁taa	-1679
lleet	-1680
▁väär	-1681
▁rouva	-1682
▁käytänn	-1683
yä	-1684
▁aiko	-1685
▁esiin	-1686
teer	-1687
laisten	-1688
kki	-1689
yyn	-1690
sisi	-1691
vissa	-1692
teellis	-1693
▁*	-1694
ttö	-1695
▁Lu	-1696
mmen	-1697
uksissa	-1698
▁kansan	-1699
valiokunnan	-1700
96	-1701
itti	-1702
kseni	-1703
▁keskustel	-1704
▁oikeudellis	-1705
koh	-1706
rda	-1707
▁Tu	-1708
▁mo	-1709
▁kulttuu	-1710
▁vih	-1711
musta	-1712
▁Halu	-1713
isella	-1714
isestä	-1715
▁Kuten	-1716
▁johon	-1717
▁lisää	-1718
misessa	-1719
▁suunta	-1720
▁käsitellä	-1721
uta	-1722
kunna	-1723
järjestelmä	-1724
lia	-1725
tann	-1726
▁Tar	-1727
▁ryhmän	-1728
▁avoi	-1729
▁lo	-1730
innä	-1731
▁pan	-1732
▁aiheutta	-1733
aal	-1734
▁syrj	-1735
▁mielestä	-1736
ses	-1737
▁maatalous	-1738
▁ihmisoikeu	-1739
▁sai	-1740
▁toimia	-1741
▁hallin	-1742
▁yksinkerta	-1743
▁av	-1744
▁enää	-1745
inti	-1746
▁ecua	-1747
▁budjet	-1748
▁kautta	-1749
▁kokona	-1750
ile	-1751
Euroop	-1752
▁jäsenet	-1753
▁välttämätön	-1754
ilta	-1755
mieh	-1756
▁amma	-1757
▁selvästi	-1758
▁Ro	-1759
▁oh	-1760
▁minu	-1761
▁ryhmä	-1762
▁keino	-1763
▁hankke	-1764
▁12	-1765
▁Ki	-1766
delle	-1767
▁teks	-1768
▁säännö	-1769
valiokun	-1770
▁kirj	-1771
▁työpa	-1772
▁Yhdisty	-1773
▁onnistu	-1774
.)	-1775
▁estä	-1776
▁ilmo	-1777
▁liian	-1778
moi	-1779
▁tarvitse	-1780
▁alku	-1781
▁määri	-1782
▁10	-1783
ytäntöön	-1784
▁hallitusten	-1785
kuun	-1786
▁muut	-1787
▁voitaisiin	-1788
▁näitä	-1789
▁joista	-1790
▁ongelma	-1791
TO	-1792
▁Haluan	-1793
▁Komission	-1794
joiden	-1795
▁tehty	-1796
suh	-1797
▁•	-1798
non	-1799
▁saman	-1800
▁kauppa	-1801
▁Ei	-1802
perä	-1803
▁Lopu	-1804
▁luku	-1805
▁kirjallisesti	-1806
puol	-1807
eilla	-1808
▁huoli	-1809
▁luonno	-1810
▁parlamentissa	-1811
enä	-1812
nön	-1813
▁Jä	-1814
▁huu	-1815
laiset	-1816
▁pala	-1817
▁työnteki	-1818
▁päätöksen	-1819
ger	-1820
ol	-1821
vuus	-1822
▁rakenn	-1823
▁perusteella	-1824
▁anne	-1825
▁pidet	-1826
▁miljoonaa	-1827
▁yhdessä	-1828
haa	-1829
▁pysty	-1830
▁otetaan	-1831
▁Euroopassa	-1832
tio	-1833
▁alle	-1834
▁toteu	-1835
▁Mar	-1836
▁teille	-1837
▁ran	-1838
▁todellis	-1839
▁liittyvät	-1840
▁missä	-1841
▁prosenttia	-1842
päi	-1843
vana	-1844
▁len	-1845
▁mie	-1846
trate	-1847
▁yhteisen	-1848
AN	-1849
▁15	-1850
▁uuden	-1851
▁paranta	-1852
▁kollegat	-1853
▁noudatta	-1854
▁jatka	-1855
▁osoittaa	-1856
▁täytäntöön	-1857
▁Am	-1858
▁muistu	-1859
▁ratkaise	-1860
▁oikeuden	-1861
DR	-1862
jää	-1863
ven	-1864
▁Eu	-1865
▁1998	-1866
▁Kyse	-1867
iselle	-1868
▁esille	-1869
▁yl	-1870
ju	-1871
▁met	-1872
▁muun	-1873
▁voin	-1874
▁pitkä	-1875
▁mieli	-1876
▁jopa	-1877
▁järjestä	-1878
▁ehdotuksen	-1879
aalta	-1880
▁Yhdys	-1881
▁au	-1882
ropuh	-1883
TA	-1884
ron	-1885
koulu	-1886
▁parlamentille	-1887
tek	-1888
▁San	-1889
▁Sch	-1890
kem	-1891
▁jou	-1892
▁puheenjohta	-1893
1.	-1894
inga	-1895
ustaa	-1896
▁nimittä	-1897
anta	-1898
tyslista	-1899
▁merkitys	-1900
▁matka	-1901
isuutta	-1902
▁etenkin	-1903
▁tarko	-1904
▁lää	-1905
emieh	-1906
▁vira	-1907
sterda	-1908
▁vaihto	-1909
▁hyväksyi	-1910
työ	-1911
sioita	-1912
▁Tästä	-1913
jia	-1914
▁valta	-1915
▁korkea	-1916
▁vuotta	-1917
IN	-1918
▁La	-1919
kana	-1920
tävät	-1921
▁uusia	-1922
dellinen	-1923
lueen	-1924
uutta	-1925
▁Kaik	-1926
▁nopea	-1927
tila	-1928
▁Näin	-1929
▁rajo	-1930
▁My	-1931
▁Vasta	-1932
▁vuoropuh	-1933
töjä	-1934
yssä	-1935
▁nel	-1936
▁Ne	-1937
▁Amsterda	-1938
AR	-1939
etel	-1940
▁samalla	-1941
ttua	-1942
▁minä	-1943
ikkaan	-1944
ittelu	-1945
▁pöytä	-1946
▁valvo	-1947
isena	-1948
yttävä	-1949
▁kiittää	-1950
ed	-1951
▁hoi	-1952
▁huole	-1953
▁maissa	-1954
kel	-1955
kesk	-1956
▁tietty	-1957
▁Lopuksi	-1958
alla	-1959
ettaa	-1960
tynyt	-1961
▁sopi	-1962
▁alueen	-1963
▁ongelmia	-1964
▁konferens	-1965
▁unionissa	-1966
go	-1967
▁lyh	-1968
kauden	-1969
muksia	-1970
▁kulttuuri	-1971
▁kahden	-1972
▁olivat	-1973
▁valtion	-1974
▁työttö	-1975
▁Ä	-1976
pano	-1977
inoma	-1978
valla	-1979
kirjan	-1980
▁yksimiel	-1981
▁liittyy	-1982
▁lö	-1983
ehdo	-1984
vistä	-1985
▁kuuluu	-1986
▁lain	-1987
▁julka	-1988
▁muita	-1989
gin	-1990
▁klo	-1991
imman	-1992
▁välit	-1993
llisuutta	-1994
ber	-1995
▁20	-1996
▁energia	-1997
ttain	-1998
vuuden	-1999
ikkojen	-2000
▁jäsenvaltiot	-2001
▁kii	-2002
detään	-2003
▁varmis	-2004
ppa	-2005
eiden	-2006
ointi	-2007
reett	-2008
▁enna	-2009
vitaan	-2010
▁Li	-2011
▁Ti	-2012
ustelu	-2013
▁tutkimus	-2014
▁tavoitteen	-2015
ingas	-2016
gian	-2017
▁helpo	-2018
▁tyyty	-2019
▁muutta	-2020
kohd	-2021
sija	-2022
eillä	-2023
tonta	-2024
▁joutu	-2025
▁vahv	-2026
ettava	-2027
▁perin	-2028
▁kohtaan	-2029
▁kumppan	-2030
▁yhteistyötä	-2031
".	-2032
välin	-2033
▁huon	-2034
▁päätty	-2035
▁huomiota	-2036
▁So	-2037
▁kohta	-2038
7.	-2039
tety	-2040
▁lisään	-2041
▁silloin	-2042
ike	-2043
yden	-2044
viranoma	-2045
burg	-2046
turva	-2047
▁selkeä	-2048
▁kuningas	-2049
▁Espan	-2050
▁suure	-2051
kkeen	-2052
ttävä	-2053
▁konk	-2054
▁insti	-2055
palvelu	-2056
▁selvää	-2057
▁aloitte	-2058
▁esitetty	-2059
▁välttämätöntä	-2060
▁onko	-2061
▁tilanne	-2062
▁tarkaste	-2063
IS	-2064
▁In	-2065
oitu	-2066
saa	-2067
▁An	-2068
oikeus	-2069
▁huolimatta	-2070
▁käsittelevän	-2071
ELDR	-2072
▁ollen	-2073
▁tele	-2074
jöiden	-2075
mukaista	-2076
▁edustaja	-2077
▁toimielin	-2078
politiikkaa	-2079
197	-2080
sina	-2081
▁eläin	-2082
▁tieten	-2083
Euroopan	-2084
menettely	-2085
▁erityisen	-2086
▁valiokunta	-2087
var	-2088
▁Kos	-2089
sinnä	-2090
▁Kansa	-2091
▁tuotta	-2092
▁Tie	-2093
▁las	-2094
liiken	-2095
ettelyn	-2096
▁lä	-2097
luon	-2098
▁vihre	-2099
▁tarvitta	-2100
ge	-2101
▁Kes	-2102
▁pääs	-2103
▁Suo	-2104
▁Van	-2105
jille	-2106
▁syystä	-2107
ohjelman	-2108
▁myönteis	-2109
▁tuomioistu	-2110
▁talousarvio	-2111
▁Ensi	-2112
▁varapuh	-2113
▁tehokkaa	-2114
IT	-2115
tk	-2116
res	-2117
▁Ruo	-2118
▁jää	-2119
▁maksa	-2120
vil	-2121
yrit	-2122
▁johto	-2123
▁naisten	-2124
eltä	-2125
raston	-2126
▁Toivon	-2127
▁kehitty	-2128
▁yritysten	-2129
▁vil	-2130
▁vaiku	-2131
▁vaikuttaa	-2132
▁huomattava	-2133
ksesta	-2134
▁Koska	-2135
▁yksityis	-2136
markkinoiden	-2137
▁järjestelmä	-2138
▁Mon	-2139
▁suhta	-2140
▁valtio	-2141
▁hallituksen	-2142
lti	-2143
▁ris	-2144
▁tuki	-2145
▁täyden	-2146
▁direktiivin	-2147
▁vaikea	-2148
▁mielipi	-2149
▁rahoitus	-2150
▁Ra	-2151
▁Us	-2152
sisija	-2153
▁aikaa	-2154
ves	-2155
▁Ni	-2156
▁Tur	-2157
▁oleva	-2158
▁välisen	-2159
▁konkreett	-2160
▁koskevien	-2161
hdon	-2162
paino	-2163
▁erinoma	-2164
▁vii	-2165
▁Nämä	-2166
lainen	-2167
laisen	-2168
▁suora	-2169
▁valmiste	-2170
▁mahdollisimman	-2171
bo	-2172
ustus	-2173
▁toivon	-2174
▁vaikeu	-2175
sinnäkin	-2176
tettavasti	-2177
▁komissiota	-2178
▁Ita	-2179
▁luoda	-2180
▁tarkoituksen	-2181
missä	-2182
▁pysy	-2183
eenjohtaja	-2184
▁ympäristön	-2185
iltä	-2186
uuta	-2187
▁vastuu	-2188
leen	-2189
▁tänä	-2190
ikkoja	-2191
isivat	-2192
▁ratkaisu	-2193
tsi	-2194
tinen	-2195
▁ydin	-2196
▁teitä	-2197
▁käyttö	-2198
▁tehnyt	-2199
▁ihmisten	-2200
imen	-2201
▁sul	-2202
▁lausunn	-2203
▁työsken	-2204
▁teknolog	-2205
tiö	-2206
idän	-2207
▁ilmoi	-2208
▁maksu	-2209
ellinen	-2210
▁nimittäin	-2211
yhd	-2212
nessä	-2213
itteissa	-2214
▁asioita	-2215
▁valvonta	-2216
▁tulevaisuudessa	-2217
dan	-2218
tyks	-2219
▁lento	-2220
▁tavoin	-2221
ville	-2222
▁laad	-2223
ellisen	-2224
▁ensisija	-2225
teo	-2226
jana	-2227
ellisesti	-2228
vuutta	-2229
▁joihin	-2230
▁puheenvuoro	-2231
▁tosia	-2232
▁kaupan	-2233
▁hallitus	-2234
▁päätöslauselma	-2235
met	-2236
tarv	-2237
toon	-2238
tori	-2239
▁haa	-2240
▁Myös	-2241
▁torj	-2242
▁saavu	-2243
▁jälleen	-2244
rlan	-2245
▁Aihe	-2246
▁oikein	-2247
immä	-2248
tian	-2249
▁toimieli	-2250
▁toiminnan	-2251
▁käsittelevä	-2252
ksan	-2253
▁ilo	-2254
▁sanoi	-2255
▁selvä	-2256
▁tiedonan	-2257
▁merkittävä	-2258
anska	-2259
ktiiv	-2260
▁kiito	-2261
tuksessa	-2262
▁joitakin	-2263
▁kalastus	-2264
▁vuoropuhe	-2265
▁(198	-2266
▁koke	-2267
▁Tällä	-2268
▁puutte	-2269
▁koskevia	-2270
▁saavutta	-2271
▁suunnitel	-2272
▁tarvitaan	-2273
AL	-2274
mies	-2275
tit	-2276
isyy	-2277
▁tiu	-2278
▁tarp	-2279
▁väki	-2280
erahasto	-2281
▁Toiseksi	-2282
ell	-2283
▁Hän	-2284
▁pohja	-2285
▁johtaa	-2286
▁ottaen	-2287
mmat	-2288
▁kuts	-2289
▁Ranskan	-2290
▁tyytyvä	-2291
▁työttöm	-2292
mpaa	-2293
ston	-2294
▁myöh	-2295
▁työtä	-2296
nasta	-2297
▁yllä	-2298
ttavat	-2299
estys	-2300
▁tekee	-2301
▁asiaan	-2302
▁varmasti	-2303
▁kehityksen	-2304
sani	-2305
▁tapahtuu	-2306
onn	-2307
suu	-2308
lais	-2309
▁käytö	-2310
▁budjetti	-2311
▁esittäjä	-2312
▁puitteissa	-2313
asta	-2314
tapa	-2315
miselle	-2316
▁jäsenvaltioissa	-2317
äni	-2318
▁Nyt	-2319
mässä	-2320
isistä	-2321
▁vähän	-2322
emmistö	-2323
▁rakenta	-2324
▁yksittä	-2325
▁tutkintava	-2326
▁kansallisten	-2327
▁lainsäädäntö	-2328
▁kann	-2329
▁Vaikka	-2330
▁merkit	-2331
▁edistää	-2332
▁liikenne	-2333
politiikka	-2334
äsnä	-2335
▁000	-2336
tuotte	-2337
▁laaja	-2338
▁meitä	-2339
▁mikäli	-2340
▁kyseessä	-2341
ret	-2342
▁Vä	-2343
mästä	-2344
isimme	-2345
▁haluamme	-2346
ban	-2347
▁strate	-2348
▁korostaa	-2349
mpia	-2350
stoin	-2351
▁asti	-2352
▁läsnä	-2353
▁kysymyks	-2354
▁harjoitta	-2355
ard	-2356
änä	-2357
iton	-2358
▁Alan	-2359
▁noin	-2360
komite	-2361
yksiin	-2362
▁rajoi	-2363
▁toisen	-2364
▁laajentu	-2365
muo	-2366
▁198	-2367
▁keski	-2368
▁poista	-2369
pp	-2370
▁13	-2371
▁Val	-2372
▁Ään	-2373
▁tull	-2374
▁päästä	-2375
▁perustu	-2376
▁valtuus	-2377
▁kohdistu	-2378
▁mennessä	-2379
▁yhtenäis	-2380
una	-2381
ettu	-2382
▁aloi	-2383
▁nimen	-2384
▁lähesty	-2385
por	-2386
otta	-2387
mukset	-2388
▁sille	-2389
poliitt	-2390
tieteen	-2391
▁ammatti	-2392
ru	-2393
läh	-2394
▁parha	-2395
▁kaupun	-2396
kulje	-2397
▁usea	-2398
▁kiire	-2399
▁työjärjes	-2400
NG	-2401
UE	-2402
ysym	-2403
▁vaihe	-2404
▁varsin	-2405
▁Co	-2406
▁onni	-2407
▁tavar	-2408
▁komite	-2409
▁Onko	-2410
▁tavoi	-2411
▁mietintöä	-2412
▁Parlamentti	-2413
ba	-2414
▁monet	-2415
▁hyväksi	-2416
fi	-2417
▁osoi	-2418
istaan	-2419
▁järke	-2420
▁asetta	-2421
▁olevien	-2422
▁valtioiden	-2423
▁lopp	-2424
▁lyhy	-2425
▁virka	-2426
▁puhemieh	-2427
▁järjestelmän	-2428
ynn	-2429
▁Te	-2430
tunti	-2431
▁itsen	-2432
▁tarjoa	-2433
▁toimenpiteitä	-2434
vun	-2435
▁mies	-2436
▁kolme	-2437
▁väline	-2438
▁toteuttaa	-2439
▁politiikan	-2440
▁yhteistyön	-2441
▁välttämättö	-2442
meren	-2443
ist	-2444
▁rea	-2445
ttuna	-2446
▁hava	-2447
▁alkuperä	-2448
▁koulutus	-2449
▁kysymyksen	-2450
▁tarkoittaa	-2451
▁komissiolle	-2452
ED	-2453
▁Ol	-2454
vesto	-2455
▁näistä	-2456
▁alueiden	-2457
▁toimintaa	-2458
▁olo	-2459
sissa	-2460
▁tuon	-2461
musten	-2462
▁tavara	-2463
▁sisältää	-2464
määr	-2465
▁ras	-2466
innin	-2467
▁maini	-2468
▁jolloin	-2469
ministeri	-2470
▁poliittisen	-2471
NGL	-2472
käsi	-2473
▁Emme	-2474
▁käynn	-2475
▁uskon	-2476
▁laatima	-2477
▁mahdollisuus	-2478
▁talousarvion	-2479
estu	-2480
ikaa	-2481
ttuur	-2482
▁edes	-2483
▁ansio	-2484
▁hallinno	-2485
▁t	-2486
sian	-2487
ikasta	-2488
▁kaupa	-2489
▁siirty	-2490
▁useita	-2491
▁ulkopuole	-2492
xem	-2493
▁Hy	-2494
▁apu	-2495
▁kär	-2496
estin	-2497
▁vien	-2498
▁vaali	-2499
▁määrit	-2500
▁väärin	-2501
TY	-2502
jät	-2503
▁Her	-2504
neiden	-2505
toista	-2506
▁nopeasti	-2507
▁vaikutta	-2508
▁keskustelun	-2509
▁rakennerahasto	-2510
ikö	-2511
aali	-2512
erin	-2513
▁kahd	-2514
▁väes	-2515
ksemme	-2516
▁myötä	-2517
▁vahin	-2518
▁tietää	-2519
▁toinen	-2520
▁kysymykseen	-2521
▁hi	-2522
laista	-2523
▁kasva	-2524
▁laito	-2525
▁paremp	-2526
▁Yhteisön	-2527
▁lähe	-2528
päätös	-2529
▁ehdotuksia	-2530
▁poliittinen	-2531
▁ve	-2532
▁BSE	-2533
▁taka	-2534
isilla	-2535
▁erityis	-2536
▁päivänä	-2537
▁myöskään	-2538
ket	-2539
▁Kä	-2540
uksena	-2541
▁muassa	-2542
▁suorit	-2543
▁olemaan	-2544
vii	-2545
▁11	-2546
▁ulo	-2547
istelu	-2548
valtio	-2549
▁Irlan	-2550
▁kaiken	-2551
▁kunnio	-2552
▁tehdään	-2553
▁hyväksyt	-2554
▁kehitystä	-2555
▁merkitsee	-2556
-0	-2557
tystä	-2558
▁kiinno	-2559
▁Amsterdamin	-2560
▁Per	-2561
▁Neuvosto	-2562
▁toimielinten	-2563
▁maat	-2564
▁vaara	-2565
▁Toinen	-2566
▁luotta	-2567
▁niihin	-2568
rys	-2569
▁Kesk	-2570
▁lausun	-2571
▁jäsenten	-2572
▁vastusta	-2573
▁työllisyys	-2574
riin	-2575
vaan	-2576
vara	-2577
kysym	-2578
▁tupa	-2579
▁päättä	-2580
hi	-2581
▁ho	-2582
jeli	-2583
neksi	-2584
talou	-2585
▁Tätä	-2586
▁sala	-2587
▁tietoa	-2588
▁uusien	-2589
▁huolestu	-2590
▁onnitella	-2591
▁luonnollisesti	-2592
kein	-2593
▁puhe	-2594
▁veto	-2595
teistä	-2596
▁olenna	-2597
▁lisäänty	-2598
rd	-2599
kasta	-2600
llään	-2601
▁este	-2602
▁taas	-2603
▁aikoo	-2604
▁Alanko	-2605
▁haluaa	-2606
▁asiakirja	-2607
taar	-2608
essaan	-2609
▁joulu	-2610
▁Kysymys	-2611
▁aikaise	-2612
▁annetta	-2613
▁näkökul	-2614
▁tietoja	-2615
▁paremmin	-2616
▁todellakin	-2617
",	-2618
destä	-2619
▁toden	-2620
▁hyödyn	-2621
▁ainakin	-2622
▁edellyty	-2623
UPE	-2624
▁hen	-2625
▁Mikä	-2626
▁sääd	-2627
▁Luxem	-2628
▁kyllä	-2629
▁miksi	-2630
▁kuljetus	-2631
▁Kysymyksen	-2632
▁kolm	-2633
▁osin	-2634
▁seuran	-2635
▁otettava	-2636
▁mietinnöstä	-2637
▁g	-2638
moin	-2639
▁bio	-2640
▁Tark	-2641
▁roop	-2642
▁terro	-2643
▁sijaan	-2644
▁ehdotus	-2645
▁näyttää	-2646
▁käytettä	-2647
▁Pää	-2648
▁kesä	-2649
▁kestä	-2650
▁jonkin	-2651
▁pyytää	-2652
▁saanut	-2653
▁tietenkin	-2654
olo	-2655
▁poli	-2656
▁tunte	-2657
▁toista	-2658
▁Vastaus	-2659
▁vahviste	-2660
▁asianmuka	-2661
seu	-2662
▁Ky	-2663
itään	-2664
isissa	-2665
muutta	-2666
▁kieltä	-2667
▁tarkistuksia	-2668
rten	-2669
▁ilmi	-2670
▁rauhan	-2671
▁lopulta	-2672
▁välinen	-2673
▁vahvistaa	-2674
oma	-2675
▁Vuo	-2676
▁Jäsen	-2677
▁annet	-2678
▁lähtö	-2679
▁siltä	-2680
▁todeta	-2681
▁tarkoituksena	-2682
▁Ber	-2683
▁Kol	-2684
▁osan	-2685
ittanut	-2686
▁oikeusasia	-2687
▁Ho	-2688
▁2000	-2689
▁rikko	-2690
▁lainsäädännön	-2691
▁tiedotus	-2692
daa	-2693
▁EM	-2694
▁vall	-2695
▁huono	-2696
▁neljä	-2697
▁vaadi	-2698
isterin	-2699
▁tuotan	-2700
▁ratkais	-2701
▁kaikille	-2702
▁liittyviä	-2703
raho	-2704
ieman	-2705
raken	-2706
intään	-2707
▁Keski	-2708
▁monim	-2709
▁sovell	-2710
▁alueilla	-2711
▁yhteinen	-2712
IR	-2713
hei	-2714
uko	-2715
ittel	-2716
päivä	-2717
▁raho	-2718
▁huomi	-2719
▁syytä	-2720
▁uudistu	-2721
▁eurooppalaisen	-2722
paan	-2723
▁asu	-2724
▁lou	-2725
mästi	-2726
toimi	-2727
▁alan	-2728
▁poikke	-2729
▁aiheutu	-2730
▁tasapaino	-2731
▁koo	-2732
isenä	-2733
▁kertaa	-2734
▁toteutu	-2735
▁koskevaa	-2736
iassa	-2737
▁eteen	-2738
▁perustamissopim	-2739
SV	-2740
art	-2741
ikeu	-2742
hteer	-2743
vassa	-2744
▁kasvi	-2745
▁uutta	-2746
istusten	-2747
▁välittö	-2748
▁maatalou	-2749
▁direktiivi	-2750
nne	-2751
▁1.	-2752
▁löy	-2753
▁huume	-2754
▁päivä	-2755
▁investo	-2756
periaatte	-2757
▁kulttuur	-2758
▁Luxemburg	-2759
▁toisaalta	-2760
▁tapauksissa	-2761
▁Un	-2762
▁tur	-2763
▁Itali	-2764
▁päättää	-2765
▁huomautu	-2766
rö	-2767
uden	-2768
▁pois	-2769
▁raja	-2770
▁Minun	-2771
▁risti	-2772
▁hieman	-2773
▁teidän	-2774
isuudessa	-2775
arlamentti	-2776
ensä	-2777
varo	-2778
▁nor	-2779
▁sanon	-2780
▁puuttu	-2781
▁institu	-2782
laj	-2783
ona	-2784
▁14	-2785
▁vie	-2786
▁alka	-2787
▁takia	-2788
▁jousta	-2789
▁olleet	-2790
▁tulevat	-2791
▁vähentä	-2792
▁elintarv	-2793
▁voimakkaa	-2794
mille	-2795
▁histo	-2796
▁kohti	-2797
▁Kaikki	-2798
▁sisällä	-2799
▁yhteisöjen	-2800
▁viranomaisten	-2801
▁'	-2802
päin	-2803
tell	-2804
ongel	-2805
▁Alger	-2806
▁suuria	-2807
▁pöytäkirja	-2808
GUE	-2809
tse	-2810
▁ponn	-2811
▁kiinni	-2812
▁kohdan	-2813
▁suhtautu	-2814
DA	-2815
usa	-2816
▁Vo	-2817
▁tö	-2818
▁hin	-2819
tieto	-2820
▁saattaa	-2821
▁tietojen	-2822
kojen	-2823
▁Yksi	-2824
▁oman	-2825
jois	-2826
udan	-2827
ikään	-2828
▁naiset	-2829
▁niille	-2830
koa	-2831
▁(197	-2832
isellä	-2833
teinen	-2834
valtaa	-2835
▁yritys	-2836
▁Ensimmä	-2837
▁myönnet	-2838
▁ihmisoikeuksien	-2839
KO	-2840
▁mel	-2841
▁ope	-2842
▁use	-2843
neita	-2844
▁Miet	-2845
▁määrin	-2846
▁luonnon	-2847
▁ristiri	-2848
tiä	-2849
▁30	-2850
essään	-2851
▁lääke	-2852
▁milja	-2853
▁minkä	-2854
▁ryhty	-2855
▁synty	-2856
▁suoraan	-2857
▁voimassa	-2858
Parlamentti	-2859
tyslistalla	-2860
▁täytäntöönpano	-2861
KT	-2862
lee	-2863
stuu	-2864
innon	-2865
▁Ranska	-2866
▁Mu	-2867
näkö	-2868
nalle	-2869
▁saavat	-2870
▁vapautta	-2871
istö	-2872
sään	-2873
▁muuten	-2874
▁ymmärr	-2875
▁kuluttajan	-2876
ij	-2877
ysti	-2878
▁ali	-2879
▁Tälla	-2880
▁henkilös	-2881
itän	-2882
rich	-2883
▁Väli	-2884
▁kohtaa	-2885
▁tekemään	-2886
▁muistuttaa	-2887
▁yhteiskunna	-2888
▁valitettavasti	-2889
▁mahdollisuuksia	-2890
tis	-2891
▁25	-2892
jaan	-2893
▁huippu	-2894
▁jatkaa	-2895
▁voimaan	-2896
▁yhteistä	-2897
▁16	-2898
▁roh	-2899
▁maks	-2900
▁näkem	-2901
▁puoli	-2902
▁sovel	-2903
yksestä	-2904
▁olette	-2905
▁talouden	-2906
▁aiheuttaa	-2907
▁käytetään	-2908
▁esittelijän	-2909
kes	-2910
mmik	-2911
teitä	-2912
▁ansa	-2913
ksessa	-2914
llistä	-2915
uksiin	-2916
▁kokoon	-2917
▁aloilla	-2918
▁ensimmäinen	-2919
▁keskustelua	-2920
der	-2921
▁eu	-2922
▁Bel	-2923
istel	-2924
muuden	-2925
▁Uskon	-2926
▁liitto	-2927
tuksista	-2928
▁terveys	-2929
▁vähemmän	-2930
▁tavoitteena	-2931
teta	-2932
vittä	-2933
▁saata	-2934
▁vastaava	-2935
/96	-2936
hen	-2937
uol	-2938
▁rek	-2939
kästä	-2940
▁Brys	-2941
▁osaa	-2942
ritann	-2943
▁olevat	-2944
▁koskaan	-2945
▁tuotteiden	-2946
▁Mc	-2947
seen	-2948
▁mole	-2949
kkeiden	-2950
▁valtuu	-2951
▁minulle	-2952
▁18	-2953
▁EP	-2954
maatt	-2955
tetun	-2956
▁paten	-2957
▁takaa	-2958
▁pohjalta	-2959
▁Äänestys	-2960
▁alueellis	-2961
▁kansalais	-2962
▁varmistaa	-2963
▁vastuussa	-2964
▁asiantunti	-2965
US	-2966
tän	-2967
tuga	-2968
▁luu	-2969
ganis	-2970
▁komp	-2971
strich	-2972
▁kasvu	-2973
▁täyttä	-2974
▁käännös	-2975
▁hallinto	-2976
▁tarkoitus	-2977
▁Ca	-2978
rien	-2979
tulo	-2980
ortuga	-2981
▁tullut	-2982
▁arvoisat	-2983
▁lausunnon	-2984
hön	-2985
▁anal	-2986
▁ranga	-2987
▁yliop	-2988
▁Saksan	-2989
▁ongelman	-2990
▁Maastrich	-2991
▁käsitellään	-2992
ARE	-2993
tiiv	-2994
▁teho	-2995
▁mistä	-2996
▁valmi	-2997
lliseen	-2998
▁samoin	-2999
▁asettaa	-3000
▁sitoutu	-3001
▁annetaan	-3002
▁markkina	-3003
▁tunnusta	-3004
▁ratkaista	-3005
▁ihmisoikeus	-3006
▁turvallisuu	-3007
▁lähestymista	-3008
kus	-3009
kinto	-3010
uksella	-3011
▁syistä	-3012
▁jäsenen	-3013
▁tärkeitä	-3014
▁tilanteen	-3015
▁teollisuus	-3016
▁mielestämme	-3017
▁mahdollisuuden	-3018
10	-3019
dun	-3020
käy	-3021
tetu	-3022
mahdo	-3023
▁maahan	-3024
valiokunta	-3025
▁kansalaiset	-3026
▁kehittämistä	-3027
▁taloudellisten	-3028
.0	-3029
▁Le	-3030
▁aa	-3031
tilan	-3032
voima	-3033
▁päte	-3034
misessä	-3035
▁vuosina	-3036
▁suuntavii	-3037
▁Kre	-3038
etaan	-3039
liiton	-3040
oidaan	-3041
järjestön	-3042
▁sosiaalisen	-3043
ras	-3044
▁1999	-3045
proses	-3046
talous	-3047
▁vaikutus	-3048
▁kumppanuus	-3049
▁jäsenvaltio	-3050
kyky	-3051
teri	-3052
▁inf	-3053
ksille	-3054
uttava	-3055
▁monia	-3056
▁puolu	-3057
▁suunn	-3058
▁mukana	-3059
▁myöntä	-3060
▁hyväksyn	-3061
▁järjestö	-3062
▁ohjelman	-3063
▁kysymyksiä	-3064
▁parlamenttia	-3065
▁taloudellisen	-3066
▁kö	-3067
-199	-3068
maksu	-3069
▁Tähän	-3070
▁kunni	-3071
▁määrää	-3072
▁ehdotto	-3073
▁tavaroiden	-3074
▁poliittista	-3075
vaati	-3076
▁johtu	-3077
▁jättä	-3078
▁lähen	-3079
▁tavoite	-3080
▁kaikissa	-3081
▁mielessä	-3082
▁täysistu	-3083
▁vapaaehto	-3084
imme	-3085
tsin	-3086
vaik	-3087
▁kärsi	-3088
▁viera	-3089
▁ehdotta	-3090
▁menetel	-3091
▁ongelmat	-3092
▁perustuu	-3093
▁kunnioitta	-3094
▁kansallisen	-3095
▁yksityiskohta	-3096
▁kansainvälisen	-3097
▁Ar	-3098
▁ur	-3099
▁tah	-3100
anaan	-3101
ssaan	-3102
tetut	-3103
▁Alban	-3104
▁epäil	-3105
▁julki	-3106
▁suori	-3107
▁viita	-3108
▁välin	-3109
glan	-3110
demok	-3111
laaju	-3112
▁asiat	-3113
▁metsä	-3114
▁siellä	-3115
▁ehdotusta	-3116
▁Ensinnäkin	-3117
▁henkilökohta	-3118
2.	-3119
gu	-3120
koi	-3121
urop	-3122
▁Pyy	-3123
hansa	-3124
menna	-3125
▁moni	-3126
▁pila	-3127
▁vaatii	-3128
▁iloinen	-3129
▁haluavat	-3130
▁parantaa	-3131
▁käytännön	-3132
▁suhteessa	-3133
▁tapahtunut	-3134
▁konferenssin	-3135
▁tarkistuksen	-3136
TE	-3137
▁or	-3138
misto	-3139
▁pano	-3140
▁onkin	-3141
▁Meillä	-3142
▁joukko	-3143
oikeuden	-3144
▁vaiheessa	-3145
▁seuraavana	-3146
▁sopimukseen	-3147
ib	-3148
mas	-3149
▁Poh	-3150
▁hyödy	-3151
▁lähes	-3152
▁saira	-3153
kustann	-3154
▁auttaa	-3155
▁lopuksi	-3156
▁selväksi	-3157
▁tarkistus	-3158
▁edellyttää	-3159
ilua	-3160
iske	-3161
uhti	-3162
joita	-3163
▁kesken	-3164
▁periaa	-3165
▁suuren	-3166
toimenpi	-3167
▁istunto	-3168
▁tosiasia	-3169
AS	-3170
ca	-3171
des	-3172
kkä	-3173
....	-3174
stel	-3175
dämme	-3176
▁Sitä	-3177
▁päin	-3178
stusta	-3179
▁heinä	-3180
▁puhua	-3181
▁pääse	-3182
puolueen	-3183
▁säännös	-3184
▁mainittu	-3185
▁säilyttä	-3186
▁huippukoko	-3187
▁käsiteltävä	-3188
ck	-3189
ani	-3190
koja	-3191
▁neu	-3192
▁Tois	-3193
ksissa	-3194
viljeli	-3195
▁minulla	-3196
▁sovittelu	-3197
▁pe	-3198
▁Pal	-3199
▁pian	-3200
▁maaseu	-3201
teknolog	-3202
▁lähtien	-3203
▁muuttaa	-3204
▁sovelle	-3205
suunnitel	-3206
▁sellaisen	-3207
▁demokratian	-3208
▁yhdenmukaista	-3209
oa	-3210
EDN	-3211
dät	-3212
ojen	-3213
▁hal	-3214
▁kolmen	-3215
▁ihmiset	-3216
▁loppuun	-3217
▁yleensä	-3218
▁tiedämme	-3219
▁yhteenso	-3220
menettelyn	-3221
▁asetuksen	-3222
▁oikeastaan	-3223
järjestelmää	-3224
▁päätöslauselman	-3225
maat	-3226
▁Temp	-3227
▁mihin	-3228
▁ensimmäisen	-3229
ord	-3230
▁lin	-3231
ikassa	-3232
isissä	-3233
▁tulla	-3234
▁vaike	-3235
kästään	-3236
▁pyrkim	-3237
▁tarpeen	-3238
▁jatkuvasti	-3239
jn	-3240
imp	-3241
▁hyl	-3242
▁lap	-3243
isyys	-3244
itteet	-3245
ittiin	-3246
▁estää	-3247
▁kuule	-3248
▁rajat	-3249
kuntien	-3250
▁kantaa	-3251
▁lisätä	-3252
▁muista	-3253
▁rakenne	-3254
▁laajenta	-3255
▁varmista	-3256
▁allekirjo	-3257
▁demokratia	-3258
▁politiikkaa	-3259
▁hake	-3260
▁jaka	-3261
▁uiko	-3262
▁kuole	-3263
▁muoto	-3264
▁suoja	-3265
▁tukee	-3266
▁huomenna	-3267
▁kin	-3268
tensa	-3269
▁pain	-3270
▁suku	-3271
▁asioista	-3272
▁kokonais	-3273
▁teollisuuden	-3274
keh	-3275
kossa	-3276
tusti	-3277
▁perä	-3278
▁kanta	-3279
▁kauan	-3280
▁aloittaa	-3281
tettaisiin	-3282
ub	-3283
siin	-3284
▁itsenä	-3285
▁tammik	-3286
▁toimeen	-3287
▁ansiosta	-3288
▁yritykset	-3289
▁huomattavasti	-3290
ly	-3291
▁ä	-3292
udu	-3293
▁Na	-3294
telä	-3295
▁köyh	-3296
▁Inter	-3297
▁loppu	-3298
▁taiste	-3299
▁tahansa	-3300
▁keskitty	-3301
▁merkitystä	-3302
▁kustannukset	-3303
AT	-3304
ug	-3305
▁kaa	-3306
▁tuom	-3307
▁lähet	-3308
tuksiin	-3309
▁Tempus	-3310
▁muodosta	-3311
▁olisivat	-3312
▁kuluttajien	-3313
OP	-3314
mon	-3315
▁Muu	-3316
▁Tut	-3317
innän	-3318
▁aine	-3319
▁alusta	-3320
▁jättää	-3321
▁paitsi	-3322
▁proses	-3323
▁uudista	-3324
▁velvollisuu	-3325
▁mahdollisesti	-3326
mann	-3327
villa	-3328
udanli	-3329
▁Kypro	-3330
▁suurin	-3331
▁tehneet	-3332
▁vastata	-3333
▁tietysti	-3334
▁kokouksessa	-3335
▁viranomaiset	-3336
nat	-3337
ivat	-3338
koon	-3339
▁Työ	-3340
▁ain	-3341
▁asen	-3342
▁tuen	-3343
▁tuho	-3344
▁Herra	-3345
▁totta	-3346
▁huoleh	-3347
▁aloitta	-3348
▁päätöks	-3349
▁terroris	-3350
▁selkeästi	-3351
▁tullilaito	-3352
▁tulevaisuuden	-3353
yttö	-3354
della	-3355
▁ilme	-3356
▁banaan	-3357
järjestö	-3358
liokunta	-3359
▁pyritään	-3360
▁terveyden	-3361
▁osallistua	-3362
▁maailmanlaaju	-3363
del	-3364
lää	-3365
kiel	-3366
mina	-3367
▁ava	-3368
▁nähd	-3369
▁vähä	-3370
▁tuoda	-3371
rahasto	-3372
yksille	-3373
▁epäile	-3374
▁huolen	-3375
▁saatta	-3376
▁kohdalla	-3377
▁pelkästään	-3378
▁toimenpiteet	-3379
▁Esityslistalla	-3380
tur	-3381
▁He	-3382
itkä	-3383
▁kar	-3384
▁pik	-3385
yhtiö	-3386
▁mene	-3387
hdosta	-3388
▁ranska	-3389
▁tiedot	-3390
▁vastuun	-3391
▁liittyvä	-3392
▁tutkimuksen	-3393
KU	-3394
su	-3395
ene	-3396
muus	-3397
otto	-3398
istää	-3399
kuksen	-3400
▁ilmen	-3401
▁pyytä	-3402
▁Hollan	-3403
▁aktiiv	-3404
▁ylittä	-3405
▁sisälly	-3406
▁enemmistö	-3407
▁oikeuksia	-3408
▁vaihtoehto	-3409
3.	-3410
kra	-3411
lon	-3412
sista	-3413
▁auto	-3414
▁vetoo	-3415
▁kymmen	-3416
▁hankkeen	-3417
▁esitetään	-3418
▁Keskustelu	-3419
▁sopimusten	-3420
▁re	-3421
llei	-3422
illaan	-3423
llisiä	-3424
▁syrjä	-3425
lueiden	-3426
▁muihin	-3427
▁tilannetta	-3428
▁kansalliset	-3429
▁tarkistusta	-3430
▁taloudellinen	-3431
30	-3432
▁äs	-3433
vapa	-3434
▁nro	-3435
▁tii	-3436
▁yks	-3437
tujen	-3438
maissa	-3439
▁Union	-3440
▁Viime	-3441
▁ensin	-3442
▁kompro	-3443
▁välistä	-3444
▁yhdenty	-3445
▁määritel	-3446
▁asiakirjo	-3447
▁myöhemmin	-3448
▁institution	-3449
▁is	-3450
▁(199	-3451
▁pyynn	-3452
▁merkin	-3453
▁osapuo	-3454
▁viitta	-3455
▁koroste	-3456
▁kannatta	-3457
▁suuntaan	-3458
▁tuotanto	-3459
▁yhteensä	-3460
▁sanottava	-3461
▁artiklassa	-3462
▁riippumatto	-3463
▁mahdollisuudet	-3464
);	-3465
-,	-3466
ren	-3467
▁EY	-3468
▁Mo	-3469
utka	-3470
ääri	-3471
▁ssa	-3472
▁1994	-3473
▁hark	-3474
▁kuva	-3475
ettelo	-3476
▁laaje	-3477
yydestä	-3478
▁Espanjan	-3479
▁kaikista	-3480
▁kasvilaj	-3481
▁käsiteltä	-3482
▁johtopäätö	-3483
KOM	-3484
oitan	-3485
▁haaste	-3486
kunnassa	-3487
▁pääasia	-3488
▁vastaavan	-3489
▁päätöksente	-3490
▁seurauksena	-3491
ilman	-3492
jöitä	-3493
tarka	-3494
stunto	-3495
▁Saksa	-3496
▁huhti	-3497
▁esitti	-3498
▁maalis	-3499
▁maassa	-3500
▁olevia	-3501
▁ulottu	-3502
▁Pohjois	-3503
▁menesty	-3504
▁organis	-3505
▁tilasto	-3506
▁oikeutta	-3507
▁tehokkuu	-3508
▁tiedätte	-3509
▁esimerkki	-3510
▁työmarkkin	-3511
▁keskustella	-3512
▁toimitetaan	-3513
kot	-3514
▁osi	-3515
ryhmä	-3516
▁Amer	-3517
▁keho	-3518
luotta	-3519
▁miele	-3520
▁tunne	-3521
ohjelma	-3522
onnistu	-3523
▁olosuh	-3524
▁toimet	-3525
▁johtaja	-3526
▁väliaika	-3527
▁ymmärtää	-3528
▁monimutka	-3529
▁koskevasta	-3530
▁ten	-3531
▁melko	-3532
istettava	-3533
▁vastaano	-3534
▁tilanteesta	-3535
▁työntekijöiden	-3536
LA	-3537
du	-3538
tansa	-3539
▁tyyd	-3540
▁salli	-3541
▁vihreä	-3542
neuvosto	-3543
▁jäseniä	-3544
▁asioiden	-3545
▁ehdottaa	-3546
▁kaikkein	-3547
▁riittävästi	-3548
▁puheenvuoron	-3549
kto	-3550
imin	-3551
stan	-3552
▁WTO	-3553
▁pur	-3554
jetta	-3555
▁rooli	-3556
▁kolleg	-3557
▁Entinen	-3558
▁kunnioi	-3559
▁naudanli	-3560
▁sanotaan	-3561
▁esittelijää	-3562
kejä	-3563
pitä	-3564
▁AKT	-3565
▁leh	-3566
iston	-3567
▁inno	-3568
▁touko	-3569
ellista	-3570
yksissä	-3571
▁pyydän	-3572
▁muutoksia	-3573
▁sosiaaliturva	-3574
▁toimenpiteisiin	-3575
RO	-3576
ry	-3577
ity	-3578
▁YK	-3579
osla	-3580
visi	-3581
▁jne	-3582
▁kor	-3583
▁johd	-3584
▁Europ	-3585
▁arvio	-3586
▁human	-3587
▁eläinten	-3588
▁matkailu	-3589
▁vakuuttu	-3590
▁ministeri	-3591
▁puolustus	-3592
▁yhteensov	-3593
▁taloudellista	-3594
ana	-3595
tasa	-3596
▁200	-3597
▁kuo	-3598
▁sol	-3599
▁Ehdo	-3600
▁Minä	-3601
hankke	-3602
▁arvioi	-3603
▁tekevät	-3604
▁ponnistelu	-3605
▁ehdotuksesta	-3606
▁taloudellisia	-3607
▁Lan	-3608
▁heti	-3609
valtuu	-3610
▁autta	-3611
▁virhe	-3612
▁Mikäli	-3613
▁Turkin	-3614
▁suurta	-3615
sasioita	-3616
▁saadaan	-3617
▁ymmärtä	-3618
▁kyseisen	-3619
▁äänestää	-3620
▁vähintään	-3621
▁Maastrichtin	-3622
NI	-3623
fl	-3624
▁Is	-3625
inte	-3626
sion	-3627
▁EPJ	-3628
▁onn	-3629
jäsen	-3630
tyvät	-3631
▁verk	-3632
▁rahaa	-3633
▁petosten	-3634
▁toissija	-3635
▁eteenpäin	-3636
▁sopimusta	-3637
mahdollisuu	-3638
▁vaikutuksia	-3639
20	-3640
LT	-3641
ara	-3642
isch	-3643
▁197	-3644
▁TIR	-3645
ismin	-3646
kuulu	-3647
▁Pati	-3648
sialis	-3649
▁asema	-3650
yksistä	-3651
▁ryhtyä	-3652
▁työstä	-3653
▁suoritta	-3654
▁toimintaan	-3655
▁toimivalta	-3656
▁konferenssi	-3657
▁käytännössä	-3658
▁jäsenvaltion	-3659
▁tarkistukset	-3660
29	-3661
ena	-3662
har	-3663
piir	-3664
utti	-3665
▁Kuu	-3666
siden	-3667
▁euro	-3668
▁sall	-3669
▁sama	-3670
▁sata	-3671
▁Siinä	-3672
▁määrän	-3673
▁roopan	-3674
▁etusija	-3675
▁ryhmäni	-3676
keskuksen	-3677
▁kohdassa	-3678
▁viraston	-3679
▁todennäkö	-3680
▁kolmansien	-3681
▁sellaisten	-3682
ETY	-3683
mik	-3684
kansa	-3685
kerto	-3686
tettua	-3687
▁korja	-3688
▁meren	-3689
▁selvi	-3690
tettujen	-3691
▁virasto	-3692
▁puolusta	-3693
▁toimitta	-3694
▁vuodesta	-3695
▁ilmoittaa	-3696
etty	-3697
▁its	-3698
omaan	-3699
▁savu	-3700
miehen	-3701
▁Japan	-3702
istettu	-3703
sopimus	-3704
▁Patijn	-3705
▁herrat	-3706
istuksen	-3707
▁toimiin	-3708
▁vuosien	-3709
▁Toisaalta	-3710
▁varsinkin	-3711
▁tulliviranoma	-3712
▁valiokunnassa	-3713
ce	-3714
engen	-3715
suoje	-3716
▁matk	-3717
uksien	-3718
▁kalta	-3719
▁alkaen	-3720
▁istunn	-3721
▁johtuu	-3722
llisessa	-3723
▁antanut	-3724
▁Yhdysval	-3725
▁kaikkiin	-3726
▁neuvostolle	-3727
.00	-3728
tely	-3729
▁Rot	-3730
▁aio	-3731
▁ken	-3732
▁Toivo	-3733
▁säädö	-3734
▁taata	-3735
toimipa	-3736
▁etujen	-3737
merkiksi	-3738
▁Schengen	-3739
▁ilmoitta	-3740
▁takaisin	-3741
▁voisivat	-3742
tieteellis	-3743
▁aikaisemmin	-3744
40	-3745
pun	-3746
▁II	-3747
vina	-3748
▁EMU	-3749
▁sin	-3750
tunut	-3751
▁pyyn	-3752
▁Sillä	-3753
▁jotain	-3754
▁Italian	-3755
▁jotakin	-3756
▁minusta	-3757
▁ohjelma	-3758
▁ilmaista	-3759
▁käytössä	-3760
lainsäädän	-3761
▁päättynyt	-3762
▁oikeuksien	-3763
kone	-3764
jalla	-3765
▁oppi	-3766
▁askel	-3767
▁etuja	-3768
▁tälle	-3769
▁käytän	-3770
▁niillä	-3771
▁Espanja	-3772
▁kuuluvat	-3773
▁tällaista	-3774
▁voimakkaasti	-3775
▁c	-3776
htä	-3777
ppo	-3778
tai	-3779
arvi	-3780
ikin	-3781
▁sil	-3782
tilaa	-3783
teista	-3784
yyteen	-3785
▁joten	-3786
▁urhei	-3787
▁saaneet	-3788
▁vakavasti	-3789
▁koskevassa	-3790
▁korkeakoulu	-3791
sy	-3792
aati	-3793
giaa	-3794
verk	-3795
ikeus	-3796
▁1992	-3797
▁rati	-3798
▁merki	-3799
▁aluksi	-3800
▁sanoen	-3801
▁suunna	-3802
▁viiden	-3803
▁aiheesta	-3804
▁pidetään	-3805
▁tunnuste	-3806
liikenteen	-3807
▁epäluotta	-3808
llisuudessa	-3809
▁politiikka	-3810
▁kysymyksiin	-3811
▁sovelletaan	-3812
kän	-3813
alan	-3814
into	-3815
▁Seu	-3816
▁Itse	-3817
▁apua	-3818
▁koti	-3819
▁kysy	-3820
▁omaa	-3821
▁kannan	-3822
▁laatia	-3823
▁laitto	-3824
istetaan	-3825
▁parempi	-3826
▁äänestys	-3827
▁erilaisia	-3828
▁tieteellis	-3829
iss	-3830
▁man	-3831
ikevi	-3832
▁haki	-3833
▁kertom	-3834
▁toimii	-3835
konferen	-3836
▁mainita	-3837
▁näkökoh	-3838
▁täydellis	-3839
▁toimenpiteiden	-3840
▁.	-3841
ari	-3842
kyv	-3843
voin	-3844
▁PPE	-3845
▁tiety	-3846
▁otettu	-3847
▁väestö	-3848
▁entistä	-3849
▁kalastu	-3850
▁käyttöä	-3851
▁sanottu	-3852
▁tärkein	-3853
▁Algerian	-3854
▁perustaa	-3855
▁ajankohta	-3856
▁tarkastel	-3857
▁tehokkaasti	-3858
▁näkökulmasta	-3859
▁De	-3860
▁Uu	-3861
-198	-3862
tand	-3863
telu	-3864
▁vel	-3865
tyjen	-3866
▁ecun	-3867
▁kehi	-3868
▁nous	-3869
▁varma	-3870
▁verra	-3871
residen	-3872
▁käytön	-3873
▁Portuga	-3874
▁toimien	-3875
alle	-3876
taso	-3877
immat	-3878
mpien	-3879
uuden	-3880
▁laki	-3881
immäis	-3882
isivät	-3883
kymmen	-3884
▁teemme	-3885
▁varain	-3886
▁yrittä	-3887
▁pitänyt	-3888
▁tervetu	-3889
▁yleisen	-3890
▁sisältyy	-3891
▁saavuttaa	-3892
▁tarvitsemme	-3893
▁lainsäädäntöä	-3894
TI	-3895
alu	-3896
pen	-3897
ikon	-3898
▁kah	-3899
ltaan	-3900
temme	-3901
▁joko	-3902
▁mieh	-3903
▁taan	-3904
▁Näiden	-3905
▁muissa	-3906
▁muutamia	-3907
▁kiinnostu	-3908
▁valvonnan	-3909
▁ministerin	-3910
hy	-3911
▁Ch	-3912
omen	-3913
itaar	-3914
maton	-3915
▁piir	-3916
lemaan	-3917
ugosla	-3918
▁kuuka	-3919
▁rapor	-3920
▁johdon	-3921
▁näihin	-3922
▁kriteer	-3923
▁vastoin	-3924
▁rajoitta	-3925
▁Välimeren	-3926
▁annettava	-3927
▁liittyvien	-3928
▁parlamentaar	-3929
/9	-3930
▁Kiin	-3931
▁geen	-3932
▁tuli	-3933
▁ääri	-3934
loutta	-3935
menetel	-3936
puolten	-3937
tettuja	-3938
▁toisin	-3939
isuudesta	-3940
▁keskisuu	-3941
▁mietinnö	-3942
▁yliopisto	-3943
▁ehdotukset	-3944
50	-3945
öl	-3946
llo	-3947
kinä	-3948
▁hei	-3949
▁täs	-3950
▁ryhd	-3951
kaamme	-3952
luonno	-3953
väline	-3954
Britann	-3955
▁Jugosla	-3956
▁ihmisiä	-3957
▁odottaa	-3958
▁rekiste	-3959
▁saatava	-3960
▁tuotann	-3961
▁kehittää	-3962
▁soveltaa	-3963
valtioiden	-3964
▁kuluttaja	-3965
▁maanviljeli	-3966
▁yhteensovitta	-3967
gi	-3968
yr	-3969
▁24	-3970
▁No	-3971
▁do	-3972
liin	-3973
▁Bar	-3974
viksi	-3975
▁Venä	-3976
▁herä	-3977
▁ilta	-3978
▁Talou	-3979
▁eriko	-3980
▁stand	-3981
▁äänes	-3982
▁kirjan	-3983
llisesta	-3984
▁aiemmin	-3985
▁antamaan	-3986
▁tuloksia	-3987
▁valmista	-3988
▁yhdenmuka	-3989
▁päätökseen	-3990
▁esityslista	-3991
▁työskentele	-3992
mpan	-3993
vaih	-3994
▁sivi	-3995
▁edessä	-3996
▁maista	-3997
▁muuttu	-3998
▁opetta	-3999
▁opiske	-4000
▁Minusta	-4001
▁annettu	-4002
▁kiireellis	-4003
▁kysymykset	-4004
▁työpaikkoja	-4005
▁markkinoiden	-4006
▁yhteistyössä	-4007
rei	-4008
ilja	-4009
umer	-4010
▁den	-4011
▁ruo	-4012
kulku	-4013
sehdo	-4014
tonin	-4015
▁Joka	-4016
▁edun	-4017
▁etsi	-4018
netään	-4019
täminen	-4020
komitean	-4021
▁vaikeaa	-4022
▁huomatta	-4023
▁johdosta	-4024
▁Eurooppan	-4025
▁kannattaa	-4026
▁kuukauden	-4027
▁yleisesti	-4028
▁humanitaar	-4029
▁menettelyn	-4030
▁elintarvikke	-4031
▁työllisyyttä	-4032
▁ulkopuolelle	-4033
▁turvallisuuden	-4034
tkut	-4035
▁100	-4036
▁Ban	-4037
▁Suu	-4038
▁edu	-4039
inaan	-4040
laatu	-4041
sojen	-4042
▁tason	-4043
▁korvaa	-4044
▁varoja	-4045
▁myöntää	-4046
▁yhdisty	-4047
▁mielenki	-4048
▁seuranta	-4049
▁tällainen	-4050
▁sisämarkkin	-4051
VK	-4052
▁mur	-4053
▁pii	-4054
istan	-4055
suoja	-4056
tinut	-4057
▁minua	-4058
▁nähdä	-4059
▁näissä	-4060
▁päivän	-4061
▁antavat	-4062
▁lähettä	-4063
▁unioniin	-4064
tuotteiden	-4065
▁sopimuksia	-4066
▁maatalouden	-4067
▁välittömästi	-4068
▁työjärjestyksen	-4069
mb	-4070
kti	-4071
himi	-4072
▁ajo	-4073
▁mis	-4074
mmärr	-4075
eenala	-4076
enkilö	-4077
▁Sopim	-4078
▁määräa	-4079
▁nimissä	-4080
▁esittänyt	-4081
▁unionista	-4082
▁mietintöön	-4083
▁ulkopoliti	-4084
▁eurooppalaisten	-4085
est	-4086
nus	-4087
ura	-4088
▁ly	-4089
anto	-4090
lausu	-4091
tekni	-4092
isillä	-4093
llisiin	-4094
valtion	-4095
yksessä	-4096
▁joskus	-4097
▁jotkut	-4098
▁tutkia	-4099
▁missään	-4100
▁varojen	-4101
▁tulokset	-4102
▁valvontaa	-4103
▁neuvostossa	-4104
▁tietoyhteis	-4105
lit	-4106
▁Il	-4107
▁HVK	-4108
▁tyy	-4109
estään	-4110
kohdat	-4111
ttavaa	-4112
▁häntä	-4113
▁kutsu	-4114
▁helmik	-4115
▁Ruotsin	-4116
▁Irlannin	-4117
▁merkitse	-4118
▁sijaitse	-4119
▁aikaansaa	-4120
▁joidenkin	-4121
▁miljoonan	-4122
▁vaaditaan	-4123
▁tyytyväinen	-4124
▁käytettävissä	-4125
ER	-4126
▁yd	-4127
muks	-4128
tena	-4129
istön	-4130
vansa	-4131
▁Hyvä	-4132
▁pohd	-4133
▁saatu	-4134
▁maihin	-4135
▁suhteet	-4136
▁Eurooppaa	-4137
▁arviointi	-4138
▁kokouksen	-4139
▁kyseenala	-4140
▁työllisyyden	-4141
▁keskustelussa	-4142
imm	-4143
sty	-4144
4-00	-4145
terve	-4146
timme	-4147
▁Nyky	-4148
▁käyd	-4149
olidaa	-4150
▁menet	-4151
▁hyötyä	-4152
▁saamme	-4153
▁Mietinn	-4154
▁esitety	-4155
▁minkään	-4156
▁toiseen	-4157
▁historia	-4158
▁menettel	-4159
▁ottamaan	-4160
▁tilanteessa	-4161
za	-4162
ska	-4163
ttien	-4164
▁lupa	-4165
asiain	-4166
merkin	-4167
▁Siitä	-4168
▁verta	-4169
▁siirto	-4170
▁Bryssel	-4171
euvottelu	-4172
▁kokonaan	-4173
▁nykyisen	-4174
▁koskevaan	-4175
▁käsittely	-4176
▁määräraho	-4177
▁kansalaisia	-4178
▁poliittiset	-4179
▁kansalaisille	-4180
▁mahdollisuutta	-4181
)0	-4182
SA	-4183
▁('	-4184
raha	-4185
▁pide	-4186
▁hoita	-4187
▁avusta	-4188
▁englan	-4189
▁marras	-4190
▁nuoris	-4191
▁eivätkä	-4192
▁Kyseessä	-4193
▁Maailman	-4194
▁kysymystä	-4195
▁nimenomaan	-4196
▁Alankomaiden	-4197
▁keskusteluun	-4198
hde	-4199
ida	-4200
▁Er	-4201
▁Luu	-4202
kaili	-4203
netto	-4204
▁kier	-4205
▁laaju	-4206
▁sijoi	-4207
▁sitou	-4208
▁viiko	-4209
▁edellä	-4210
▁lukien	-4211
▁solidaa	-4212
▁tietoinen	-4213
▁määritellä	-4214
▁lainsäädännö	-4215
▁40	-4216
▁Sve	-4217
ketta	-4218
▁Erit	-4219
▁kirjo	-4220
▁kovin	-4221
estintä	-4222
muslaus	-4223
▁arvoste	-4224
▁julkisen	-4225
▁päätöksiä	-4226
▁osoittavat	-4227
▁sopimuksessa	-4228
▁kuningaskunta	-4229
au	-4230
gani	-4231
tiaa	-4232
▁pah	-4233
▁Asia	-4234
▁hyvän	-4235
▁tapaa	-4236
vastoin	-4237
▁aikata	-4238
▁kuluessa	-4239
▁osittain	-4240
▁palautta	-4241
▁Neuvoston	-4242
▁seuraavat	-4243
▁tutkimusta	-4244
▁Ensimmäinen	-4245
mit	-4246
ole	-4247
uoje	-4248
▁Roth	-4249
▁syys	-4250
koihin	-4251
▁arvon	-4252
▁esity	-4253
▁heitä	-4254
▁riski	-4255
ttamaan	-4256
▁korosta	-4257
▁peräisin	-4258
▁tiettyjä	-4259
aikaisesti	-4260
▁rekisterö	-4261
▁Yhdistynyt	-4262
▁kiinnittää	-4263
▁tasavallan	-4264
▁suuntaviivo	-4265
▁työpaikkojen	-4266
▁tuomioistuimen	-4267
tee	-4268
vel	-4269
stru	-4270
uttu	-4271
▁Läh	-4272
▁avun	-4273
osasto	-4274
▁Bange	-4275
▁puite	-4276
tutkinto	-4277
▁kaikilla	-4278
▁tiettyjen	-4279
▁tammikuuta	-4280
▁henkilöiden	-4281
▁puheenjohtajan	-4282
EU	-4283
ler	-4284
▁Lin	-4285
▁Voi	-4286
▁luj	-4287
losta	-4288
anskan	-4289
issaan	-4290
kirjoi	-4291
▁vaale	-4292
tetusti	-4293
▁aseman	-4294
▁helppo	-4295
▁neljän	-4296
▁miljard	-4297
▁asianoma	-4298
▁suhteita	-4299
▁todellinen	-4300
▁vastauksen	-4301
▁yhteistyös	-4302
▁markkinoille	-4303
▁kasvilajikevi	-4304
ON	-4305
Ua	-4306
puu	-4307
utto	-4308
lojen	-4309
▁näky	-4310
joille	-4311
ointia	-4312
▁sulke	-4313
ityksen	-4314
▁Kolman	-4315
▁opetus	-4316
▁pyrkii	-4317
▁ratifi	-4318
▁jokainen	-4319
▁institutionaal	-4320
ppi	-4321
▁Bal	-4322
▁Lat	-4323
ordin	-4324
struk	-4325
tuksi	-4326
▁1993	-4327
▁asso	-4328
hteeri	-4329
▁antoi	-4330
▁hyvää	-4331
▁löytä	-4332
▁torju	-4333
isyyttä	-4334
▁alussa	-4335
▁vakava	-4336
isuuteen	-4337
▁entinen	-4338
▁jäsentä	-4339
▁pikemmin	-4340
▁presiden	-4341
▁Kyproksen	-4342
▁jäsenille	-4343
▁varainhoi	-4344
▁heinäkuuta	-4345
▁täysistunn	-4346
▁neuvottelujen	-4347
fr	-4348
rs	-4349
het	-4350
alue	-4351
▁lii	-4352
▁vat	-4353
▁lehd	-4354
▁vaad	-4355
▁harjo	-4356
▁maita	-4357
yksellä	-4358
▁Pyydän	-4359
▁Vuonna	-4360
▁makset	-4361
▁vapaan	-4362
▁yhtälä	-4363
▁uudesta	-4364
▁mukaista	-4365
▁solidaar	-4366
▁edustajat	-4367
▁kolmannen	-4368
▁riittävän	-4369
järjestelmien	-4370
▁Yhdysvaltojen	-4371
):	-4372
kri	-4373
yro	-4374
▁Bon	-4375
ittua	-4376
oilta	-4377
▁Käsi	-4378
▁Voin	-4379
▁läpi	-4380
▁uudet	-4381
ikunnan	-4382
isyyden	-4383
rastruk	-4384
▁vallan	-4385
llisista	-4386
▁aihetta	-4387
▁vuoteen	-4388
▁matkusta	-4389
▁ensinnäkin	-4390
▁kaikkialla	-4391
▁kansallisia	-4392
▁kertomuksen	-4393
▁poliittisia	-4394
▁puheenjohtaj	-4395
▁Ga	-4396
▁ir	-4397
eryh	-4398
hall	-4399
kson	-4400
kkaan	-4401
▁Niin	-4402
▁loka	-4403
toihin	-4404
▁Erity	-4405
▁Fisch	-4406
▁Miten	-4407
▁laiva	-4408
▁liber	-4409
komissi	-4410
valtaan	-4411
menettel	-4412
▁lainkaan	-4413
▁mainitse	-4414
▁ohjelmien	-4415
järjestöjen	-4416
▁Kansainväl	-4417
▁koulutusta	-4418
▁käsittelee	-4419
▁liikenteen	-4420
▁määräyksiä	-4421
▁sopimukset	-4422
▁kehittäminen	-4423
▁kustannuksia	-4424
▁eurooppalaista	-4425
ele	-4426
inan	-4427
vero	-4428
▁Ken	-4429
▁pol	-4430
▁reh	-4431
lissa	-4432
▁luov	-4433
▁sana	-4434
▁Miksi	-4435
▁osuus	-4436
▁säily	-4437
▁Santer	-4438
▁lähenty	-4439
▁suojelu	-4440
▁tarkastu	-4441
▁julkilausu	-4442
▁hyväksyminen	-4443
6.	-4444
PT	-4445
tös	-4446
työn	-4447
vian	-4448
▁sta	-4449
▁EURO	-4450
▁Euro	-4451
▁Isra	-4452
▁eett	-4453
▁viisi	-4454
merikka	-4455
tteiden	-4456
▁kertoa	-4457
▁suostu	-4458
▁vakaus	-4459
▁viikko	-4460
▁kalasta	-4461
▁sääntöjä	-4462
▁salakulje	-4463
▁hyväksyttä	-4464
▁neuvottelut	-4465
▁varapuhemies	-4466
▁yhteiskunnan	-4467
▁eurooppalainen	-4468
14	-4469
4­	-4470
UT	-4471
th	-4472
sas	-4473
uri	-4474
▁50	-4475
flik	-4476
▁Huo	-4477
kausi	-4478
teita	-4479
▁alen	-4480
tettavaa	-4481
▁lopetta	-4482
▁miesten	-4483
▁suojele	-4484
▁halutaan	-4485
▁hyväksyy	-4486
▁sosialis	-4487
▁edellyttä	-4488
▁henkilöstö	-4489
▁menettelyä	-4490
politiikkaan	-4491
▁parhaillaan	-4492
▁oikeudenmuka	-4493
CD	-4494
ann	-4495
▁17	-4496
▁Gr	-4497
ikat	-4498
▁Yle	-4499
ktori	-4500
maksi	-4501
▁hilja	-4502
▁kahta	-4503
▁kiell	-4504
tellaan	-4505
▁niissä	-4506
▁vastaus	-4507
▁komitean	-4508
▁tarkasti	-4509
▁valuutta	-4510
▁kesäkuuta	-4511
▁epäonnistu	-4512
▁palvelujen	-4513
▁todellista	-4514
▁yhteisestä	-4515
▁kilpailukyky	-4516
▁kustannusten	-4517
▁poliittisten	-4518
▁allekirjoitta	-4519
▁Ri	-4520
anne	-4521
kkää	-4522
peto	-4523
▁sie	-4524
deksi	-4525
ssani	-4526
tämme	-4527
▁1990	-4528
▁taho	-4529
▁tutk	-4530
euroop	-4531
miston	-4532
reiden	-4533
teisiä	-4534
dettävä	-4535
varojen	-4536
▁Kiinan	-4537
▁sellainen	-4538
▁välisessä	-4539
▁tiedonanno	-4540
politiikasta	-4541
▁kompromissi	-4542
▁turvallisuutta	-4543
dy	-4544
las	-4545
▁1,	-4546
▁Po	-4547
▁YH	-4548
ivät	-4549
kele	-4550
onta	-4551
tutki	-4552
keskus	-4553
▁kerta	-4554
▁tekni	-4555
▁EUROOP	-4556
▁Seuraa	-4557
▁näyttä	-4558
▁seuraavan	-4559
▁tehtävänä	-4560
▁epäilemättä	-4561
▁käsittelyssä	-4562
▁taloudelliset	-4563
▁Bo	-4564
oman	-4565
utua	-4566
▁(')	-4567
▁Ryh	-4568
▁tee	-4569
▁Kana	-4570
▁Vali	-4571
▁unoh	-4572
ikansa	-4573
käämme	-4574
viljel	-4575
▁kieli	-4576
▁valin	-4577
▁yksil	-4578
teisiin	-4579
yhdisty	-4580
▁Tanska	-4581
▁inhimi	-4582
▁Kreikan	-4583
▁ennakko	-4584
▁huomion	-4585
suhteiden	-4586
▁käytetty	-4587
▁nykyisin	-4588
eurooppala	-4589
▁muodostaa	-4590
▁pidettävä	-4591
▁prosentin	-4592
▁suhteiden	-4593
▁koulutuksen	-4594
(96	-4595
iva	-4596
sson	-4597
▁Gra	-4598
jasta	-4599
kuntaa	-4600
liitto	-4601
▁eilen	-4602
▁erään	-4603
▁millä	-4604
▁Niiden	-4605
▁muille	-4606
▁toistu	-4607
▁torjun	-4608
▁vienti	-4609
itteiden	-4610
▁Puhetta	-4611
▁ihmisen	-4612
▁tupakan	-4613
▁luettelo	-4614
▁toimivat	-4615
tuomioistu	-4616
▁mietinnös	-4617
▁noudattaa	-4618
▁vastaavat	-4619
▁yrityksiä	-4620
▁esittämään	-4621
▁vuoropuhelu	-4622
▁jäsenvaltioille	-4623
...	-4624
etti	-4625
vist	-4626
dellä	-4627
▁vanh	-4628
▁Juuri	-4629
▁uhkaa	-4630
▁Oikeus	-4631
▁heiken	-4632
▁vastus	-4633
▁konflik	-4634
▁instituu	-4635
▁rahoitta	-4636
▁selvittä	-4637
▁paikallis	-4638
▁tilanteeseen	-4639
▁käsiteltäväksi	-4640
OS	-4641
ley	-4642
teg	-4643
▁Fa	-4644
eett	-4645
etin	-4646
rian	-4647
▁Jul	-4648
dessä	-4649
ppale	-4650
ublin	-4651
periaa	-4652
▁puhun	-4653
▁tietä	-4654
▁Latina	-4655
▁Luulen	-4656
▁suuret	-4657
muksesta	-4658
tuksella	-4659
▁huolena	-4660
▁poistaa	-4661
▁sääntöjen	-4662
▁koskevista	-4663
▁yhteistyöstä	-4664
▁kansainvälinen	-4665
dz	-4666
▁Ge	-4667
olin	-4668
ulla	-4669
urin	-4670
▁laj	-4671
ittele	-4672
tuista	-4673
▁Olisi	-4674
muksiin	-4675
äänesty	-4676
▁suojaa	-4677
▁viljel	-4678
▁nuorten	-4679
▁ryhmien	-4680
▁siviili	-4681
▁EUROOPAN	-4682
▁edistystä	-4683
▁maaseudun	-4684
▁määrätään	-4685
▁hyväksytty	-4686
▁määräysten	-4687
▁vaikeuksia	-4688
▁sosiaalista	-4689
▁yhteistyösopim	-4690
▁kuluttajansuoja	-4691
kse	-4692
muna	-4693
reja	-4694
▁Bur	-4695
dettä	-4696
kyrit	-4697
mpaan	-4698
ttuja	-4699
tusla	-4700
isiksi	-4701
▁mitkä	-4702
▁riitä	-4703
▁tavan	-4704
▁tiede	-4705
teeseen	-4706
▁ammati	-4707
▁laimin	-4708
▁maksaa	-4709
▁välttää	-4710
▁arvioida	-4711
▁pitkälle	-4712
▁kollegani	-4713
▁säilyttää	-4714
▁järjestäyty	-4715
▁liittyvistä	-4716
▁parlamenttien	-4717
9.	-4718
kat	-4719
kkö	-4720
empi	-4721
isan	-4722
osoi	-4723
säni	-4724
utuu	-4725
▁17.	-4726
inkin	-4727
kaise	-4728
tista	-4729
vaksi	-4730
paikka	-4731
teeksi	-4732
▁Voiko	-4733
▁puole	-4734
kumppan	-4735
▁Dublin	-4736
▁Kuiten	-4737
▁ryhtyi	-4738
▁tulkin	-4739
▁edellis	-4740
▁korkean	-4741
▁sotilaa	-4742
▁muodossa	-4743
▁oikeassa	-4744
▁päätöstä	-4745
▁huumeiden	-4746
▁kaupungin	-4747
▁miljardia	-4748
▁perinteis	-4749
▁sellaisia	-4750
▁allekirjoi	-4751
▁edustajien	-4752
▁joulukuuta	-4753
▁sisällyttä	-4754
▁järjestöjen	-4755
▁ehdottomasti	-4756
▁sosiaalidemok	-4757
rk	-4758
teli	-4759
väli	-4760
▁Hel	-4761
▁gen	-4762
delta	-4763
vaihe	-4764
liitty	-4765
▁pyrit	-4766
▁tuken	-4767
valtuus	-4768
▁Paljon	-4769
▁elämän	-4770
▁pienen	-4771
▁vaatia	-4772
▁ottanut	-4773
▁säännöt	-4774
▁taistel	-4775
▁tarjoaa	-4776
▁vahingo	-4777
▁Albanian	-4778
▁suuresti	-4779
▁ulkopuol	-4780
▁johtamaan	-4781
▁kiitoksia	-4782
järjestelmään	-4783
▁erinomaisesta	-4784
vut	-4785
rssi	-4786
tusa	-4787
usti	-4788
lläni	-4789
▁Brit	-4790
estämme	-4791
▁omista	-4792
▁puolue	-4793
▁välittä	-4794
▁ongelmaa	-4795
▁televisi	-4796
▁edustajan	-4797
isuudessaan	-4798
▁seurauksia	-4799
▁Kolmanneksi	-4800
▁pikemminkin	-4801
▁jäsenvaltiossa	-4802
EY	-4803
pol	-4804
eder	-4805
itsin	-4806
tissa	-4807
tteen	-4808
▁Leon	-4809
▁hylä	-4810
tämistä	-4811
▁puuttua	-4812
▁unohtaa	-4813
▁viittaa	-4814
▁erityistä	-4815
▁joissakin	-4816
▁kilpailun	-4817
▁painottaa	-4818
▁hankkeiden	-4819
▁rahoitusta	-4820
▁Yhdistyneen	-4821
▁yrityksille	-4822
▁Puheenjohtaja	-4823
▁todennäköisesti	-4824
13	-4825
15	-4826
▁23	-4827
▁Az	-4828
mana	-4829
▁Til	-4830
▁täh	-4831
nissa	-4832
teena	-4833
▁hyviä	-4834
▁pitkän	-4835
▁päätti	-4836
▁sanoin	-4837
▁tekijä	-4838
▁valtiot	-4839
▁opiskeli	-4840
▁pääasiassa	-4841
▁työttömyys	-4842
▁tarvittavat	-4843
▁yhteenkuulu	-4844
▁oikeutetusti	-4845
▁tavoitteiden	-4846
▁vuoropuhelun	-4847
▁jäsenvaltioita	-4848
4).	-4849
tetä	-4850
▁Enn	-4851
▁Tuo	-4852
bourg	-4853
▁avaa	-4854
▁jään	-4855
▁luok	-4856
▁seka	-4857
▁vaki	-4858
▁ystä	-4859
▁erila	-4860
▁kerro	-4861
▁komis	-4862
▁kysyä	-4863
▁huomau	-4864
▁suojel	-4865
▁tehdyn	-4866
vuodesta	-4867
vuudesta	-4868
▁pienten	-4869
▁kymmenen	-4870
▁voisimme	-4871
▁ylimäärä	-4872
▁hyväksynyt	-4873
▁infrastruk	-4874
▁mahdotonta	-4875
▁puolestaan	-4876
▁mahdollistaa	-4877
8.	-4878
sän	-4879
rjaa	-4880
▁ASE	-4881
ineen	-4882
rille	-4883
▁Otta	-4884
toimin	-4885
▁Siten	-4886
▁espan	-4887
▁laatu	-4888
ineiden	-4889
sioiden	-4890
ttaisiin	-4891
tyksessä	-4892
▁ennalta	-4893
▁puuttuu	-4894
▁saamaan	-4895
▁yleinen	-4896
kokouksen	-4897
▁Esitteli	-4898
▁asioissa	-4899
▁lyhyesti	-4900
▁vähentää	-4901
▁Schengenin	-4902
▁ensimmäistä	-4903
▁mielipiteen	-4904
kee	-4905
oja	-4906
▁2.	-4907
▁rin	-4908
asian	-4909
keino	-4910
teltu	-4911
isilta	-4912
joilla	-4913
▁omina	-4914
miesten	-4915
▁Suomen	-4916
▁epävar	-4917
▁turvaa	-4918
käsittel	-4919
▁todiste	-4920
▁kuluttua	-4921
▁viikolla	-4922
▁tällaisen	-4923
periaatteen	-4924
▁aloitteita	-4925
▁tavoitteet	-4926
▁rakenteellis	-4927
▁ihmisoikeuksia	-4928
/0	-4929
CM	-4930
ser	-4931
öin	-4932
▁5.	-4933
▁Di	-4934
lisä	-4935
▁Kon	-4936
▁kai	-4937
▁lie	-4938
▁brit	-4939
▁edut	-4940
utunut	-4941
▁ellei	-4942
▁hinta	-4943
▁omien	-4944
▁pieni	-4945
▁tilin	-4946
▁tuhan	-4947
▁asetus	-4948
▁monien	-4949
▁olevaa	-4950
▁samaan	-4951
direktii	-4952
▁Amerikan	-4953
▁nykyinen	-4954
▁tehtävän	-4955
▁toisessa	-4956
▁Bangemann	-4957
▁hallinnon	-4958
▁itsestään	-4959
▁sosiaalis	-4960
▁verrattuna	-4961
▁myönteisesti	-4962
sem	-4963
▁2,	-4964
mpää	-4965
änsi	-4966
▁Bos	-4967
▁ikä	-4968
▁näh	-4969
kalta	-4970
kolog	-4971
▁Agen	-4972
▁anna	-4973
▁byro	-4974
ksella	-4975
▁jokin	-4976
▁todet	-4977
▁valko	-4978
itteita	-4979
▁esitys	-4980
▁hoitaa	-4981
▁muilla	-4982
▁pkyrit	-4983
▁voinut	-4984
▁tärkeim	-4985
▁välille	-4986
tarkastus	-4987
▁alueelle	-4988
▁liittyen	-4989
▁täydentä	-4990
▁Yhdistyne	-4991
▁muutosehdo	-4992
▁sovelletta	-4993
▁hyväksytään	-4994
▁hyväksyttävä	-4995
▁ulkopuolella	-4996
▁konferenssissa	-4997
▁kuningaskunnan	-4998
kk	-4999
iku	-5000
keä	-5001
plo	-5002
ölj	-5003
kene	-5004
▁11.	-5005
▁Car	-5006
empää	-5007
▁YHTE	-5008
▁radi	-5009
▁valo	-5010
tellen	-5011
▁haita	-5012
▁integ	-5013
▁kasvin	-5014
▁kokous	-5015
▁kukaan	-5016
▁Tanskan	-5017
▁sisältä	-5018
▁kertomus	-5019
▁vallitse	-5020
▁päätökset	-5021
▁tarvitsee	-5022
▁unionille	-5023
▁väkivalta	-5024
▁johdonmuka	-5025
▁ongelmista	-5026
teollisuuden	-5027
▁Esimerkiksi	-5028
valiokunnassa	-5029
ely	-5030
▁Th	-5031
nnut	-5032
▁PSE	-5033
▁Puo	-5034
malle	-5035
tiete	-5036
▁Sisä	-5037
▁Stra	-5038
▁viim	-5039
mättöm	-5040
▁Etelä	-5041
▁vihdo	-5042
▁kasvaa	-5043
▁parann	-5044
tukselle	-5045
▁keinoja	-5046
yhteistyö	-5047
▁kansojen	-5048
▁paikalla	-5049
▁työsuoje	-5050
▁Kuitenkin	-5051
▁Ranskassa	-5052
▁hallinton	-5053
▁sellaista	-5054
▁toukokuuta	-5055
▁sosiaalinen	-5056
▁toissijaisuus	-5057
▁da	-5058
lien	-5059
itten	-5060
sanne	-5061
selin	-5062
yistä	-5063
▁Ennen	-5064
▁Green	-5065
▁monta	-5066
nettava	-5067
▁Ruotsi	-5068
▁aiheen	-5069
▁heille	-5070
▁kiitän	-5071
▁mikään	-5072
▁ollaan	-5073
▁tervey	-5074
▁totesi	-5075
▁tähtää	-5076
mattomia	-5077
▁annetun	-5078
▁kahteen	-5079
▁äärimmä	-5080
neuvoston	-5081
▁ongelmien	-5082
▁selvittää	-5083
▁ydinvoima	-5084
teknologian	-5085
▁osoittanut	-5086
TU	-5087
sää	-5088
yle	-5089
isun	-5090
▁Use	-5091
▁säh	-5092
▁tan	-5093
ergia	-5094
milla	-5095
sille	-5096
▁kata	-5097
▁puute	-5098
▁toive	-5099
ellisia	-5100
▁epäsuo	-5101
▁maille	-5102
mpäristö	-5103
▁puhumme	-5104
▁uusiutu	-5105
konferens	-5106
▁Internet	-5107
▁amerikka	-5108
▁strategia	-5109
▁tietokone	-5110
▁tuotteita	-5111
▁liikkuvuus	-5112
▁hyväksymään	-5113
▁yhteispäätös	-5114
▁Amsterdamissa	-5115
▁oikeudellinen	-5116
▁demokraattisen	-5117
ean	-5118
▁-,	-5119
▁mm	-5120
maks	-5121
tiön	-5122
▁enn	-5123
▁naa	-5124
▁yri	-5125
eetto	-5126
mämme	-5127
tisen	-5128
▁ohja	-5129
▁omia	-5130
puolue	-5131
▁Armen	-5132
▁Stras	-5133
▁istun	-5134
▁pakko	-5135
▁palve	-5136
ittelen	-5137
▁Päätös	-5138
▁ediste	-5139
▁lasten	-5140
▁löytää	-5141
▁esiinty	-5142
▁hänelle	-5143
▁monissa	-5144
▁tullaan	-5145
▁yhdiste	-5146
▁kuoleman	-5147
▁käytöstä	-5148
▁perustan	-5149
menettelyä	-5150
▁vakuuttaa	-5151
▁määrittele	-5152
▁ristiriita	-5153
▁valmistelu	-5154
▁joulukuussa	-5155
▁menettelyta	-5156
IO	-5157
iv	-5158
hun	-5159
ing	-5160
▁Eh	-5161
ilun	-5162
▁Men	-5163
▁erä	-5164
▁res	-5165
itystä	-5166
itämme	-5167
jöille	-5168
▁etukä	-5169
▁viivä	-5170
▁emmekä	-5171
▁osaksi	-5172
istuksia	-5173
▁entisen	-5174
▁onnetto	-5175
▁yhdistä	-5176
▁keskeinen	-5177
▁hiljattain	-5178
▁Jugoslavian	-5179
▁jäsenmaiden	-5180
▁vaatimukset	-5181
▁vaikutukset	-5182
▁hyväksyttiin	-5183
Ma	-5184
OC	-5185
nell	-5186
seet	-5187
▁Sil	-5188
▁myy	-5189
innut	-5190
jalle	-5191
kelpo	-5192
valle	-5193
▁esim	-5194
▁nimi	-5195
ksilla	-5196
laisvi	-5197
määrän	-5198
stojen	-5199
▁ASEAN	-5200
▁palau	-5201
▁sopeu	-5202
▁vakaa	-5203
asioita	-5204
▁Agenda	-5205
▁meistä	-5206
▁näillä	-5207
▁urheilu	-5208
ohjelmien	-5209
▁uudistus	-5210
▁suorittaa	-5211
▁tietoisia	-5212
▁perustusla	-5213
▁yleissopim	-5214
▁vaatimuksia	-5215
kiä	-5216
rio	-5217
ikoo	-5218
▁Kir	-5219
▁USA	-5220
käytö	-5221
llöin	-5222
velvo	-5223
▁Sano	-5224
▁alha	-5225
▁piti	-5226
▁sydä	-5227
▁vesi	-5228
kkaita	-5229
▁avoim	-5230
▁diplo	-5231
▁monen	-5232
▁perhe	-5233
▁verko	-5234
kettäin	-5235
▁Talous	-5236
▁Vuoden	-5237
▁aamuna	-5238
▁kasvun	-5239
▁neuvon	-5240
▁sotila	-5241
▁Ensiksi	-5242
▁nykyään	-5243
▁unionia	-5244
▁kuljetta	-5245
▁lukuisia	-5246
▁riippuva	-5247
▁Brysselissä	-5248
▁vastaanotta	-5249
▁äänestyksen	-5250
▁kansainvälisten	-5251
dt	-5252
poh	-5253
rea	-5254
kkuu	-5255
kulu	-5256
▁(19	-5257
▁Bro	-5258
▁Lind	-5259
▁tonn	-5260
▁Pöytä	-5261
▁muuka	-5262
istusta	-5263
▁hylkää	-5264
▁kohtuu	-5265
▁kriitt	-5266
▁kunnia	-5267
▁kuulla	-5268
▁käsite	-5269
▁miljar	-5270
▁uuteen	-5271
▁valvoa	-5272
▁yksilö	-5273
ttavasti	-5274
▁kestävä	-5275
▁koordin	-5276
▁kunnian	-5277
▁nojalla	-5278
▁rajojen	-5279
▁siirtää	-5280
▁vakavia	-5281
▁huolitsi	-5282
▁siirtymä	-5283
▁vakuutus	-5284
▁kilpailua	-5285
▁tarpeeksi	-5286
▁Strasbourg	-5287
▁maailmassa	-5288
▁väkivallan	-5289
▁tarkastella	-5290
▁vakuuttunut	-5291
▁järjestelmää	-5292
▁eurooppalaiset	-5293
ff	-5294
9).	-5295
iri	-5296
kis	-5297
inka	-5298
▁Han	-5299
▁opp	-5300
ustan	-5301
▁Rena	-5302
itteis	-5303
mmälle	-5304
▁Marin	-5305
▁milla	-5306
▁nosta	-5307
▁totea	-5308
▁tapaus	-5309
▁televi	-5310
tyksestä	-5311
▁tehtiin	-5312
▁täyttää	-5313
▁energian	-5314
▁käytännö	-5315
▁rasismin	-5316
▁todetaan	-5317
▁yrityksen	-5318
▁valmistele	-5319
▁Luxemburgin	-5320
▁komissiolta	-5321
▁työmarkkina	-5322
▁konkreettisia	-5323
▁oikeudellista	-5324
▁yleissopimuksen	-5325
."	-5326
25	-5327
▁JA	-5328
▁Re	-5329
▁et	-5330
elpo	-5331
lija	-5332
▁Tom	-5333
kassa	-5334
risti	-5335
uunta	-5336
ittaan	-5337
▁Jotta	-5338
▁ehdot	-5339
▁kuusi	-5340
▁pääsi	-5341
▁syven	-5342
▁täsmä	-5343
▁vuoro	-5344
mukseen	-5345
▁Renaul	-5346
▁meidät	-5347
▁Belgian	-5348
esityksen	-5349
▁alueille	-5350
▁asemassa	-5351
▁periaate	-5352
▁tapahtui	-5353
▁esityksen	-5354
▁hyödyntää	-5355
▁ottamatta	-5356
▁merkittävästi	-5357
▁säännöllisesti	-5358
ase	-5359
▁rä	-5360
.07.	-5361
▁hor	-5362
▁tus	-5363
▁von	-5364
halli	-5365
nettä	-5366
tonsa	-5367
▁kuun	-5368
▁liha	-5369
▁sovi	-5370
miehet	-5371
▁osana	-5372
ikkansa	-5373
▁ajatus	-5374
▁heikko	-5375
▁normaa	-5376
▁tuonti	-5377
▁tulemme	-5378
▁yhteisy	-5379
▁Fischler	-5380
▁istunnon	-5381
▁tarvetta	-5382
▁huomauttaa	-5383
▁direktiiviä	-5384
▁muukalaisvi	-5385
▁valtuuskunta	-5386
▁periaatteessa	-5387
▁Valitettavasti	-5388
gh	-5389
MEN	-5390
▁Ah	-5391
▁Wa	-5392
.00.	-5393
mmun	-5394
stro	-5395
ttoa	-5396
uoto	-5397
vyys	-5398
▁Ter	-5399
▁tin	-5400
▁uno	-5401
arvon	-5402
nalla	-5403
telli	-5404
vuoro	-5405
▁reag	-5406
llessa	-5407
puolet	-5408
▁asemaa	-5409
▁alueita	-5410
▁geneett	-5411
▁varsina	-5412
▁ymmärrä	-5413
istaminen	-5414
▁kestävän	-5415
▁tarkoita	-5416
▁vuositta	-5417
▁järjestää	-5418
▁suuntautu	-5419
▁tuotannon	-5420
▁tällaisia	-5421
▁yhteiseen	-5422
▁käsittelyn	-5423
▁mielelläni	-5424
▁rahaliiton	-5425
▁tarkoitettu	-5426
▁tavoitteita	-5427
KUN	-5428
oru	-5429
▁3.	-5430
▁PH	-5431
▁el	-5432
inon	-5433
pito	-5434
▁raa	-5435
▁tyh	-5436
llani	-5437
▁Geor	-5438
▁enkä	-5439
▁ympä	-5440
istään	-5441
ksessä	-5442
▁Kanna	-5443
▁hanka	-5444
▁mitta	-5445
▁nopeu	-5446
Istunto	-5447
itsemme	-5448
vaikutu	-5449
▁kiista	-5450
▁korjaa	-5451
▁liikaa	-5452
▁pyrkiä	-5453
▁tietyn	-5454
▁edustaa	-5455
▁ilmaise	-5456
▁väestön	-5457
▁Haluamme	-5458
▁puhutaan	-5459
▁toivomme	-5460
▁tulosten	-5461
▁neuvostoa	-5462
▁toiminnasta	-5463
▁liikkuvuuden	-5464
▁oikeusasioita	-5465
CO	-5466
ör	-5467
hon	-5468
▁Ih	-5469
ikoi	-5470
mäni	-5471
▁Ver	-5472
▁ele	-5473
(96)0	-5474
yleis	-5475
▁laaj	-5476
▁sivu	-5477
▁synn	-5478
kirjaa	-5479
valvon	-5480
▁Ongel	-5481
▁purka	-5482
▁saksa	-5483
▁takuu	-5484
elliset	-5485
isemmin	-5486
virasto	-5487
▁Kiitän	-5488
▁aloite	-5489
▁britti	-5490
▁kohtia	-5491
▁realis	-5492
▁seikka	-5493
▁tunnus	-5494
▁yksino	-5495
tukseksi	-5496
virkaili	-5497
▁tehokka	-5498
▁valittu	-5499
▁väliset	-5500
▁tiedotta	-5501
▁investoin	-5502
▁ratkaisun	-5503
▁huhtikuuta	-5504
▁instituuti	-5505
▁osallistuu	-5506
▁kansanterve	-5507
▁käsittelyyn	-5508
▁merkittäviä	-5509
▁tuomioistuim	-5510
5).	-5511
jek	-5512
tau	-5513
▁21	-5514
alis	-5515
iaan	-5516
vall	-5517
▁DOC	-5518
▁Sou	-5519
innot	-5520
isiko	-5521
lalla	-5522
neitä	-5523
tussa	-5524
vakuu	-5525
▁Ehkä	-5526
▁Tiet	-5527
▁kasv	-5528
▁toiv	-5529
ttavan	-5530
▁minuu	-5531
▁resur	-5532
valtain	-5533
välillä	-5534
▁Kuinka	-5535
▁Mietin	-5536
▁muutos	-5537
▁teksti	-5538
▁tähden	-5539
▁yhteys	-5540
▁vaihtoeh	-5541
▁vuodessa	-5542
▁ylläpitä	-5543
▁liittyvää	-5544
▁äskettäin	-5545
▁asiakirjan	-5546
▁kulttuurin	-5547
▁myönteinen	-5548
▁tervetulle	-5549
▁vaikutusta	-5550
▁verotuksen	-5551
▁kehitykseen	-5552
▁markkinoilla	-5553
▁ensimmäisessä	-5554
▁poliittisesti	-5555
▁valtuuskunnan	-5556
▁täysistunnossa	-5557
huo	-5558
ier	-5559
set	-5560
erba	-5561
intä	-5562
moja	-5563
mpiä	-5564
yysi	-5565
▁Kau	-5566
▁ila	-5567
▁jen	-5568
▁rik	-5569
isina	-5570
ksena	-5571
▁Eikö	-5572
impien	-5573
kaupan	-5574
▁laske	-5575
▁pidän	-5576
▁puutu	-5577
▁tulos	-5578
▁vapau	-5579
▁katsoo	-5580
▁tapahd	-5581
muksista	-5582
▁Venäjän	-5583
▁määräen	-5584
▁pitkään	-5585
▁suurten	-5586
▁aiheista	-5587
keskustelu	-5588
▁järjestön	-5589
▁kuukautta	-5590
llisuudesta	-5591
▁asiakirjat	-5592
▁etusijalle	-5593
▁käytettävä	-5594
▁tietenkään	-5595
▁välttämättä	-5596
▁kysymyksessä	-5597
▁Oikeustieteen	-5598
▁mietinnöstään	-5599
▁parlamentilla	-5600
▁ympäristönsuoje	-5601
Ue	-5602
▁z	-5603
hto	-5604
htu	-5605
▁ide	-5606
detty	-5607
jojen	-5608
mansa	-5609
▁myyn	-5610
▁syyt	-5611
linson	-5612
▁saapu	-5613
▁vasem	-5614
opoliti	-5615
▁epäsel	-5616
isyyteen	-5617
▁Japanin	-5618
▁Samalla	-5619
▁elinten	-5620
▁ensiksi	-5621
▁tärkeän	-5622
▁laatinut	-5623
oikeuksien	-5624
▁aikataulu	-5625
▁aloitteen	-5626
▁arvonlisä	-5627
▁perustelu	-5628
▁välineitä	-5629
▁määräykset	-5630
▁Yhdysvaltain	-5631
▁kansainvälistä	-5632
▁parantamiseksi	-5633
jer	-5634
uku	-5635
itin	-5636
land	-5637
sisa	-5638
▁Kul	-5639
maita	-5640
muuto	-5641
telyn	-5642
▁anka	-5643
▁rann	-5644
ttelee	-5645
▁Oikeu	-5646
▁alkaa	-5647
▁tarke	-5648
▁tosin	-5649
▁Sosiaa	-5650
▁Tiedän	-5651
▁hankin	-5652
▁huolin	-5653
▁kiinte	-5654
▁syntyy	-5655
ohjelmaa	-5656
▁menettä	-5657
▁sijasta	-5658
▁syyllis	-5659
▁tupakka	-5660
▁esiintyy	-5661
▁joutuvat	-5662
▁julkaisu	-5663
▁kahdesta	-5664
▁käyttävät	-5665
▁liittyvän	-5666
▁energialäh	-5667
▁vaikuttavat	-5668
▁aktiivisesti	-5669
▁asiakirjojen	-5670
▁kansakuntien	-5671
▁tarkistusten	-5672
▁oikeudellisen	-5673
▁tulevaisuutta	-5674
▁täytäntöönpan	-5675
▁samanaikaisesti	-5676
IM	-5677
NS	-5678
sh	-5679
eks	-5680
iha	-5681
imo	-5682
▁22	-5683
▁26	-5684
▁4.	-5685
▁6.	-5686
heen	-5687
rkea	-5688
▁The	-5689
▁Vain	-5690
▁kemi	-5691
essani	-5692
taasti	-5693
▁Hyvät	-5694
▁Tieto	-5695
▁hedel	-5696
▁ikään	-5697
▁jälje	-5698
▁liike	-5699
▁sattu	-5700
▁harjoi	-5701
▁keinot	-5702
▁maasta	-5703
▁tasapa	-5704
▁toivoa	-5705
▁espanja	-5706
▁käydään	-5707
▁tavarat	-5708
▁tehokas	-5709
▁julkista	-5710
▁kannatan	-5711
▁puolueen	-5712
▁työnanta	-5713
▁vakautta	-5714
▁Tomlinson	-5715
▁etukäteen	-5716
▁julkisten	-5717
▁kyseisten	-5718
▁vallitsee	-5719
▁saataisiin	-5720
▁saavutettu	-5721
▁Mietinnössä	-5722
▁hallitukset	-5723
▁päinvastoin	-5724
▁velvollisuus	-5725
co	-5726
py	-5727
erb	-5728
gra	-5729
▁Ed	-5730
uron	-5731
▁mat	-5732
▁sup	-5733
tteja	-5734
ytänn	-5735
▁liia	-5736
▁toki	-5737
joista	-5738
kauppa	-5739
udumme	-5740
▁Tutki	-5741
▁kiele	-5742
▁luopu	-5743
▁numer	-5744
▁vamma	-5745
▁varat	-5746
joneuvo	-5747
▁kunkin	-5748
▁painop	-5749
▁ulkoma	-5750
tuksissa	-5751
▁Renault	-5752
▁nuoriso	-5753
▁näkökan	-5754
▁pitävät	-5755
▁vaalien	-5756
▁Israelin	-5757
▁suojelua	-5758
▁tutkinto	-5759
neuvottelu	-5760
▁määräaika	-5761
▁toimimaan	-5762
kustannukset	-5763
▁aikavälillä	-5764
▁komissiossa	-5765
▁suosituksia	-5766
▁yhtenäisval	-5767
▁sopimuksesta	-5768
▁tuomioistuin	-5769
▁työttömyyden	-5770
▁saavuttamiseksi	-5771
ow	-5772
cia	-5773
kso	-5774
kön	-5775
opi	-5776
anal	-5777
ilen	-5778
kanis	-5779
tuvat	-5780
▁aste	-5781
▁Tärke	-5782
▁täysi	-5783
▁valla	-5784
innista	-5785
tuminen	-5786
▁puolus	-5787
▁toisia	-5788
▁valtaa	-5789
▁voitte	-5790
▁milloin	-5791
▁poliisi	-5792
▁vihreän	-5793
▁viittasi	-5794
▁hyväksyty	-5795
▁käyttööno	-5796
▁soveltamis	-5797
▁vuosikerto	-5798
▁vuosittain	-5799
▁presidentti	-5800
▁yhteistyöhön	-5801
▁kansallisella	-5802
II	-5803
dri	-5804
▁pk	-5805
hetk	-5806
ooru	-5807
tens	-5808
▁Fer	-5809
▁Saa	-5810
▁Vir	-5811
▁lah	-5812
▁näy	-5813
▁sur	-5814
issut	-5815
mausa	-5816
toida	-5817
tönsä	-5818
▁avus	-5819
▁otti	-5820
ksistä	-5821
tellyt	-5822
▁sanan	-5823
sioissa	-5824
tykseen	-5825
▁seitse	-5826
▁tullia	-5827
▁tullin	-5828
▁tuntuu	-5829
▁vaaran	-5830
▁viesti	-5831
emmistön	-5832
▁Poliitt	-5833
▁asemaan	-5834
▁uskotta	-5835
▁kasvinja	-5836
▁ryhmämme	-5837
▁sijoitta	-5838
▁tarkkaan	-5839
▁Hollannin	-5840
▁asetetaan	-5841
▁rajoittaa	-5842
▁Valiokunta	-5843
▁helmikuuta	-5844
▁merkittävää	-5845
fe	-5846
alo	-5847
kik	-5848
tou	-5849
▁Op	-5850
▁of	-5851
elon	-5852
ilma	-5853
llon	-5854
▁itä	-5855
▁mor	-5856
itaan	-5857
jista	-5858
tiota	-5859
ynnin	-5860
▁Ukra	-5861
▁erää	-5862
▁olin	-5863
▁posi	-5864
hallin	-5865
udesta	-5866
varoja	-5867
▁etelä	-5868
▁jolle	-5869
▁käydä	-5870
▁omaan	-5871
▁parem	-5872
▁sanoo	-5873
▁tekst	-5874
henkilö	-5875
ikoista	-5876
▁kommen	-5877
▁luulen	-5878
▁tietyt	-5879
▁vuosia	-5880
▁itsensä	-5881
▁todista	-5882
▁vuosisa	-5883
▁petoksia	-5884
▁riittävä	-5885
▁suojella	-5886
▁tutkinta	-5887
▁tärkeänä	-5888
▁vapaasti	-5889
▁arvioidaan	-5890
▁määrärahojen	-5891
▁soveltamista	-5892
▁vuoropuhelua	-5893
▁käsiteltävänä	-5894
▁toteuttamista	-5895
▁taloudellisesti	-5896
RE	-5897
ou	-5898
öö	-5899
nän	-5900
sse	-5901
teh	-5902
keja	-5903
tina	-5904
▁PAR	-5905
▁Suh	-5906
▁rad	-5907
aalin	-5908
niksi	-5909
▁fyys	-5910
▁kuor	-5911
iselta	-5912
mmaksi	-5913
teesta	-5914
vallat	-5915
▁Ruots	-5916
▁kunno	-5917
▁petty	-5918
▁posti	-5919
▁rikka	-5920
▁tuomi	-5921
itsevat	-5922
vuuteen	-5923
▁Belgia	-5924
▁Voimme	-5925
▁eniten	-5926
▁joille	-5927
▁ylipää	-5928
liikenne	-5929
mattomat	-5930
▁kappale	-5931
▁korvaus	-5932
▁käytävä	-5933
▁valinta	-5934
raattisen	-5935
▁suojelun	-5936
▁tapahtua	-5937
▁vetoomus	-5938
▁yhteyttä	-5939
palvelujen	-5940
▁liberaali	-5941
▁muutokset	-5942
▁tekemistä	-5943
▁vähimmäis	-5944
päätöslausel	-5945
▁Pöytäkirjan	-5946
▁aiheuttavat	-5947
▁toiminnassa	-5948
▁edistämiseksi	-5949
ET	-5950
bs	-5951
lf	-5952
hyö	-5953
▁27	-5954
▁35	-5955
▁PO	-5956
MENT	-5957
haan	-5958
kelu	-5959
liop	-5960
olog	-5961
teja	-5962
tona	-5963
▁Keh	-5964
▁avi	-5965
kkoja	-5966
tilla	-5967
▁eikö	-5968
▁eroa	-5969
▁omat	-5970
▁sääs	-5971
frikan	-5972
isempi	-5973
oitava	-5974
strate	-5975
voiman	-5976
▁Kinno	-5977
▁laadi	-5978
▁yhtiö	-5979
valtiot	-5980
▁omasta	-5981
▁parhaa	-5982
▁säädös	-5983
▁säästä	-5984
▁aikoina	-5985
▁ehkäise	-5986
▁kieltää	-5987
▁tulevan	-5988
▁yrittää	-5989
▁artiklaa	-5990
▁määrätty	-5991
▁suurempi	-5992
llisuuteen	-5993
▁hankkeita	-5994
▁pyydetään	-5995
▁valtuudet	-5996
poliittisen	-5997
▁Eurooppaan	-5998
▁harjoittaa	-5999
▁käsityksen	-6000
▁seuraukset	-6001
▁Erityisesti	-6002
▁periaatetta	-6003
▁toteutetaan	-6004
▁kehityksestä	-6005
▁keskustellaan	-6006
▁ensisijaisesti	-6007
▁yksimielisesti	-6008
▁asianmukaisesti	-6009
▁yhtenäismarkkin	-6010
IL	-6011
CNS	-6012
ibe	-6013
kos	-6014
▁Da	-6015
kita	-6016
lyön	-6017
▁Kat	-6018
▁Nel	-6019
kyvyn	-6020
▁riip	-6021
isitte	-6022
ktorin	-6023
▁kulut	-6024
▁pohjo	-6025
▁tarve	-6026
llisena	-6027
▁assosi	-6028
▁keksin	-6029
▁työhön	-6030
▁Unionin	-6031
▁sisälty	-6032
▁äänesti	-6033
▁henkilöt	-6034
▁lausunto	-6035
▁tyydyttä	-6036
▁välisten	-6037
▁koskeviin	-6038
▁käsitelty	-6039
▁tarkastus	-6040
▁puhemiehen	-6041
▁todellisen	-6042
▁komissiolla	-6043
▁maaliskuuta	-6044
▁naudanlihan	-6045
▁pöytäkirjan	-6046
▁riippumatta	-6047
▁toimielimet	-6048
▁toimivaltaa	-6049
▁rikollisuuden	-6050
ini	-6051
luok	-6052
limme	-6053
▁eräs	-6054
ikseen	-6055
kaasti	-6056
tuneen	-6057
tämään	-6058
vastuu	-6059
▁Ainoa	-6060
▁Näitä	-6061
▁PARLA	-6062
▁hyöty	-6063
▁lääkä	-6064
▁polii	-6065
▁pyysi	-6066
▁tältä	-6067
▁Näistä	-6068
▁materi	-6069
▁verran	-6070
▁puoleen	-6071
▁strateg	-6072
▁järkevää	-6073
▁käsittää	-6074
▁päättävä	-6075
▁toiseksi	-6076
▁valmiita	-6077
▁vuodelle	-6078
tettäisiin	-6079
▁aikavälin	-6080
▁edistysas	-6081
▁kieltäyty	-6082
▁markkinat	-6083
▁päättänyt	-6084
▁yhteisössä	-6085
▁neuvotteluja	-6086
▁kertomuksessa	-6087
95	-6088
öt	-6089
öy	-6090
kku	-6091
ksy	-6092
▁37	-6093
▁80	-6094
▁90	-6095
▁ks	-6096
leyn	-6097
ller	-6098
pasi	-6099
posi	-6100
▁Odo	-6101
▁etä	-6102
arvoa	-6103
rahoi	-6104
tason	-6105
yysin	-6106
▁etua	-6107
▁uhka	-6108
pankin	-6109
titeet	-6110
▁Monet	-6111
▁Tulli	-6112
▁massa	-6113
▁saisi	-6114
▁samat	-6115
▁veron	-6116
stuksen	-6117
▁Hallin	-6118
▁alijää	-6119
▁ekolog	-6120
▁hankki	-6121
▁saastu	-6122
talouden	-6123
ttäisiin	-6124
▁Istunto	-6125
▁kauppaa	-6126
▁millään	-6127
▁piiriin	-6128
▁tavaran	-6129
▁tehosta	-6130
▁haluaisi	-6131
▁huumausa	-6132
▁merkille	-6133
▁pyytänyt	-6134
▁tarkista	-6135
▁tavanoma	-6136
▁Yhdysvall	-6137
▁artiklaan	-6138
▁kiinnittä	-6139
▁kustannus	-6140
▁käynnissä	-6141
▁laajentaa	-6142
▁todettava	-6143
▁uudestaan	-6144
▁ristiriida	-6145
▁teknologian	-6146
▁suhteellisen	-6147
▁todellisuudessa	-6148
))	-6149
12	-6150
KA	-6151
ün	-6152
0).	-6153
2).	-6154
tei	-6155
▁TO	-6156
saan	-6157
▁log	-6158
▁mus	-6159
▁run	-6160
/97):	-6161
anosa	-6162
luvun	-6163
telun	-6164
▁haja	-6165
▁kans	-6166
▁ohje	-6167
▁rasi	-6168
paikan	-6169
ttujen	-6170
▁paper	-6171
▁silti	-6172
uudessa	-6173
▁Yhteen	-6174
▁iltana	-6175
▁kasvua	-6176
▁opposi	-6177
▁tarkka	-6178
tteeseen	-6179
▁loukkaa	-6180
▁pyynnön	-6181
▁riippuu	-6182
▁sanonut	-6183
▁tarjota	-6184
▁tekstin	-6185
▁toisiin	-6186
▁yleistä	-6187
toiminnan	-6188
▁jokaisen	-6189
▁kuulemis	-6190
▁oikeudet	-6191
Britannian	-6192
▁PARLAMENT	-6193
▁ongelmiin	-6194
▁lopultakin	-6195
▁kansallinen	-6196
▁kansallista	-6197
▁äärimmäisen	-6198
viranomaisten	-6199
▁noudatettava	-6200
▁välityksellä	-6201
▁passituksesta	-6202
▁ulkosuhteiden	-6203
be	-6204
ilä	-6205
peä	-6206
▁Pe	-6207
tunn	-6208
▁Blo	-6209
▁Don	-6210
▁Iso	-6211
▁Man	-6212
▁VAL	-6213
kasti	-6214
risto	-6215
▁Mier	-6216
▁Pari	-6217
▁pyri	-6218
ordino	-6219
▁kirje	-6220
▁sähkö	-6221
itellen	-6222
ointiin	-6223
▁hollan	-6224
▁huomaa	-6225
▁merkki	-6226
▁naisia	-6227
▁vakuus	-6228
▁viikon	-6229
▁Direktii	-6230
▁Valiokun	-6231
▁helposti	-6232
▁ohjelmia	-6233
▁toimista	-6234
▁toimisto	-6235
▁vuodelta	-6236
osoituksia	-6237
tettavissa	-6238
▁Itävallan	-6239
▁itselleen	-6240
▁mainitaan	-6241
▁pääosasto	-6242
valtuutettu	-6243
▁kehittämis	-6244
▁koskevissa	-6245
▁myönteistä	-6246
▁mahdollinen	-6247
▁tarvitsevat	-6248
▁yhteenliitty	-6249
▁talousarvioon	-6250
dot	-6251
pit	-6252
▁es	-6253
huon	-6254
poja	-6255
tlan	-6256
▁Bla	-6257
▁Fab	-6258
▁kyv	-6259
▁ölj	-6260
itsen	-6261
rahat	-6262
ratka	-6263
villä	-6264
▁eläi	-6265
▁heng	-6266
▁kuka	-6267
▁pela	-6268
eltaan	-6269
käyttö	-6270
määrää	-6271
toimia	-6272
vyyden	-6273
▁Kiito	-6274
▁PHARE	-6275
▁euron	-6276
▁pahoi	-6277
▁paras	-6278
▁sydäm	-6279
matonta	-6280
▁Kolmas	-6281
▁analys	-6282
▁laadun	-6283
laisille	-6284
▁komitea	-6285
▁vapaata	-6286
▁asioihin	-6287
▁kantansa	-6288
▁muutaman	-6289
▁nykyistä	-6290
▁yhteisiä	-6291
tarikunnan	-6292
▁huolehtia	-6293
▁käynnistä	-6294
▁ratkaisua	-6295
▁seuraavaa	-6296
▁vastustaa	-6297
▁Esittelijä	-6298
▁kalatalous	-6299
▁näkökohtia	-6300
▁vuoropuhel	-6301
▁äänestämme	-6302
▁ehdotukseen	-6303
▁merkityksen	-6304
▁periaatteen	-6305
▁infrastruktuu	-6306
▁välttämättömiä	-6307
▁varmistamiseksi	-6308
16	-6309
58	-6310
CH	-6311
ci	-6312
4­0	-6313
kut	-6314
ohn	-6315
zin	-6316
änn	-6317
▁SP	-6318
/96)	-6319
isaa	-6320
mmän	-6321
ytty	-6322
▁ita	-6323
millä	-6324
puole	-6325
terin	-6326
uutan	-6327
▁pane	-6328
maihin	-6329
netaan	-6330
▁Lomen	-6331
▁koski	-6332
▁rahan	-6333
▁tutus	-6334
▁täyty	-6335
▁asiana	-6336
▁katson	-6337
▁laatua	-6338
▁palkka	-6339
▁päätel	-6340
▁saakka	-6341
▁syyttä	-6342
▁teiltä	-6343
▁vaalit	-6344
▁yksikö	-6345
isuuksia	-6346
▁keskinä	-6347
▁lopussa	-6348
▁pidämme	-6349
▁pidättä	-6350
▁voineet	-6351
yritysten	-6352
▁energiaa	-6353
▁jatkossa	-6354
▁katastro	-6355
▁osaltaan	-6356
▁tehtävät	-6357
▁tulevien	-6358
▁vaatimus	-6359
▁vastuuta	-6360
▁istuntosa	-6361
▁poikkeuks	-6362
▁puolustaa	-6363
▁tilaisuus	-6364
▁Eurooppala	-6365
▁käyttämään	-6366
▁painopiste	-6367
▁perustuvat	-6368
▁yksinomaan	-6369
▁huomattavia	-6370
▁muodostavat	-6371
▁pkyritysten	-6372
▁direktiivissä	-6373
▁tiedotusväline	-6374
roa	-6375
▁')	-6376
▁3,	-6377
▁PS	-6378
ohlf	-6379
väen	-6380
▁10.	-6381
▁Ker	-6382
kkeet	-6383
telta	-6384
tille	-6385
▁lope	-6386
▁oike	-6387
▁tien	-6388
elämän	-6389
merkki	-6390
turvan	-6391
▁Vielä	-6392
▁kokem	-6393
▁panna	-6394
▁hakija	-6395
▁kunnes	-6396
▁kysely	-6397
▁nähden	-6398
kirjojen	-6399
komissio	-6400
toiminta	-6401
▁herättä	-6402
▁levittä	-6403
▁Puhemieh	-6404
▁Saksassa	-6405
▁lopettaa	-6406
▁pitkällä	-6407
▁nykyisten	-6408
▁syyskuuta	-6409
▁hallitusta	-6410
▁käsittelyä	-6411
▁vähitellen	-6412
▁Mielestämme	-6413
▁Yhdysvallat	-6414
▁maataloutta	-6415
▁valmistelija	-6416
▁yksinkertaista	-6417
Suo	-6418
ima	-6419
reg	-6420
ros	-6421
uud	-6422
esin	-6423
kkia	-6424
meri	-6425
tiik	-6426
▁21.	-6427
▁jal	-6428
eesio	-6429
pohja	-6430
ranga	-6431
sivat	-6432
▁Ison	-6433
▁arka	-6434
▁iden	-6435
▁sido	-6436
▁tarj	-6437
kkojen	-6438
kohtia	-6439
llemme	-6440
▁Passi	-6441
▁Valko	-6442
▁hoito	-6443
▁solmi	-6444
▁12.00.	-6445
▁kampan	-6446
▁kommun	-6447
▁totean	-6448
▁vähene	-6449
istukset	-6450
maksujen	-6451
muudesta	-6452
▁Brittan	-6453
▁Silloin	-6454
▁aluetta	-6455
▁esteitä	-6456
▁huolehd	-6457
▁kannano	-6458
▁kollego	-6459
▁oikeaan	-6460
laitosten	-6461
▁Mietintö	-6462
▁erikseen	-6463
▁joukossa	-6464
▁koheesio	-6465
▁kyseinen	-6466
▁laadittu	-6467
▁mukainen	-6468
▁nykyaika	-6469
▁vapauden	-6470
▁viivästy	-6471
järjestely	-6472
▁Tällainen	-6473
▁erityisiä	-6474
▁laatimaan	-6475
▁vastausta	-6476
▁Euroopasta	-6477
▁ehdotetaan	-6478
▁toimeenpan	-6479
▁tuloksista	-6480
▁kysymyksissä	-6481
▁puhemiehistö	-6482
järjestelmässä	-6483
▁Yhdistyneessä	-6484
▁kehittämiseen	-6485
▁keskustelemme	-6486
▁noudattamista	-6487
▁eurooppalaisia	-6488
▁työmarkkinaosa	-6489
YS	-6490
og	-6491
ue	-6492
lat	-6493
ner	-6494
4-02	-6495
ajan	-6496
orin	-6497
ytti	-6498
▁12.	-6499
▁15.	-6500
▁Osa	-6501
▁Teh	-6502
▁Var	-6503
▁etn	-6504
▁ota	-6505
emman	-6506
immät	-6507
mitta	-6508
nellä	-6509
toivo	-6510
öiden	-6511
▁hätä	-6512
ittain	-6513
suunta	-6514
▁1997.	-6515
▁Fonta	-6516
▁kysyn	-6517
▁maino	-6518
▁palja	-6519
▁rauta	-6520
▁siirr	-6521
sasiain	-6522
tuotann	-6523
▁Muistu	-6524
▁kaksin	-6525
▁koostu	-6526
llisella	-6527
pasiteet	-6528
▁Kanadan	-6529
▁Minulla	-6530
▁järkevä	-6531
▁pilarin	-6532
▁standar	-6533
▁sukupol	-6534
▁Sveitsin	-6535
▁etteivät	-6536
▁helpotta	-6537
▁lentoken	-6538
▁muodostu	-6539
ehdotuksen	-6540
▁Espanjassa	-6541
▁osapuolten	-6542
▁sisältävät	-6543
▁vastaamaan	-6544
▁asetukseksi	-6545
▁henkilöstön	-6546
▁julkaistaan	-6547
▁korostetaan	-6548
▁Latinalaisen	-6549
▁toteuttamaan	-6550
▁kasvinjalosta	-6551
▁toteuttaminen	-6552
▁tarkistuksista	-6553
▁Jäsenvaltioiden	-6554
46	-6555
UL	-6556
hr	-6557
ms	-6558
for	-6559
ide	-6560
ilo	-6561
▁EL	-6562
▁Pä	-6563
aard	-6564
lisi	-6565
ettua	-6566
rissa	-6567
rista	-6568
sitou	-6569
▁Kulu	-6570
▁osta	-6571
▁pysä	-6572
ksestä	-6573
▁Kirjo	-6574
▁Rouva	-6575
▁Suomi	-6576
▁Wohlf	-6577
▁lihan	-6578
▁voitu	-6579
▁Bonino	-6580
▁Rooman	-6581
▁kattaa	-6582
▁kolmas	-6583
▁palata	-6584
▁rajoja	-6585
▁selven	-6586
▁suunni	-6587
▁tilapä	-6588
▁työssä	-6589
muksessa	-6590
rahaston	-6591
tettavan	-6592
▁kilpail	-6593
▁tasolle	-6594
rkeakoulu	-6595
▁Itävalta	-6596
▁Tiedämme	-6597
▁Wohlfart	-6598
▁läsnäoli	-6599
▁muutosta	-6600
▁selvitys	-6601
▁standard	-6602
▁Ruotsissa	-6603
▁ajatellen	-6604
▁jäsenistä	-6605
▁keskenään	-6606
▁puolueryh	-6607
▁puutteita	-6608
▁syrjinnän	-6609
▁tarkemmin	-6610
▁vastainen	-6611
▁ratkaisuja	-6612
▁ylipäätään	-6613
politiikassa	-6614
▁toteutettava	-6615
▁käsittelevässä	-6616
/2	-6617
by	-6618
car	-6619
▁7.	-6620
▁UC	-6621
dina	-6622
udin	-6623
▁19.	-6624
▁Mac	-6625
▁Par	-6626
▁syö	-6627
erbai	-6628
simme	-6629
▁nais	-6630
▁nime	-6631
▁syvä	-6632
ustaja	-6633
▁Toimi	-6634
▁parla	-6635
▁tiivi	-6636
▁useat	-6637
▁yhtey	-6638
nettävä	-6639
tuksena	-6640
ykselle	-6641
▁elintä	-6642
▁keskey	-6643
▁neuvoa	-6644
▁suurim	-6645
▁tehdyt	-6646
▁tuemme	-6647
estinnän	-6648
oikeutta	-6649
tetuista	-6650
▁johtuen	-6651
ohjelmaan	-6652
▁aineiden	-6653
▁antaneet	-6654
▁hintojen	-6655
▁syrjäyty	-6656
▁Ympäristö	-6657
▁käyttäyty	-6658
▁ongelmaan	-6659
▁pyynnöstä	-6660
▁Portugalin	-6661
▁ehdottoman	-6662
▁laiminlyön	-6663
▁myönteisiä	-6664
▁saatavilla	-6665
▁aloitteesta	-6666
▁toistaiseksi	-6667
▁parlamenttiin	-6668
▁toimenpiteistä	-6669
47	-6670
-00	-6671
dia	-6672
▁8.	-6673
▁FI	-6674
1994	-6675
chin	-6676
loma	-6677
toin	-6678
▁13.	-6679
▁Tor	-6680
▁Vih	-6681
menta	-6682
nöstä	-6683
uussa	-6684
▁Koko	-6685
▁luke	-6686
▁vedo	-6687
raatit	-6688
vyyttä	-6689
mätöntä	-6690
▁Italia	-6691
▁kohden	-6692
▁kolmea	-6693
▁kuuden	-6694
▁liitte	-6695
▁lyhyen	-6696
▁pieniä	-6697
▁ryhmät	-6698
kohdista	-6699
levaisuu	-6700
▁satelli	-6701
▁viikkoa	-6702
prosessin	-6703
▁Itämeren	-6704
▁ajatella	-6705
▁kohdista	-6706
▁koordino	-6707
▁mainitsi	-6708
▁peruutta	-6709
▁positiiv	-6710
▁tehtävää	-6711
▁tietävät	-6712
ministerin	-6713
välineiden	-6714
▁erityinen	-6715
▁keskeyttä	-6716
▁mielipide	-6717
▁tämänhetk	-6718
▁viimeisen	-6719
▁välisestä	-6720
▁avoimuuden	-6721
▁avoimuutta	-6722
▁ilmeisesti	-6723
▁olosuhteissa	-6724
▁vahvistetaan	-6725
▁valiokuntien	-6726
▁Luxemburgissa	-6727
▁määräenemmistö	-6728
▁neuvotteluissa	-6729
Uä	-6730
3).	-6731
ELM	-6732
ast	-6733
dio	-6734
fes	-6735
nel	-6736
sul	-6737
vai	-6738
deja	-6739
rans	-6740
änsä	-6741
▁20.	-6742
▁Eri	-6743
▁Jot	-6744
▁Sir	-6745
▁meh	-6746
innön	-6747
levat	-6748
tavan	-6749
▁kuul	-6750
ettävä	-6751
▁jakaa	-6752
▁lesta	-6753
▁monop	-6754
▁tukia	-6755
▁alueet	-6756
▁huolta	-6757
▁kirjaa	-6758
▁takana	-6759
........	-6760
▁laajene	-6761
▁luotava	-6762
▁muutama	-6763
▁varasto	-6764
▁verotus	-6765
▁yhdellä	-6766
▁olevista	-6767
▁tekninen	-6768
▁vaativat	-6769
teollisuus	-6770
valtuuston	-6771
▁automaatt	-6772
▁monikansa	-6773
▁rahoittaa	-6774
▁seitsemän	-6775
▁sellaiset	-6776
▁myönnetään	-6777
▁tällaisten	-6778
▁ympäristöä	-6779
▁marraskuuta	-6780
▁noudatetaan	-6781
▁rahoituksen	-6782
▁Kirjoittanut	-6783
▁lääketieteen	-6784
▁mielenkiinto	-6785
▁tyytyväisenä	-6786
▁vastauksesta	-6787
▁demokraattisten	-6788
-2	-6789
ÄÄ	-6790
teil	-6791
▁III	-6792
aatto	-6793
celon	-6794
htori	-6795
iasta	-6796
nettu	-6797
▁Wibe	-6798
▁kaun	-6799
käytön	-6800
luonto	-6801
mmassa	-6802
▁hanke	-6803
▁ilahd	-6804
▁luvan	-6805
▁muunn	-6806
▁uskoa	-6807
tetusta	-6808
tämisen	-6809
▁Ottaen	-6810
▁Siihen	-6811
▁Sitten	-6812
▁ehtoja	-6813
▁hyökkä	-6814
▁lukuun	-6815
▁näille	-6816
▁tahtoa	-6817
▁tiellä	-6818
▁vahing	-6819
itsemaan	-6820
▁lujitta	-6821
▁lähellä	-6822
▁metsien	-6823
▁parissa	-6824
▁seurata	-6825
▁voitava	-6826
harjoitta	-6827
▁anteeksi	-6828
▁johtavat	-6829
▁kannusta	-6830
▁lähettää	-6831
▁mainitun	-6832
▁tarkasta	-6833
▁tuettava	-6834
▁yhdistää	-6835
▁jäseneksi	-6836
▁kiinnosta	-6837
▁lokakuuta	-6838
▁luottamus	-6839
▁pyrittävä	-6840
▁tavaroita	-6841
▁tehtävien	-6842
▁teollisuu	-6843
▁onnistunut	-6844
▁toimittava	-6845
▁virallisen	-6846
▁demokratiaa	-6847
▁kiitollinen	-6848
▁mahdollisia	-6849
▁edellytykset	-6850
▁yhteisymmärr	-6851
▁yksittäisten	-6852
▁laajentumisen	-6853
▁periaatteiden	-6854
▁tullivirkaili	-6855
▁soveltamisesta	-6856
18	-6857
LAF	-6858
nos	-6859
ota	-6860
sof	-6861
tsa	-6862
ysa	-6863
▁60	-6864
▁Ba	-6865
▁Or	-6866
käyn	-6867
laan	-6868
vinä	-6869
▁Tän	-6870
▁Vaa	-6871
▁elo	-6872
▁kap	-6873
▁kir	-6874
▁tel	-6875
isuun	-6876
nyttä	-6877
tyypp	-6878
utulo	-6879
▁1991	-6880
▁alaa	-6881
▁joku	-6882
▁jälj	-6883
▁kuvi	-6884
▁kävi	-6885
maista	-6886
teille	-6887
▁1996.	-6888
▁houku	-6889
▁kahde	-6890
▁kuvaa	-6891
▁luvut	-6892
▁menne	-6893
▁naapu	-6894
▁rohke	-6895
▁tilaa	-6896
▁tulle	-6897
kuntaan	-6898
ministe	-6899
▁edeltä	-6900
▁hormon	-6901
▁tukien	-6902
▁tuskin	-6903
▁uusiin	-6904
▁ydinen	-6905
ellisten	-6906
ikkoihin	-6907
▁Kinnock	-6908
▁kolmann	-6909
▁radikaa	-6910
▁sektori	-6911
▁tuetaan	-6912
hallinnon	-6913
järjestöt	-6914
vaiheessa	-6915
▁johdanto	-6916
▁luominen	-6917
▁maksujen	-6918
▁päivittä	-6919
▁väliseen	-6920
ohjelmasta	-6921
▁ansaitsee	-6922
▁edustajia	-6923
▁koskemaan	-6924
▁monimuoto	-6925
▁tällaiset	-6926
▁yhteisten	-6927
▁esittäneet	-6928
▁pidemmälle	-6929
▁varainhoito	-6930
▁yhteiskunta	-6931
▁asiantuntija	-6932
▁korostettava	-6933
▁huolellisesti	-6934
▁jäsenvaltiota	-6935
▁kalastussopim	-6936
▁kansanpuolueen	-6937
rä	-6938
ALL	-6939
dut	-6940
hol	-6941
itz	-6942
kil	-6943
vit	-6944
himo	-6945
osan	-6946
osin	-6947
tres	-6948
▁Gon	-6949
▁ilm	-6950
▁nen	-6951
▁por	-6952
ittoa	-6953
jassa	-6954
nneet	-6955
tukea	-6956
▁aske	-6957
▁herk	-6958
▁omis	-6959
▁teen	-6960
▁viin	-6961
ikalle	-6962
kselle	-6963
maksut	-6964
▁Ihmis	-6965
▁Madri	-6966
▁Suosi	-6967
▁etene	-6968
▁pääsy	-6969
komitea	-6970
misella	-6971
▁Martin	-6972
▁Tänään	-6973
▁liikke	-6974
▁puolen	-6975
▁puolta	-6976
▁tuesta	-6977
▁valita	-6978
uduttava	-6979
voitteen	-6980
▁Britann	-6981
▁arvosta	-6982
▁epätasa	-6983
▁hyvinvo	-6984
▁ihmistä	-6985
▁kritiik	-6986
▁luodaan	-6987
▁osoitti	-6988
▁pysyvän	-6989
▁tekemis	-6990
▁tohtori	-6991
▁useiden	-6992
▁viitata	-6993
▁vaihtele	-6994
▁Järjestel	-6995
▁pitkäaika	-6996
▁suunnitte	-6997
▁virkamieh	-6998
▁tiedonanto	-6999
lainsäädännön	-7000
▁ehdotuksessa	-7001
▁osallistuvat	-7002
▁teknologista	-7003
▁valitettavaa	-7004
järjestelmästä	-7005
▁Yhdistyneiden	-7006
▁vahvistettava	-7007
▁valiokunnalle	-7008
▁työjärjestystä	-7009
17	-7010
48	-7011
5.	-7012
Ru	-7013
dar	-7014
eri	-7015
ese	-7016
riä	-7017
zen	-7018
1996	-7019
amme	-7020
atto	-7021
etto	-7022
inde	-7023
kaus	-7024
kona	-7025
mänä	-7026
urid	-7027
▁Len	-7028
▁Pro	-7029
▁Tit	-7030
▁siv	-7031
jemme	-7032
paket	-7033
▁Gene	-7034
▁Luon	-7035
▁alun	-7036
▁pika	-7037
kohdan	-7038
varain	-7039
▁Oomen	-7040
▁johti	-7041
osaston	-7042
▁Kiitos	-7043
▁Unioni	-7044
▁kriisi	-7045
▁kunnan	-7046
▁otamme	-7047
▁pienet	-7048
▁puolet	-7049
▁toimis	-7050
ttamista	-7051
▁kirjeen	-7052
▁koskien	-7053
▁ministe	-7054
▁väittää	-7055
▁välisiä	-7056
▁yksikkö	-7057
määräraho	-7058
uttaminen	-7059
▁Toivomme	-7060
▁ajoneuvo	-7061
▁arvoisan	-7062
▁julkisia	-7063
▁otettiin	-7064
▁selittää	-7065
▁taistelu	-7066
▁helpottaa	-7067
▁istuntoja	-7068
▁päätösten	-7069
▁toisiinsa	-7070
▁toisinaan	-7071
▁aiheutuvat	-7072
▁esitettävä	-7073
▁lentoyhtiö	-7074
▁neuvonanta	-7075
▁sellaisena	-7076
▁valtioissa	-7077
▁vihdoinkin	-7078
▁edistäminen	-7079
▁kauttakulku	-7080
▁ympäristöön	-7081
▁edustajakoko	-7082
▁luottamuksen	-7083
▁mietinnössään	-7084
▁ristiriidassa	-7085
▁tervetulleeksi	-7086
▁tullilaitosten	-7087
60	-7088
AC	-7089
uk	-7090
air	-7091
ire	-7092
▁Fl	-7093
▁Gu	-7094
dzan	-7095
gres	-7096
imet	-7097
yynn	-7098
öntä	-7099
▁Pel	-7100
▁ruu	-7101
▁väi	-7102
1/97)	-7103
fesso	-7104
mamme	-7105
piste	-7106
tiede	-7107
▁Krei	-7108
▁Kään	-7109
jattel	-7110
▁jurid	-7111
▁leviä	-7112
▁luoki	-7113
▁malli	-7114
▁mukan	-7115
▁piden	-7116
▁varaa	-7117
▁viedä	-7118
Suosion	-7119
peruste	-7120
sioista	-7121
teltava	-7122
▁Niinpä	-7123
▁YHTEIS	-7124
▁Yhtenä	-7125
▁kykene	-7126
▁liiton	-7127
▁loukka	-7128
▁tanska	-7129
▁teillä	-7130
lliseksi	-7131
utuminen	-7132
▁kriisin	-7133
▁käsittä	-7134
▁määrätä	-7135
▁sukupuo	-7136
▁toistaa	-7137
▁tällöin	-7138
▁johtanut	-7139
▁kyseiset	-7140
▁tiukasti	-7141
▁toisiaan	-7142
▁yhteyden	-7143
▁ymmärret	-7144
▁Italiassa	-7145
▁erilaiset	-7146
▁sanottuna	-7147
▁vastaisen	-7148
▁säännösten	-7149
▁valvontava	-7150
▁äänestystä	-7151
järjestelmiä	-7152
▁erinomainen	-7153
▁estämiseksi	-7154
▁läsnäolijat	-7155
▁seuraavista	-7156
▁terrorismin	-7157
▁maaliskuussa	-7158
▁periaatteita	-7159
▁järjestelmien	-7160
▁bioteknologian	-7161
con	-7162
eja	-7163
hti	-7164
pua	-7165
tod	-7166
▁0,	-7167
▁70	-7168
Ruij	-7169
ehkä	-7170
mani	-7171
meja	-7172
usin	-7173
▁16.	-7174
lassa	-7175
lisen	-7176
pojen	-7177
ssien	-7178
▁hien	-7179
▁kilo	-7180
▁näke	-7181
kurssi	-7182
maille	-7183
tterda	-7184
vuoden	-7185
ydestä	-7186
▁Tinde	-7187
▁UCLAF	-7188
▁kohda	-7189
Ruijten	-7190
immissa	-7191
uudesta	-7192
▁laivan	-7193
▁mehilä	-7194
▁omaksu	-7195
mättömiä	-7196
ttaminen	-7197
▁Valtuus	-7198
▁kuullut	-7199
▁sihteer	-7200
erbaidzan	-7201
▁Tindeman	-7202
▁ajattele	-7203
▁poliitik	-7204
▁tehtäviä	-7205
▁lähtökohta	-7206
▁säännöksiä	-7207
▁tavoitetta	-7208
▁toimenpide	-7209
▁asiakirjoja	-7210
▁keskuudessa	-7211
▁olemassaolo	-7212
▁todellakaan	-7213
▁turvapaikka	-7214
▁kuluttajille	-7215
▁liikkuvuutta	-7216
▁noudattamaan	-7217
▁politiikasta	-7218
▁soveltaminen	-7219
▁muuttamisesta	-7220
▁toteuttamisen	-7221
▁työllisyyteen	-7222
▁varmistettava	-7223
▁tilintarkastus	-7224
OK	-7225
mbo	-7226
tes	-7227
uer	-7228
ues	-7229
▁Ul	-7230
hdin	-7231
käyt	-7232
llia	-7233
▁Hol	-7234
▁Nor	-7235
▁tor	-7236
mäksi	-7237
titte	-7238
tulli	-7239
yttöm	-7240
▁(196	-7241
▁Eura	-7242
▁Siir	-7243
▁astu	-7244
▁asun	-7245
▁kiih	-7246
▁mita	-7247
alalla	-7248
maassa	-7249
rakenn	-7250
roista	-7251
▁Broek	-7252
▁avoin	-7253
▁edetä	-7254
▁heiko	-7255
▁hämmä	-7256
▁menee	-7257
▁mista	-7258
kkaiden	-7259
tusasia	-7260
yhteisö	-7261
▁biolog	-7262
▁ehkäis	-7263
▁kuukau	-7264
▁tiedän	-7265
▁kovasti	-7266
▁sotilas	-7267
▁pyrkivät	-7268
▁suositus	-7269
▁teknisen	-7270
▁toiminut	-7271
▁tunnista	-7272
▁vaadimme	-7273
▁viimeksi	-7274
ohjelmassa	-7275
▁entisestä	-7276
▁laitosten	-7277
▁pidettiin	-7278
▁toimittaa	-7279
▁työllisyy	-7280
▁viestintä	-7281
▁viimeinen	-7282
taloudellis	-7283
▁direktiive	-7284
▁identiteet	-7285
▁käyttöönot	-7286
▁naudanliha	-7287
▁näkökohdat	-7288
▁yhtenäistä	-7289
▁elintarvike	-7290
▁englanniksi	-7291
▁investointi	-7292
▁kaksinkerta	-7293
▁mahdollisen	-7294
▁toistuvasti	-7295
▁kehittämisen	-7296
▁poliittisesta	-7297
37	-7298
57	-7299
IA	-7300
KE	-7301
bi	-7302
hu	-7303
UTP	-7304
kit	-7305
nnä	-7306
piä	-7307
sis	-7308
tro	-7309
▁29	-7310
CDDA	-7311
jano	-7312
ässä	-7313
▁Ahl	-7314
▁vas	-7315
artne	-7316
korva	-7317
tävän	-7318
vatto	-7319
▁Bosn	-7320
▁Suom	-7321
▁Tarv	-7322
▁daan	-7323
▁jänn	-7324
ikooko	-7325
intoja	-7326
kotlan	-7327
tineet	-7328
▁Trans	-7329
▁Vuosi	-7330
▁eroja	-7331
▁hiili	-7332
▁syynä	-7333
▁Englan	-7334
▁Turkki	-7335
▁esillä	-7336
▁radioa	-7337
▁säteil	-7338
▁taakse	-7339
ikkeiden	-7340
lliselle	-7341
muslause	-7342
▁Donnell	-7343
▁ennuste	-7344
▁ettemme	-7345
▁ilmenee	-7346
▁käsitte	-7347
▁muualla	-7348
▁ollessa	-7349
▁säännön	-7350
▁taholta	-7351
▁tulliha	-7352
▁vähiten	-7353
▁Barcelon	-7354
▁eurooppa	-7355
▁kohteena	-7356
▁parempaa	-7357
▁sisältöä	-7358
▁vierailu	-7359
▁elintärke	-7360
▁ihmisille	-7361
▁menestyks	-7362
▁paikkansa	-7363
▁perustana	-7364
▁Alankomaat	-7365
▁Euroopalle	-7366
▁esittämiin	-7367
▁työsuojelu	-7368
▁Taloudellis	-7369
▁komissaarin	-7370
▁myönnettävä	-7371
▁sosiaaliset	-7372
▁minkäänlaista	-7373
▁kansainvälisiä	-7374
▁huippukokouksen	-7375
▁puheenjohtajana	-7376
▁ratkaisemiseksi	-7377
▁taloudellisesta	-7378
OT	-7379
ws	-7380
jiä	-7381
nöt	-7382
ope	-7383
par	-7384
▁36	-7385
jänä	-7386
onsa	-7387
ppaa	-7388
▁31.	-7389
▁500	-7390
▁Cor	-7391
▁ETY	-7392
▁Luo	-7393
▁Vil	-7394
aatio	-7395
didaa	-7396
empaa	-7397
inten	-7398
rasti	-7399
telyä	-7400
▁Bjer	-7401
▁Muut	-7402
▁Yrit	-7403
▁loma	-7404
▁oper	-7405
▁suva	-7406
▁vier	-7407
taansa	-7408
tional	-7409
▁Saman	-7410
▁inter	-7411
▁palaa	-7412
▁yhtyä	-7413
kettava	-7414
muuteen	-7415
▁Toisin	-7416
▁Tutkin	-7417
▁Ymmärr	-7418
▁joukon	-7419
▁omassa	-7420
▁sulkea	-7421
▁toteaa	-7422
▁vasten	-7423
▁väliin	-7424
▁Aikooko	-7425
▁Bjerreg	-7426
▁Kulutta	-7427
▁kattava	-7428
▁kolmeen	-7429
▁lopulla	-7430
▁luomaan	-7431
▁tilalle	-7432
▁tuottaa	-7433
▁valtava	-7434
▁Rotterda	-7435
▁enimmäis	-7436
▁esitystä	-7437
▁kielteis	-7438
▁liitteen	-7439
▁mukanaan	-7440
▁rakentaa	-7441
▁toimesta	-7442
▁varoista	-7443
▁palveluja	-7444
▁tutkimaan	-7445
▁ehdotusten	-7446
▁huolenaihe	-7447
▁kannatamme	-7448
▁kollegamme	-7449
▁väärinkäytö	-7450
▁politiikkaan	-7451
▁ponnisteluja	-7452
▁soveltamisen	-7453
▁tavallisesti	-7454
▁yksimielisyys	-7455
▁toteuttamiseksi	-7456
4.	-7457
VL	-7458
yk	-7459
bin	-7460
its	-7461
lob	-7462
▁9.	-7463
▁CD	-7464
ansa	-7465
llun	-7466
rjan	-7467
ttyä	-7468
ymme	-7469
▁Tun	-7470
lause	-7471
tetyt	-7472
veron	-7473
▁Lähi	-7474
▁Uusi	-7475
▁aino	-7476
▁järk	-7477
▁oles	-7478
▁poik	-7479
kampan	-7480
retään	-7481
riassa	-7482
töihin	-7483
▁Tilli	-7484
▁henki	-7485
▁kalli	-7486
toimien	-7487
varasto	-7488
▁kloona	-7489
▁käynyt	-7490
▁luonne	-7491
▁ohella	-7492
▁tarken	-7493
teeltaan	-7494
▁enempää	-7495
▁hylkäsi	-7496
▁korvata	-7497
▁suuntaa	-7498
tämisestä	-7499
▁hallitse	-7500
▁huonosti	-7501
▁luonteen	-7502
▁molemmat	-7503
▁ottaneet	-7504
▁syntynyt	-7505
▁tukemaan	-7506
▁välineet	-7507
▁ajatuksia	-7508
▁liittymis	-7509
▁lopputulo	-7510
▁myönnetty	-7511
▁myötävaik	-7512
periaatetta	-7513
▁pahoillani	-7514
▁perustavan	-7515
▁rahaliitto	-7516
▁seuraavien	-7517
▁sosialisti	-7518
▁vastaavien	-7519
järjestyksen	-7520
▁johtokunnan	-7521
▁sisällyttää	-7522
▁vaikutusten	-7523
▁kysymyksistä	-7524
▁välttämättöm	-7525
▁parlamenttimme	-7526
▁päätöslauselmaa	-7527
PA	-7528
-96	-7529
cis	-7530
gar	-7531
hat	-7532
▁Ai	-7533
▁IR	-7534
joja	-7535
▁Elä	-7536
▁Kar	-7537
▁Pan	-7538
▁lan	-7539
2/97)	-7540
aalis	-7541
isinä	-7542
kkaat	-7543
lleni	-7544
salan	-7545
tehtä	-7546
▁Pala	-7547
▁Veto	-7548
▁onne	-7549
esitys	-7550
ikalla	-7551
ksenne	-7552
oinnin	-7553
reille	-7554
tuotan	-7555
tyneen	-7556
▁Demok	-7557
▁Sella	-7558
▁feder	-7559
▁lause	-7560
▁ohjaa	-7561
▁sodan	-7562
▁tahto	-7563
▁äsken	-7564
enkilös	-7565
innissa	-7566
▁Eurato	-7567
▁Toimin	-7568
▁alenta	-7569
▁intres	-7570
▁jäävät	-7571
▁kestää	-7572
▁kiinti	-7573
▁leikka	-7574
▁missio	-7575
▁tuomio	-7576
▁väären	-7577
utumisen	-7578
▁itseään	-7579
▁jätetty	-7580
▁monivuo	-7581
▁naisiin	-7582
▁sisältö	-7583
▁sovittu	-7584
▁todettu	-7585
▁toisten	-7586
▁valossa	-7587
tettavien	-7588
▁Macartne	-7589
▁jätetään	-7590
▁kaikesta	-7591
▁kandidaa	-7592
▁kirjassa	-7593
▁teknisiä	-7594
▁toisella	-7595
▁työstään	-7596
▁vähemmis	-7597
▁huolintaa	-7598
▁huomiotta	-7599
▁juurikaan	-7600
▁maksetaan	-7601
▁parhaiten	-7602
▁suurimman	-7603
▁edistämään	-7604
▁ryhdyttävä	-7605
▁tämänpäivä	-7606
▁valtakunna	-7607
▁alueellisen	-7608
▁käsiteltiin	-7609
▁sosiaalisia	-7610
▁tiedonannon	-7611
▁täysistunto	-7612
▁koulutukseen	-7613
▁perustamista	-7614
▁käsittelemään	-7615
▁tarkastellaan	-7616
mahdollisuuksia	-7617
▁keskusteluissa	-7618
▁lähestymistapa	-7619
▁suojelemiseksi	-7620
▁kyseenalaiseksi	-7621
fa	-7622
▁:	-7623
Bur	-7624
hmo	-7625
huu	-7626
tyn	-7627
äkö	-7628
▁4,	-7629
▁Pi	-7630
kiin	-7631
▁Ala	-7632
▁And	-7633
▁män	-7634
▁sor	-7635
eksän	-7636
rutto	-7637
varat	-7638
verta	-7639
▁Papa	-7640
▁Päin	-7641
▁YUTP	-7642
▁jona	-7643
▁kein	-7644
▁kiin	-7645
▁lykä	-7646
ilosof	-7647
▁minut	-7648
▁oteta	-7649
▁rohka	-7650
▁väärä	-7651
▁yhdyn	-7652
▁esteet	-7653
▁heillä	-7654
▁jaettu	-7655
▁liittä	-7656
▁luulta	-7657
▁pettym	-7658
▁pysyvä	-7659
▁useaan	-7660
▁vanhen	-7661
▁väistä	-7662
tettavia	-7663
utumista	-7664
▁ASEANin	-7665
▁korosti	-7666
▁muistaa	-7667
▁oleviin	-7668
▁tekijät	-7669
▁tieteen	-7670
▁viestin	-7671
▁viljeli	-7672
▁yleisiä	-7673
isyydestä	-7674
raattinen	-7675
▁eläinlää	-7676
▁julkaise	-7677
▁luovutta	-7678
▁palvelut	-7679
▁patentti	-7680
▁seuraava	-7681
▁todistaa	-7682
▁vastakka	-7683
▁Hallinton	-7684
▁Maatalous	-7685
▁Muistutan	-7686
▁kutsutaan	-7687
▁suhtautuu	-7688
▁lopullinen	-7689
▁lopullisen	-7690
▁olennainen	-7691
▁entisestään	-7692
▁komissaaria	-7693
▁savukkeiden	-7694
▁toimeenpano	-7695
▁toimijoiden	-7696
▁tulevaisuus	-7697
▁äänestetään	-7698
toimenpiteitä	-7699
▁ensimmäiseen	-7700
▁passituspeto	-7701
▁tarpeellista	-7702
▁politiikkojen	-7703
▁tarkasteltava	-7704
2,	-7705
45	-7706
ens	-7707
joa	-7708
itek	-7709
teks	-7710
▁14.	-7711
▁Mor	-7712
▁New	-7713
▁Sin	-7714
▁Tel	-7715
▁inn	-7716
kenut	-7717
kissa	-7718
kkien	-7719
passi	-7720
stitu	-7721
tosta	-7722
verko	-7723
▁Alue	-7724
▁Cres	-7725
▁kyky	-7726
▁luop	-7727
▁meri	-7728
kansan	-7729
ttanut	-7730
utuvat	-7731
▁Raken	-7732
▁ennak	-7733
▁fooru	-7734
▁laadu	-7735
▁omaks	-7736
▁rauha	-7737
▁syitä	-7738
▁kasvan	-7739
▁kiittä	-7740
▁tahdon	-7741
▁tarjon	-7742
mattoman	-7743
tettavat	-7744
vallassa	-7745
▁erottaa	-7746
▁kiinteä	-7747
▁liittyä	-7748
▁lähinnä	-7749
▁minäkin	-7750
▁osaston	-7751
▁puhujan	-7752
▁rahasto	-7753
▁viljely	-7754
▁asianosa	-7755
▁enintään	-7756
▁katsomme	-7757
▁odotamme	-7758
▁olisimme	-7759
▁petoksen	-7760
▁rakennus	-7761
▁rohkaise	-7762
▁annettiin	-7763
▁edellytys	-7764
▁epäilystä	-7765
▁kannustaa	-7766
▁kuvitella	-7767
▁asetettava	-7768
▁ehdottanut	-7769
▁kuluttajat	-7770
▁toisistaan	-7771
▁epäoikeuden	-7772
▁luonnonmuka	-7773
▁tilaisuutta	-7774
▁toimielimen	-7775
▁virallisten	-7776
▁huolintaalan	-7777
▁keskisuurten	-7778
▁perustaminen	-7779
▁pöytäkirjaan	-7780
▁suuntaviivat	-7781
▁äänestykseen	-7782
▁kiinnitettävä	-7783
IV	-7784
6).	-7785
SET	-7786
ega	-7787
sun	-7788
vyy	-7789
yjä	-7790
unta	-7791
vain	-7792
▁Slo	-7793
▁ohj	-7794
IOKUN	-7795
eaika	-7796
hoito	-7797
minaa	-7798
▁Kuka	-7799
▁Vall	-7800
▁huum	-7801
▁kaan	-7802
▁Kiina	-7803
▁byrok	-7804
▁koitu	-7805
▁luovu	-7806
▁pääty	-7807
ustelun	-7808
▁esitän	-7809
▁miltei	-7810
▁myynti	-7811
▁nuoria	-7812
▁pystyy	-7813
▁toivoo	-7814
▁voitta	-7815
▁yhtään	-7816
▁yleisö	-7817
▁ystävä	-7818
Burtonin	-7819
periaate	-7820
▁hyvästä	-7821
▁jossain	-7822
▁korkein	-7823
▁liiketo	-7824
▁pidetty	-7825
▁siirret	-7826
▁tarkkaa	-7827
▁uusista	-7828
opimuksen	-7829
▁Dublinin	-7830
▁hankkeet	-7831
▁kolmesta	-7832
▁muitakin	-7833
▁sisäisen	-7834
▁katastrof	-7835
▁kompromis	-7836
▁suhteissa	-7837
▁suhteista	-7838
▁unionilla	-7839
poliittinen	-7840
▁toteutettu	-7841
▁kunnianhimo	-7842
▁laajentumis	-7843
▁osoittaneet	-7844
▁parantaminen	-7845
▁poliittiseen	-7846
▁maantieteellis	-7847
▁osallistumista	-7848
▁täytäntöönpanon	-7849
35	-7850
12.	-7851
lez	-7852
opa	-7853
ppu	-7854
▁yr	-7855
-197	-7856
chet	-7857
etna	-7858
koke	-7859
utin	-7860
vuun	-7861
▁Ase	-7862
▁Onn	-7863
▁dik	-7864
istoa	-7865
kilpa	-7866
maksa	-7867
▁erot	-7868
issään	-7869
kaupun	-7870
ksellä	-7871
llisin	-7872
teluun	-7873
tyksiä	-7874
▁Länsi	-7875
▁ammat	-7876
▁hetki	-7877
▁kulke	-7878
▁rinna	-7879
▁vakau	-7880
fessori	-7881
keleita	-7882
laiseen	-7883
ppaleen	-7884
▁ajanja	-7885
▁joutuu	-7886
▁kaikin	-7887
▁maksut	-7888
▁paikan	-7889
▁pohtia	-7890
▁selviä	-7891
▁tarpee	-7892
▁torsta	-7893
ittaessa	-7894
ttavissa	-7895
▁katsoen	-7896
▁yhdestä	-7897
▁Kannatan	-7898
▁Parlamen	-7899
▁johtuvat	-7900
▁päässeet	-7901
▁sanoneet	-7902
▁toiminna	-7903
▁Brysselin	-7904
▁avoimesti	-7905
▁lisättävä	-7906
▁vastaista	-7907
▁vieläkään	-7908
▁viitataan	-7909
▁arvioinnin	-7910
▁luottamuks	-7911
▁maksusitou	-7912
▁merkitsisi	-7913
▁onnettomuu	-7914
▁tasapainon	-7915
▁todellisia	-7916
▁tutkittava	-7917
▁käyttämällä	-7918
▁luultavasti	-7919
▁suunniteltu	-7920
▁uudistuksia	-7921
▁hyväksymistä	-7922
▁käsittelemme	-7923
▁lopullisesti	-7924
▁määritellään	-7925
▁tarvittaessa	-7926
▁toimivaltaan	-7927
▁valiokuntaan	-7928
▁ensimmäiseksi	-7929
▁geneettisesti	-7930
▁investointien	-7931
▁rekisteröinti	-7932
▁Kansainvälisen	-7933
▁Strasbourgissa	-7934
▁Yhdysvalloissa	-7935
▁sosiaaliturvan	-7936
▁tulevaisuuteen	-7937
▁konkreettisesti	-7938
▁lähestymistapaa	-7939
▁lääketieteellis	-7940
▁toteuttamisesta	-7941
Al	-7942
Vä	-7943
▁28	-7944
▁Dy	-7945
▁NA	-7946
▁OE	-7947
4-05	-7948
4-06	-7949
jiin	-7950
pyyn	-7951
ulle	-7952
▁Laa	-7953
▁Lon	-7954
▁kyl	-7955
ineet	-7956
kedon	-7957
kille	-7958
nössä	-7959
perin	-7960
tavat	-7961
▁Maan	-7962
▁Serb	-7963
▁kana	-7964
▁logi	-7965
▁tied	-7966
▁tiiv	-7967
inojen	-7968
soikeu	-7969
▁Monti	-7970
▁Niitä	-7971
▁Ohjel	-7972
▁Vakuu	-7973
▁heija	-7974
▁jatke	-7975
▁mennä	-7976
▁musta	-7977
▁töitä	-7978
ttaessa	-7979
▁integr	-7980
johtajan	-7981
▁Afrikan	-7982
▁aliarvi	-7983
▁hallinn	-7984
▁kaukana	-7985
▁osoitus	-7986
▁tiettyä	-7987
▁tulojen	-7988
▁työväen	-7989
sopimusta	-7990
▁ilmoitti	-7991
▁kannasta	-7992
▁kuukausi	-7993
▁merkintä	-7994
▁päämäärä	-7995
▁suuressa	-7996
▁sääntely	-7997
▁toisesta	-7998
▁järjestöt	-7999
▁kaikkiaan	-8000
▁tarkoitta	-8001
▁enemmistön	-8002
▁huolestune	-8003
▁kokoonpano	-8004
▁kulttuuria	-8005
▁määritelty	-8006
▁passitusta	-8007
▁saadakseen	-8008
▁tarvittava	-8009
▁Azerbaidzan	-8010
▁Bjerregaard	-8011
▁ilmoittanut	-8012
▁investointe	-8013
▁tilaisuuden	-8014
▁toimivallan	-8015
politiikkojen	-8016
▁pääministeri	-8017
▁sosiaalisten	-8018
▁työttömyyttä	-8019
▁osallistumaan	-8020
▁kustannuksella	-8021
▁toteuttamiseen	-8022
▁jäsenvaltioista	-8023
▁taloudellisista	-8024
34	-8025
36	-8026
38	-8027
um	-8028
10.	-8029
Aub	-8030
kua	-8031
mei	-8032
yer	-8033
▁IV	-8034
ding	-8035
lumb	-8036
onin	-8037
pana	-8038
vani	-8039
vira	-8040
▁IRU	-8041
▁Jac	-8042
▁Kaa	-8043
▁Kas	-8044
▁Pos	-8045
▁dra	-8046
▁juh	-8047
▁käs	-8048
▁sym	-8049
rapor	-8050
tulon	-8051
tunte	-8052
▁Habs	-8053
▁OECD	-8054
▁Usko	-8055
▁seen	-8056
jöistä	-8057
mannin	-8058
tuurin	-8059
ystävä	-8060
▁1995.	-8061
▁Fabre	-8062
▁Silgu	-8063
▁häviä	-8064
▁infor	-8065
▁käyty	-8066
▁osaan	-8067
▁pätee	-8068
▁tehos	-8069
aalista	-8070
tumista	-8071
ukselle	-8072
▁Joissa	-8073
▁Venäjä	-8074
▁asteen	-8075
▁elimen	-8076
▁heidät	-8077
▁lakeja	-8078
▁nostaa	-8079
▁tausta	-8080
▁varova	-8081
▁versio	-8082
kymmentä	-8083
okkaasti	-8084
▁Irlanti	-8085
▁Makedon	-8086
▁pyrimme	-8087
▁tulosta	-8088
▁ylittää	-8089
tekniikan	-8090
yritykset	-8091
▁Transkau	-8092
▁Yhteinen	-8093
▁kielellä	-8094
▁mukaisia	-8095
▁päätetty	-8096
▁ymmärrän	-8097
euvostossa	-8098
vapauksien	-8099
▁Tarkistus	-8100
▁kahdenväl	-8101
▁tunnustaa	-8102
▁demokratis	-8103
▁huolissaan	-8104
▁kesäkuussa	-8105
▁löydettävä	-8106
▁ratkaiseva	-8107
▁strategian	-8108
▁ennaltaehkä	-8109
▁muistettava	-8110
▁prosenttiin	-8111
▁yrityksissä	-8112
▁enemmistöllä	-8113
▁luonteeltaan	-8114
▁perustettiin	-8115
▁tärkeimmistä	-8116
▁keskustelujen	-8117
▁tarkistukseen	-8118
▁vaikutuksista	-8119
▁ammattiyhdisty	-8120
▁demokraattista	-8121
▁lainsäädäntöön	-8122
PO	-8123
7).	-8124
jun	-8125
Väli	-8126
anno	-8127
isoi	-8128
kier	-8129
leja	-8130
mbod	-8131
mmät	-8132
riko	-8133
siiv	-8134
▁25.	-8135
▁30.	-8136
▁Aja	-8137
▁Pas	-8138
▁SPD	-8139
▁läp	-8140
▁mik	-8141
dosta	-8142
pöytä	-8143
uolis	-8144
▁1989	-8145
▁Fran	-8146
▁Kroa	-8147
▁Maro	-8148
▁glob	-8149
▁kerä	-8150
▁loog	-8151
▁tela	-8152
▁öljy	-8153
neesta	-8154
neista	-8155
pankki	-8156
tuneet	-8157
vaihto	-8158
▁Tältä	-8159
▁hahmo	-8160
▁jalka	-8161
▁katta	-8162
▁lakka	-8163
▁lista	-8164
▁tuote	-8165
isempia	-8166
lähetti	-8167
suhteet	-8168
tietoja	-8169
▁Kaiken	-8170
▁Kambod	-8171
▁Medina	-8172
▁harkin	-8173
▁metsän	-8174
▁osasto	-8175
▁pyrkin	-8176
▁suljet	-8177
▁valvoo	-8178
▁ympäri	-8179
kunnalle	-8180
▁Ryhmäni	-8181
▁avustus	-8182
▁ehtojen	-8183
▁kilomet	-8184
▁liittää	-8185
▁luettel	-8186
▁melkein	-8187
▁menojen	-8188
▁taataan	-8189
▁tuodaan	-8190
▁ulkomaa	-8191
▁valitse	-8192
▁varattu	-8193
▁varmaan	-8194
▁Armenian	-8195
▁Habsburg	-8196
▁jossakin	-8197
▁kehottaa	-8198
▁nuorille	-8199
▁ohjelmaa	-8200
▁osapuoli	-8201
▁suvaitse	-8202
▁tuotteet	-8203
▁useimmat	-8204
▁yhteiset	-8205
▁osoitettu	-8206
▁pidetyssä	-8207
▁rangaista	-8208
▁rauhanoma	-8209
▁tehokasta	-8210
▁tärkeintä	-8211
▁vaikkakin	-8212
▁Barcelonan	-8213
▁puolueetto	-8214
▁puutteesta	-8215
tuomioistuin	-8216
▁luottamusta	-8217
▁organisaati	-8218
▁rakenteiden	-8219
▁ammattikoulu	-8220
▁käyttöönotto	-8221
▁vaihtoehtoja	-8222
▁päätöksenteko	-8223
▁suuntaviivoja	-8224
▁osallistuminen	-8225
▁puheenjohtajaa	-8226
▁ulkopolitiikan	-8227
1,	-8228
2/	-8229
gn	-8230
up	-8231
tot	-8232
▁Es	-8233
Venä	-8234
ckin	-8235
dell	-8236
isel	-8237
kala	-8238
llik	-8239
olon	-8240
yhte	-8241
öitä	-8242
▁28.	-8243
▁Mal	-8244
▁gel	-8245
▁jyr	-8246
kasva	-8247
malta	-8248
mpiin	-8249
mänsä	-8250
sitte	-8251
ynnän	-8252
▁Pitä	-8253
▁alla	-8254
▁paho	-8255
▁sota	-8256
Aubres	-8257
iminen	-8258
materi	-8259
teestä	-8260
▁Halli	-8261
▁Katso	-8262
▁ainut	-8263
▁itali	-8264
▁jatko	-8265
▁jälki	-8266
▁kerää	-8267
▁kunna	-8268
▁lakia	-8269
▁rasis	-8270
▁ydina	-8271
maksuja	-8272
päivänä	-8273
ryhmien	-8274
utuneet	-8275
▁Chilen	-8276
▁laista	-8277
▁loista	-8278
▁nuoret	-8279
▁osassa	-8280
▁päästy	-8281
▁sallia	-8282
▁tutkii	-8283
koneiden	-8284
▁Bertens	-8285
▁Skotlan	-8286
▁Souchet	-8287
▁Theorin	-8288
▁etteikö	-8289
▁kalakan	-8290
▁korjata	-8291
▁naapuri	-8292
▁ottavat	-8293
▁saatiin	-8294
▁sairaus	-8295
▁tapahdu	-8296
▁uudessa	-8297
istettiin	-8298
▁Sosiaali	-8299
▁geenitek	-8300
▁huolehti	-8301
▁laajasti	-8302
▁loppujen	-8303
▁poikkeus	-8304
▁puitteet	-8305
▁pyydämme	-8306
▁rooppala	-8307
▁vuodeksi	-8308
▁huolenaih	-8309
▁ilmaissut	-8310
▁jatketaan	-8311
▁jätteiden	-8312
▁katsotaan	-8313
▁muutoksen	-8314
▁odotetaan	-8315
▁ollenkaan	-8316
▁palauttaa	-8317
▁seuraavia	-8318
▁tarkistaa	-8319
▁tekemästä	-8320
konferenssi	-8321
▁kysymysten	-8322
▁nykyisessä	-8323
▁pääjohtaja	-8324
▁tarpeellis	-8325
▁tavaramerk	-8326
▁valtuuksia	-8327
▁Valiokunnan	-8328
▁kansalainen	-8329
▁puuttuminen	-8330
▁päätökseksi	-8331
▁radioaktiiv	-8332
▁toimivaltuu	-8333
▁vaatimusten	-8334
▁hyväksymisen	-8335
▁käyttöönottoa	-8336
▁laajentumista	-8337
▁tavoitteeseen	-8338
▁tavoitteisiin	-8339
▁tunnustettava	-8340
▁työntekijöitä	-8341
▁demokraattinen	-8342
▁keskustelemaan	-8343
▁neuvotteluihin	-8344
▁yhteenliittymän	-8345
IE	-8346
bk	-8347
ii	-8348
kt	-8349
vy	-8350
1).	-8351
dor	-8352
nsa	-8353
INTA	-8354
TIEN	-8355
aste	-8356
goli	-8357
jina	-8358
sopi	-8359
tali	-8360
teko	-8361
▁196	-8362
▁29.	-8363
▁Kok	-8364
▁Tek	-8365
▁avo	-8366
▁koi	-8367
▁mah	-8368
huone	-8369
ialle	-8370
jilla	-8371
serva	-8372
tetyn	-8373
vastu	-8374
▁Coll	-8375
▁Dybk	-8376
▁Holm	-8377
▁Orte	-8378
▁ihme	-8379
▁lähi	-8380
▁tulk	-8381
ilusta	-8382
mentti	-8383
sarvio	-8384
▁Vihre	-8385
▁Vilvo	-8386
▁epärö	-8387
▁raaka	-8388
▁rikos	-8389
▁tappi	-8390
▁tulen	-8391
▁valtu	-8392
vattiin	-8393
▁Burman	-8394
▁EMCDDA	-8395
▁Olette	-8396
▁Senega	-8397
▁Vietna	-8398
▁alojen	-8399
▁brutto	-8400
▁jatkuu	-8401
▁kuunne	-8402
▁lehden	-8403
llisille	-8404
oikeudet	-8405
▁Käytänn	-8406
▁Sopimus	-8407
▁erikois	-8408
▁kulutus	-8409
▁tosiaan	-8410
▁tukevat	-8411
mattomien	-8412
▁Passitus	-8413
▁analyysi	-8414
▁asetettu	-8415
▁askeleen	-8416
▁esitetyt	-8417
▁lehdistö	-8418
▁opettaja	-8419
▁pystyvät	-8420
▁rinnakka	-8421
▁tietokan	-8422
▁aiheeseen	-8423
▁koordinoi	-8424
▁prosessin	-8425
▁rakentava	-8426
▁saattavat	-8427
▁säädösten	-8428
▁teknisten	-8429
▁tiedetään	-8430
▁komissioon	-8431
▁liittotasa	-8432
▁maksettava	-8433
▁myönteisen	-8434
▁määrärahat	-8435
▁sisältyvät	-8436
▁tapahtuvan	-8437
▁väkivaltaa	-8438
▁yhteisesti	-8439
viranomaiset	-8440
▁esimerkkejä	-8441
▁kuljetuksen	-8442
▁kunnioittaa	-8443
▁liittymistä	-8444
▁periaatteet	-8445
▁toivottavaa	-8446
▁vapaaehtois	-8447
▁ehdotuksista	-8448
▁menettelyjen	-8449
▁paikallisten	-8450
▁puheenvuoroa	-8451
▁virkamiesten	-8452
▁ymmärrettävä	-8453
▁poliittisista	-8454
päätöslauselman	-8455
▁oikeusasiamies	-8456
3/	-8457
AM	-8458
An	-8459
JÄ	-8460
MP	-8461
RAT	-8462
dou	-8463
pii	-8464
1998	-8465
cker	-8466
iran	-8467
luku	-8468
mper	-8469
▁18.	-8470
▁Syy	-8471
▁sar	-8472
▁sys	-8473
3/97)	-8474
halti	-8475
kaupa	-8476
kulun	-8477
uvapa	-8478
vinto	-8479
vussa	-8480
▁Gonz	-8481
▁Kell	-8482
▁Koso	-8483
▁Sala	-8484
▁Tulo	-8485
▁näen	-8486
▁suhd	-8487
ettiin	-8488
prosen	-8489
yksien	-8490
▁Helms	-8491
▁Muuta	-8492
aalisen	-8493
estiina	-8494
ittelun	-8495
itykset	-8496
▁Fernan	-8497
▁alalle	-8498
▁antama	-8499
▁laajan	-8500
▁lehmän	-8501
▁täsmen	-8502
▁ulkora	-8503
▁vedota	-8504
▁Collins	-8505
▁Ehdotus	-8506
▁Käännös	-8507
▁koostuu	-8508
▁monista	-8509
▁oikeusa	-8510
▁olevaan	-8511
tieteessä	-8512
verkkojen	-8513
▁Madridin	-8514
▁hanketta	-8515
▁molemmin	-8516
▁puolella	-8517
▁syrjäisi	-8518
▁toimivan	-8519
▁vääristy	-8520
luonnoksen	-8521
▁Joissakin	-8522
▁ehdotettu	-8523
▁kahdeksan	-8524
▁kohdistuu	-8525
▁laittoman	-8526
▁säädetään	-8527
▁terveyttä	-8528
mattomuuden	-8529
▁Transkauka	-8530
▁esitettiin	-8531
▁jatkettava	-8532
▁luomiseksi	-8533
▁ymmärrettä	-8534
suunnitelman	-8535
▁PARLAMENTTI	-8536
▁erinomaisen	-8537
▁keskusteltu	-8538
▁merkittävän	-8539
▁palveluiden	-8540
▁parantamaan	-8541
▁tutkimuksia	-8542
▁vaikutuksen	-8543
levaisuudessa	-8544
▁joustavuutta	-8545
▁tehokkaammin	-8546
▁varmistamaan	-8547
▁kehitysmaiden	-8548
▁taloudelliseen	-8549
▁lähestymistavan	-8550
1-	-8551
UO	-8552
Puh	-8553
kor	-8554
▁75	-8555
▁Ty	-8556
kunn	-8557
loja	-8558
noby	-8559
näky	-8560
saar	-8561
udun	-8562
▁CDU	-8563
▁Har	-8564
▁Jen	-8565
▁McC	-8566
▁Sel	-8567
▁tas	-8568
innit	-8569
liito	-8570
teenä	-8571
toase	-8572
▁kauh	-8573
▁melu	-8574
tellut	-8575
ttuuri	-8576
▁Aelvo	-8577
▁Asian	-8578
▁Pidän	-8579
▁Tacis	-8580
▁alkan	-8581
▁kuvan	-8582
▁lausu	-8583
▁monin	-8584
▁sulje	-8585
isempaa	-8586
kriteer	-8587
▁19.07.	-8588
▁Neljän	-8589
▁Possel	-8590
▁Silguy	-8591
▁laajaa	-8592
▁poissa	-8593
▁potila	-8594
▁tonnia	-8595
▁työelä	-8596
▁työnsä	-8597
laisessa	-8598
llisilla	-8599
muotojen	-8600
▁Tilanne	-8601
▁Vilvoor	-8602
▁aineita	-8603
▁asialle	-8604
▁byrokra	-8605
▁erimiel	-8606
▁keinoin	-8607
▁portuga	-8608
▁tarkoin	-8609
▁tekstit	-8610
▁terrori	-8611
▁vaiheen	-8612
▁valmiit	-8613
▁varuste	-8614
toimintaa	-8615
▁Donnelly	-8616
▁Yhtenäis	-8617
▁Ymmärrän	-8618
▁dramaatt	-8619
▁halunnut	-8620
▁luomista	-8621
▁nykyiset	-8622
▁onnistuu	-8623
▁tuotteen	-8624
▁vakauden	-8625
▁yleisten	-8626
hankkeiden	-8627
▁Komissaar	-8628
▁assosioin	-8629
▁julkaistu	-8630
▁lausuntoa	-8631
▁osapuolen	-8632
▁osapuolet	-8633
▁täydentää	-8634
▁yhteyksiä	-8635
esimerkiksi	-8636
▁erilaisten	-8637
▁lähentymis	-8638
▁poistetaan	-8639
▁saamiseksi	-8640
▁Korkeakoulu	-8641
▁aloitteiden	-8642
▁hankkeisiin	-8643
▁menettelyjä	-8644
▁pakolaisten	-8645
▁tyytyväisiä	-8646
▁valiokuntaa	-8647
▁ratkaisemaan	-8648
▁sisällytetty	-8649
▁sopimuksella	-8650
▁tarkastuksia	-8651
▁tullitoimipa	-8652
▁uudistamista	-8653
▁viranomaisia	-8654
toimenpiteiden	-8655
▁hallitukselle	-8656
▁puheenvuoroni	-8657
▁rikollisuutta	-8658
▁äänestyksessä	-8659
▁perusperiaatte	-8660
28	-8661
tz	-8662
wa	-8663
ASS	-8664
jul	-8665
rez	-8666
uto	-8667
yrj	-8668
INEN	-8669
anna	-8670
ilee	-8671
llys	-8672
ment	-8673
myyn	-8674
pout	-8675
väes	-8676
▁24.	-8677
▁Ann	-8678
▁Lää	-8679
▁Ran	-8680
▁uha	-8681
RATES	-8682
intää	-8683
isään	-8684
netty	-8685
sänne	-8686
työlä	-8687
työtä	-8688
▁ELDR	-8689
▁Main	-8690
▁Novo	-8691
▁jalo	-8692
▁suru	-8693
▁terv	-8694
isasia	-8695
kautta	-8696
loiden	-8697
mmasta	-8698
mmista	-8699
uttiin	-8700
▁Dybkj	-8701
▁Hänen	-8702
▁Indon	-8703
▁peruu	-8704
▁saari	-8705
▁seksu	-8706
▁täytä	-8707
▁voiko	-8708
dettiin	-8709
issamme	-8710
kikelpo	-8711
nettiin	-8712
▁Jensen	-8713
▁eduste	-8714
▁katsoa	-8715
▁kärsin	-8716
▁pankki	-8717
▁siemen	-8718
arvoisen	-8719
esitystä	-8720
kymmenen	-8721
stettava	-8722
toimisto	-8723
▁haittaa	-8724
▁harkita	-8725
▁ideolog	-8726
▁kantelu	-8727
▁oloissa	-8728
isuuksien	-8729
laitoksen	-8730
teellinen	-8731
▁esittämä	-8732
▁haluatte	-8733
▁julkiset	-8734
▁sektorin	-8735
▁tärkeätä	-8736
sopimusten	-8737
▁aloitetta	-8738
▁esimerkin	-8739
▁hyväkseen	-8740
▁käsitteli	-8741
▁luomiseen	-8742
▁maahanmuu	-8743
▁ottamalla	-8744
▁otteeseen	-8745
▁tarkoitan	-8746
▁tehokkaan	-8747
▁tehokkuus	-8748
▁tuotantoa	-8749
▁työryhmän	-8750
▁valtioita	-8751
sopimukseen	-8752
yrityksille	-8753
▁aikaiseksi	-8754
▁olosuhteet	-8755
▁tyydyttävä	-8756
järjestelmät	-8757
▁kandidaatti	-8758
▁mietintönsä	-8759
▁passituksen	-8760
▁satelliitti	-8761
▁suositukset	-8762
▁työntekijät	-8763
▁äänestämään	-8764
▁järjestelmiä	-8765
▁kysymyksestä	-8766
▁seurauksista	-8767
▁varmistetaan	-8768
▁laajentuminen	-8769
▁kansainväliset	-8770
▁talousarviosta	-8771
▁viranomaisille	-8772
▁yksinkertainen	-8773
▁kauppajärjestön	-8774
▁täytäntöönpanoa	-8775
26	-8776
4/	-8777
49	-8778
ejä	-8779
eta	-8780
noy	-8781
rau	-8782
▁45	-8783
▁IS	-8784
▁Os	-8785
1997	-8786
elan	-8787
ikea	-8788
olle	-8789
tari	-8790
tark	-8791
tkin	-8792
öste	-8793
▁BKT	-8794
▁GUE	-8795
▁Hor	-8796
▁pöy	-8797
hyöty	-8798
lähet	-8799
perus	-8800
vatko	-8801
västä	-8802
▁elää	-8803
▁henk	-8804
▁hida	-8805
▁opti	-8806
▁osuu	-8807
▁roma	-8808
▁sion	-8809
iseltä	-8810
koholi	-8811
mentin	-8812
neille	-8813
ttävää	-8814
▁Flynn	-8815
▁Oreja	-8816
▁Telkä	-8817
▁lähte	-8818
▁länsi	-8819
▁puhui	-8820
▁puhuu	-8821
▁sinne	-8822
▁sopus	-8823
▁summa	-8824
▁tyypi	-8825
▁tyypp	-8826
dellyty	-8827
essamme	-8828
essämme	-8829
tiikkaa	-8830
▁Edellä	-8831
▁Gradin	-8832
▁Jotkut	-8833
▁Lannoy	-8834
▁Näihin	-8835
▁Papout	-8836
▁kertoi	-8837
▁mielen	-8838
▁poistu	-8839
▁roolia	-8840
▁runsaa	-8841
▁vakiin	-8842
llinette	-8843
vakuutus	-8844
vallasta	-8845
▁Cresson	-8846
▁hakemus	-8847
▁kokemus	-8848
▁monilla	-8849
▁riskejä	-8850
▁samassa	-8851
oikeuksia	-8852
tuotteita	-8853
▁Santerin	-8854
▁ajatusta	-8855
▁esitellä	-8856
▁jäsenyys	-8857
▁lisätään	-8858
▁läsnäolo	-8859
▁rankaise	-8860
▁rannikko	-8861
▁sihteeri	-8862
▁vaarassa	-8863
▁valinnan	-8864
▁antamalla	-8865
▁miljardin	-8866
▁seurausta	-8867
▁säädöksiä	-8868
▁tapauksia	-8869
▁tarjoavat	-8870
▁tekijöitä	-8871
▁toimivien	-8872
▁toivottaa	-8873
hallituksen	-8874
mattomuutta	-8875
▁19.07.1994	-8876
▁istunnossa	-8877
▁käyttäjien	-8878
▁lähetetään	-8879
▁olennaisen	-8880
▁onnittelen	-8881
▁valvontaan	-8882
menettelyssä	-8883
▁aiheuttamat	-8884
▁hyödyllistä	-8885
▁jäsenmaissa	-8886
▁mahdolliset	-8887
▁tehokkuutta	-8888
▁uusiutuvien	-8889
▁bruttokansan	-8890
▁huomautuksia	-8891
▁sovellettava	-8892
▁asianmukaista	-8893
▁sisämarkkinat	-8894
▁tiedonannossa	-8895
▁vahvistaminen	-8896
▁humanitaarisen	-8897
▁perustavanlaatu	-8898
39	-8899
SI	-8900
/95	-8901
EST	-8902
dal	-8903
ott	-8904
▁(2	-8905
▁34	-8906
▁El	-8907
▁Wh	-8908
inst	-8909
raan	-8910
ukan	-8911
ytyä	-8912
▁23.	-8913
▁27.	-8914
▁Cra	-8915
▁Kor	-8916
▁Nuo	-8917
▁Vel	-8918
▁WEU	-8919
▁Wol	-8920
▁koe	-8921
▁vät	-8922
-96/0	-8923
Mahon	-8924
dätte	-8925
jöste	-8926
katee	-8927
miset	-8928
okkuu	-8929
pittö	-8930
vänsä	-8931
vässä	-8932
▁Kala	-8933
▁jaks	-8934
▁kosk	-8935
▁kumo	-8936
▁neet	-8937
ikkeen	-8938
iltaan	-8939
moitus	-8940
teessä	-8941
▁Kerto	-8942
▁aloja	-8943
▁hakem	-8944
▁kerra	-8945
▁laina	-8946
▁nähtä	-8947
▁näytä	-8948
▁pysyy	-8949
▁rekry	-8950
▁tuhoa	-8951
▁turha	-8952
aalinen	-8953
elinten	-8954
itteitä	-8955
lkäämme	-8956
▁Näissä	-8957
▁Velzen	-8958
▁lykkää	-8959
▁olimme	-8960
▁omalla	-8961
▁pitäen	-8962
▁päivää	-8963
▁toimen	-8964
▁unohta	-8965
▁vapaus	-8966
muksensa	-8967
puolella	-8968
rakennus	-8969
▁Kellett	-8970
▁Kreikka	-8971
▁laisten	-8972
▁myöskin	-8973
▁päämäär	-8974
▁saavutu	-8975
▁hyödyntä	-8976
▁kysynnän	-8977
▁olevansa	-8978
▁paremman	-8979
▁petokset	-8980
▁pitämään	-8981
▁ponniste	-8982
▁sisällön	-8983
▁vaikutel	-8984
▁yksipuol	-8985
yhteistyön	-8986
▁esityksiä	-8987
▁kalastusa	-8988
▁maksamaan	-8989
▁onnittelu	-8990
▁taistella	-8991
▁Internetin	-8992
▁arkaluonto	-8993
▁lopullista	-8994
▁menetelmiä	-8995
▁merenkulku	-8996
▁mielenkiin	-8997
▁päättäneet	-8998
▁sisäasiain	-8999
▁useimmissa	-9000
▁vastavuoro	-9001
▁yhteisölle	-9002
markkinoilla	-9003
▁kehittämään	-9004
▁keksintöjen	-9005
▁oikeuksista	-9006
▁poistamista	-9007
▁seuraavassa	-9008
▁tehokkuuden	-9009
▁direktiiviin	-9010
▁ilmoitettava	-9011
▁väliaikaisen	-9012
▁yhdentymisen	-9013
▁yksimielisiä	-9014
▁direktiiviksi	-9015
▁huolehdittava	-9016
▁laajentaminen	-9017
▁parantamiseen	-9018
▁välttämiseksi	-9019
▁esityslistalla	-9020
▁huumausaineiden	-9021
Bow	-9022
dit	-9023
row	-9024
▁We	-9025
ehti	-9026
eitä	-9027
heet	-9028
isat	-9029
ostu	-9030
pääs	-9031
tuja	-9032
▁alv	-9033
▁ylä	-9034
▁äly	-9035
enkin	-9036
ijsen	-9037
isian	-9038
lauta	-9039
mitty	-9040
▁Kunn	-9041
▁Phar	-9042
▁TOIM	-9043
▁mään	-9044
▁taku	-9045
▁ääni	-9046
aation	-9047
ikanen	-9048
teltua	-9049
tiikan	-9050
tteita	-9051
tuotta	-9052
tykset	-9053
▁alkoi	-9054
▁annan	-9055
▁jäädä	-9056
▁käsin	-9057
▁liity	-9058
▁lupaa	-9059
▁lyhen	-9060
▁syrji	-9061
isuudet	-9062
massaan	-9063
stusten	-9064
udjetti	-9065
▁Kanada	-9066
▁ilmais	-9067
▁muotoi	-9068
▁olisin	-9069
▁reagoi	-9070
▁roolin	-9071
▁saaria	-9072
hankkeen	-9073
ohjelmia	-9074
palvelun	-9075
tettyjen	-9076
tuksemme	-9077
valvonta	-9078
▁Georgia	-9079
▁Posselt	-9080
▁aiheita	-9081
▁antaman	-9082
▁keskivi	-9083
▁pelkään	-9084
▁seminaa	-9085
▁tarjous	-9086
▁todistu	-9087
▁tullien	-9088
▁vähittä	-9089
hankkeita	-9090
tettaessa	-9091
▁Liikanen	-9092
▁assosiaa	-9093
▁esittele	-9094
▁kehitysa	-9095
▁kuulleet	-9096
▁kyseistä	-9097
▁laajalti	-9098
▁mahdotto	-9099
▁pakottaa	-9100
▁seikkoja	-9101
▁tasapuol	-9102
▁tehtyjen	-9103
▁vaaranta	-9104
▁valitaan	-9105
▁Tarvitaan	-9106
▁Telkämper	-9107
▁kirjoitta	-9108
▁päinvasta	-9109
▁tekstissä	-9110
▁vaaleilla	-9111
liikennettä	-9112
▁Britannian	-9113
▁Oikeusasia	-9114
▁arviointia	-9115
▁henkilöitä	-9116
▁käsitellyt	-9117
▁laadittava	-9118
▁päätettiin	-9119
▁tuottajien	-9120
▁yliopiston	-9121
yhteiskunnan	-9122
▁aiheutuvien	-9123
▁asetuksessa	-9124
▁parannuksia	-9125
▁selvityksen	-9126
▁vasemmiston	-9127
▁huippukokous	-9128
▁käsittelevät	-9129
▁suunnitelman	-9130
▁kilpailukyvyn	-9131
▁tiedonannosta	-9132
▁kehittämiseksi	-9133
▁opiskelijoiden	-9134
▁yhteiskunnassa	-9135
RJ	-9136
TT	-9137
ÄN	-9138
bje	-9139
iki	-9140
ors	-9141
▁Du	-9142
kate	-9143
mino	-9144
oinn	-9145
rana	-9146
tejä	-9147
yöhy	-9148
▁300	-9149
▁Bul	-9150
▁Tho	-9151
▁heh	-9152
impia	-9153
marin	-9154
matka	-9155
mesta	-9156
miksi	-9157
oitus	-9158
sinöö	-9159
stapa	-9160
tiedo	-9161
ttely	-9162
vaiku	-9163
▁Arvo	-9164
▁EYVL	-9165
▁Sama	-9166
▁Ulko	-9167
▁Unka	-9168
▁Wolf	-9169
▁edus	-9170
▁pari	-9171
▁vetä	-9172
Bowman	-9173
joihin	-9174
keneet	-9175
telyyn	-9176
toimet	-9177
ttavia	-9178
tyneet	-9179
udessa	-9180
▁1996,	-9181
▁Koulu	-9182
▁Kysyn	-9183
▁Mihin	-9184
▁Vetoo	-9185
▁etten	-9186
▁häpeä	-9187
▁suotu	-9188
▁yhtei	-9189
dessani	-9190
kysymys	-9191
tasolla	-9192
viljely	-9193
▁Muuten	-9194
▁Suurin	-9195
▁Wijsen	-9196
▁hetken	-9197
▁hylätä	-9198
▁lailla	-9199
▁näemme	-9200
▁pahoin	-9201
▁puhuja	-9202
▁pyyntö	-9203
▁samoja	-9204
▁verkon	-9205
asioiden	-9206
asioissa	-9207
llisestä	-9208
▁McMahon	-9209
▁Voidaan	-9210
▁ajattel	-9211
▁alusten	-9212
▁ammatin	-9213
▁aseista	-9214
▁filosof	-9215
▁mission	-9216
▁seikkaa	-9217
▁tarpeet	-9218
▁tehotto	-9219
▁vakavan	-9220
ristillis	-9221
▁asetusta	-9222
▁banaanin	-9223
▁herättää	-9224
▁ilmoitus	-9225
▁johtaisi	-9226
▁julkinen	-9227
▁kannusti	-9228
▁kaupunki	-9229
▁kestävää	-9230
▁kohdasta	-9231
▁muutettu	-9232
▁olevassa	-9233
▁olevasta	-9234
▁prosessi	-9235
▁ryhtynyt	-9236
▁suurelta	-9237
▁taloutta	-9238
▁tuolloin	-9239
▁vertailu	-9240
▁vieläkin	-9241
tekijöiden	-9242
▁Macartney	-9243
▁Tarkoitan	-9244
▁erikoistu	-9245
▁jokapäivä	-9246
▁keskuksen	-9247
▁ohjelmiin	-9248
▁ratkaistu	-9249
▁rohkeutta	-9250
▁runsaasti	-9251
▁televisio	-9252
▁tuloksena	-9253
kohtaisesti	-9254
▁ilmoitettu	-9255
▁muutettava	-9256
▁muuttamaan	-9257
▁näkemyksen	-9258
▁perustettu	-9259
▁professori	-9260
▁vasemmisto	-9261
▁veronmaksa	-9262
▁edistettävä	-9263
▁kalastuksen	-9264
▁liittyvissä	-9265
▁tekemisissä	-9266
▁tosiasiassa	-9267
▁Jäsenvaltiot	-9268
▁Päätöslausel	-9269
▁esittelijänä	-9270
▁keskusteluja	-9271
▁sopimuksista	-9272
▁sosiaaliseen	-9273
▁työskennellä	-9274
tuomioistuimen	-9275
▁sisällytetään	-9276
▁tarkistuksiin	-9277
▁televiestintä	-9278
▁muukalaisvihan	-9279
▁sydämellisesti	-9280
▁turvallisuuteen	-9281
FI	-9282
KP	-9283
LE	-9284
OH	-9285
UK	-9286
▁w	-9287
ATT	-9288
JEN	-9289
leh	-9290
lly	-9291
rup	-9292
töt	-9293
▁mä	-9294
meen	-9295
mppa	-9296
piin	-9297
rias	-9298
uksi	-9299
väki	-9300
­199	-9301
▁Epä	-9302
▁Gor	-9303
▁Oli	-9304
▁der	-9305
▁häi	-9306
▁lei	-9307
RJEST	-9308
ilija	-9309
linen	-9310
voite	-9311
yliop	-9312
▁Bart	-9313
▁Julk	-9314
▁Tiib	-9315
aalien	-9316
istunn	-9317
itteli	-9318
kkeita	-9319
ksissä	-9320
mmilla	-9321
mmäksi	-9322
▁1995,	-9323
▁Kolle	-9324
▁Schul	-9325
▁jälke	-9326
▁menot	-9327
▁ryhdy	-9328
▁seksi	-9329
▁suuru	-9330
▁tuoma	-9331
▁tähtä	-9332
OKRATES	-9333
ikomite	-9334
istetun	-9335
lueilla	-9336
mekanis	-9337
uksemme	-9338
▁Aasian	-9339
▁Alavan	-9340
▁Kansan	-9341
▁julkis	-9342
▁kielle	-9343
▁kuorma	-9344
▁laitos	-9345
▁projek	-9346
▁päällä	-9347
▁sekaan	-9348
▁teistä	-9349
▁tiuken	-9350
▁voitto	-9351
Aubrespy	-9352
janoikeu	-9353
koulutus	-9354
▁hehtaar	-9355
▁joitain	-9356
▁julkais	-9357
▁kädessä	-9358
▁opinnot	-9359
▁perheen	-9360
▁pohjois	-9361
▁puhujat	-9362
▁päättyy	-9363
▁realist	-9364
▁tukemme	-9365
▁uskomme	-9366
komission	-9367
tettäessä	-9368
▁Arvoisat	-9369
▁kaikilta	-9370
▁kansaned	-9371
▁laivasto	-9372
▁sisäistä	-9373
▁suurella	-9374
▁torjunta	-9375
▁verkosto	-9376
▁vilpittö	-9377
▁yleiseen	-9378
arlamentin	-9379
▁Portugali	-9380
▁edustavat	-9381
▁laaditaan	-9382
▁määräajan	-9383
▁suuremman	-9384
▁suurempaa	-9385
▁vaarantaa	-9386
▁vastaavaa	-9387
menetelmien	-9388
ministeriön	-9389
▁hyväksyntä	-9390
▁kapasiteet	-9391
▁neuvottele	-9392
▁radikaalia	-9393
▁sisällöstä	-9394
▁aiheuttanut	-9395
▁kolmansista	-9396
▁lisääntynyt	-9397
▁menestyksek	-9398
▁otettaisiin	-9399
▁poikkeuksia	-9400
▁poistaminen	-9401
▁rajoituksia	-9402
▁toimeenpane	-9403
▁täydellinen	-9404
▁yksityisten	-9405
▁edellytyksiä	-9406
▁marraskuussa	-9407
▁tavoitteista	-9408
▁torjumiseksi	-9409
▁tunnustetaan	-9410
▁valtiovarain	-9411
▁ihmisoikeudet	-9412
▁kuolemanranga	-9413
▁talousarviota	-9414
▁taloudellisiin	-9415
▁tarkistuksesta	-9416
▁epäoikeudenmuka	-9417
▁riippumattomien	-9418
3,	-9419
8).	-9420
DEN	-9421
los	-9422
luo	-9423
oon	-9424
siä	-9425
▁Go	-9426
kahd	-9427
kuva	-9428
pila	-9429
ssin	-9430
▁129	-9431
▁UPE	-9432
▁hir	-9433
▁nos	-9434
.00.)	-9435
demme	-9436
ksenä	-9437
malli	-9438
muodo	-9439
pyynn	-9440
rymme	-9441
tsego	-9442
usase	-9443
▁Iran	-9444
▁Peto	-9445
▁Puhu	-9446
▁Sekä	-9447
empien	-9448
ittoja	-9449
llians	-9450
loihin	-9451
päivän	-9452
▁1998.	-9453
▁Atlan	-9454
▁Pasty	-9455
▁lapsi	-9456
▁lukea	-9457
▁oppia	-9458
▁suhde	-9459
ittavat	-9460
llisyys	-9461
muotoja	-9462
tilanne	-9463
▁Bosnia	-9464
▁Bulgar	-9465
▁Sjöste	-9466
▁Titley	-9467
▁asenne	-9468
▁huonon	-9469
▁joutua	-9470
▁kiitos	-9471
▁löytyy	-9472
▁mahdol	-9473
▁mainon	-9474
▁perjan	-9475
▁sanoja	-9476
▁sopiva	-9477
▁toiset	-9478
palvelut	-9479
tuksille	-9480
▁Mongoli	-9481
▁alkuper	-9482
▁annamme	-9483
▁ehdotti	-9484
▁kannata	-9485
▁kutsutu	-9486
▁mekanis	-9487
▁myynnin	-9488
▁pidetyn	-9489
▁päivään	-9490
▁sisällö	-9491
▁takavar	-9492
▁tekemän	-9493
▁toimiva	-9494
▁vapautu	-9495
ellisesta	-9496
▁Kaikkien	-9497
▁aiheutuu	-9498
▁asemasta	-9499
▁hyötyvät	-9500
▁maailmaa	-9501
▁merenkul	-9502
▁nimenoma	-9503
▁piirissä	-9504
▁tapausta	-9505
▁tekniset	-9506
▁ajatuksen	-9507
▁heikentää	-9508
▁innovaati	-9509
▁jäsenmaat	-9510
▁matkailun	-9511
▁perustaja	-9512
▁tarpeiden	-9513
▁vaikeudet	-9514
▁vihreässä	-9515
direktiivin	-9516
▁Tutkintava	-9517
▁kielletään	-9518
▁siirretään	-9519
▁säännökset	-9520
▁tärkeimmät	-9521
▁vuosisadan	-9522
▁yhdentymis	-9523
konferenssin	-9524
▁Päinvastoin	-9525
▁edelleenkin	-9526
▁huomattavan	-9527
▁mainittujen	-9528
▁muuttaminen	-9529
▁toimielimiä	-9530
▁voimavaroja	-9531
▁alueellisten	-9532
▁politiikkoja	-9533
▁tarkastusten	-9534
▁kokonaismäärä	-9535
▁noudattaminen	-9536
▁energiaasioita	-9537
▁kiireellisistä	-9538
▁mahdollistavat	-9539
▁osallistumisen	-9540
▁tarkistuksessa	-9541
▁ajankohtaisista	-9542
▁tulevaisuudesta	-9543
6/	-9544
cu	-9545
hä	-9546
-05	-9547
cio	-9548
cra	-9549
pin	-9550
tui	-9551
▁31	-9552
▁43	-9553
▁TS	-9554
/97,	-9555
iker	-9556
kkau	-9557
lehd	-9558
pani	-9559
puun	-9560
rina	-9561
tekn	-9562
tios	-9563
­198	-9564
▁ARE	-9565
▁Mer	-9566
▁Tra	-9567
▁hui	-9568
▁ton	-9569
▁ump	-9570
4/97)	-9571
aalia	-9572
kastu	-9573
mpänä	-9574
sesti	-9575
toita	-9576
tteet	-9577
tumis	-9578
▁Tote	-9579
▁osia	-9580
▁otan	-9581
▁otsi	-9582
ikkeet	-9583
mmalla	-9584
mmille	-9585
teessa	-9586
teihin	-9587
tuilla	-9588
▁Berth	-9589
▁Hauta	-9590
▁Terve	-9591
▁Viera	-9592
▁armei	-9593
▁dikta	-9594
▁linja	-9595
▁paket	-9596
delleen	-9597
missään	-9598
yksikkö	-9599
ympäris	-9600
▁Kolumb	-9601
▁Torres	-9602
▁esimer	-9603
▁jäänyt	-9604
▁karjan	-9605
▁kurssi	-9606
▁lapsia	-9607
▁meiltä	-9608
▁menoja	-9609
▁monina	-9610
▁muuhun	-9611
▁tekisi	-9612
▁tuntee	-9613
▁täynnä	-9614
kuljetta	-9615
kuljetus	-9616
päivällä	-9617
▁Henkilö	-9618
▁ajoissa	-9619
▁arvioin	-9620
▁aseiden	-9621
▁elämään	-9622
▁ilmesty	-9623
▁kertoja	-9624
▁kielten	-9625
▁käsitys	-9626
▁salissa	-9627
▁siirtyä	-9628
▁turvata	-9629
▁vastuus	-9630
▁voittaa	-9631
hyötyanal	-9632
llianssin	-9633
▁Suomessa	-9634
▁alkoholi	-9635
▁jäsenenä	-9636
▁kasvanut	-9637
▁kaupasta	-9638
▁käyttäen	-9639
▁mainitut	-9640
▁mukautta	-9641
▁pilariin	-9642
▁pääsemme	-9643
▁resursse	-9644
▁sanoisin	-9645
▁teknistä	-9646
▁todennut	-9647
▁tunnettu	-9648
▁vaatinut	-9649
▁välineen	-9650
▁hyvinvoin	-9651
▁kanssanne	-9652
▁mitenkään	-9653
▁määrittää	-9654
▁nopeammin	-9655
▁todettiin	-9656
▁täyttävät	-9657
▁verkkojen	-9658
▁vihreiden	-9659
suunnitelma	-9660
yhdistyksen	-9661
▁Ainoastaan	-9662
▁Komissaari	-9663
▁arvioitava	-9664
▁diplomaatt	-9665
▁esitettyjä	-9666
▁ulottuvuus	-9667
tullitoimipa	-9668
▁Tarvitsemme	-9669
▁huhtikuussa	-9670
▁ilmoitetaan	-9671
▁muuttamista	-9672
▁ratkaisevan	-9673
▁sopimuksiin	-9674
▁suunnitelma	-9675
▁taistelussa	-9676
▁tutkimusten	-9677
▁vahvistettu	-9678
▁direktiivien	-9679
▁käyttöönoton	-9680
▁ritarikunnan	-9681
▁tutkimukseen	-9682
▁järjestelmään	-9683
▁laajentamista	-9684
▁sosiaalisesta	-9685
▁vähemmistöjen	-9686
▁kiireellisesti	-9687
▁kustannuksista	-9688
▁perustamisesta	-9689
▁talousarviossa	-9690
▁työskentelevät	-9691
▁instituutioiden	-9692
▁lainsäädännössä	-9693
▁ympäristöystävä	-9694
db	-9695
ez	-9696
195	-9697
aja	-9698
cha	-9699
cin	-9700
ety	-9701
koo	-9702
nee	-9703
vus	-9704
▁6,	-9705
▁Do	-9706
▁PP	-9707
▁ge	-9708
▁ru	-9709
ASTO	-9710
bora	-9711
eena	-9712
geen	-9713
maso	-9714
ming	-9715
onte	-9716
penc	-9717
siir	-9718
ties	-9719
vään	-9720
zaks	-9721
▁Del	-9722
▁Fun	-9723
▁Lyh	-9724
▁alt	-9725
▁and	-9726
▁kre	-9727
▁rei	-9728
▁vää	-9729
aikaa	-9730
ellon	-9731
hoita	-9732
jälle	-9733
kelta	-9734
telua	-9735
tover	-9736
tuaan	-9737
usina	-9738
▁Nord	-9739
▁Tapa	-9740
▁Tele	-9741
▁kopi	-9742
▁solm	-9743
dioksi	-9744
mmissa	-9745
tointi	-9746
voihin	-9747
▁Ilman	-9748
▁alaan	-9749
▁aviop	-9750
▁lehti	-9751
▁minen	-9752
▁pahen	-9753
▁paina	-9754
▁tiuke	-9755
▁vanki	-9756
▁varha	-9757
ikoiden	-9758
ittojen	-9759
kauppaa	-9760
neeseen	-9761
tapahtu	-9762
tumisen	-9763
täväksi	-9764
ustamis	-9765
▁Olisin	-9766
▁Opetta	-9767
▁Valtio	-9768
▁elimet	-9769
▁jotkin	-9770
▁korrup	-9771
▁päämää	-9772
▁pääoma	-9773
▁rauhaa	-9774
▁sanoma	-9775
▁väittä	-9776
alueiden	-9777
hankkeet	-9778
laisesta	-9779
viraston	-9780
▁Ukraina	-9781
▁eduista	-9782
▁koulutu	-9783
▁kulunut	-9784
▁luottaa	-9785
▁miseksi	-9786
▁olettaa	-9787
▁puhuttu	-9788
▁selkeät	-9789
▁suureen	-9790
▁säätele	-9791
▁taustaa	-9792
▁tekstiä	-9793
▁uskonno	-9794
järjestys	-9795
tekniikka	-9796
voitteena	-9797
▁demokraa	-9798
▁epäsuotu	-9799
▁kahdessa	-9800
▁kuuntele	-9801
▁käsitell	-9802
▁oleville	-9803
▁ponnistu	-9804
▁puhuneet	-9805
▁valittaa	-9806
muslauseen	-9807
▁Kreikassa	-9808
▁aloitteet	-9809
▁edellisen	-9810
▁esittämiä	-9811
▁historian	-9812
▁huomautus	-9813
▁muutosten	-9814
▁ohjelmaan	-9815
▁oikeuteen	-9816
▁ranskaksi	-9817
▁riittävät	-9818
▁syrjintää	-9819
▁tehdyistä	-9820
▁tukeminen	-9821
▁tulokseen	-9822
▁tärkeästä	-9823
▁yhteiskun	-9824
▁alkuperäis	-9825
▁harkittava	-9826
▁houkuttele	-9827
▁menettelyt	-9828
▁osoitetaan	-9829
▁perusteltu	-9830
▁pohdittava	-9831
▁täyttämään	-9832
▁yhdistetty	-9833
▁yhteisessä	-9834
turvallisuus	-9835
▁esittämistä	-9836
▁rahaasioita	-9837
▁ratkaistava	-9838
▁seuraavasti	-9839
▁uudistusten	-9840
▁asiakirjassa	-9841
▁kehityksessä	-9842
▁parannettava	-9843
▁rakentamisen	-9844
▁vähentäminen	-9845
▁kansallisissa	-9846
▁puhemiehistön	-9847
▁voimakkaammin	-9848
▁esityslistalle	-9849
▁johtopäätöksiä	-9850
▁televiestinnän	-9851
▁kunnioittaminen	-9852
▁yhteenkuuluvuus	-9853
11	-9854
mö	-9855
tw	-9856
11.	-9857
IST	-9858
arz	-9859
jou	-9860
oku	-9861
uhd	-9862
▁38	-9863
▁85	-9864
▁Fo	-9865
▁KO	-9866
TAIN	-9867
hake	-9868
huol	-9869
ksyn	-9870
seja	-9871
tisi	-9872
tuen	-9873
voja	-9874
▁Met	-9875
▁Pin	-9876
▁häl	-9877
▁juu	-9878
▁tau	-9879
▁tra	-9880
▁tuh	-9881
alaan	-9882
eensa	-9883
iluun	-9884
immin	-9885
kkois	-9886
laiva	-9887
muoto	-9888
nutta	-9889
palve	-9890
reita	-9891
vattu	-9892
▁1986	-9893
▁Saan	-9894
▁Tänä	-9895
▁ansi	-9896
▁ehto	-9897
▁ihan	-9898
▁naur	-9899
▁räjä	-9900
▁sinä	-9901
itsisi	-9902
käytän	-9903
tisten	-9904
ttivat	-9905
utumis	-9906
▁1997,	-9907
▁Aivan	-9908
▁Kyllä	-9909
▁Spenc	-9910
▁White	-9911
▁auton	-9912
▁epäva	-9913
▁hajau	-9914
▁kanso	-9915
▁keksi	-9916
▁lasku	-9917
▁mikro	-9918
▁tuota	-9919
ehdotus	-9920
ikoilla	-9921
immista	-9922
instrea	-9923
käyttöä	-9924
telussa	-9925
▁Europe	-9926
▁Heidän	-9927
▁Kazaks	-9928
▁Kukaan	-9929
▁Sindal	-9930
▁aiomme	-9931
▁hinnan	-9932
▁inflaa	-9933
▁kielen	-9934
▁kohdat	-9935
▁laatii	-9936
▁lausel	-9937
▁päälle	-9938
▁siirtä	-9939
▁tapaan	-9940
▁tuonut	-9941
Puhemies	-9942
boratori	-9943
hallinto	-9944
kaudella	-9945
kunnasta	-9946
sihteeri	-9947
▁Kehitys	-9948
▁Lancker	-9949
▁epävira	-9950
▁helppoa	-9951
▁kaikken	-9952
▁kasvuun	-9953
▁kolmaso	-9954
▁kongres	-9955
▁kotimaa	-9956
▁laiminl	-9957
▁pääoman	-9958
▁tulossa	-9959
▁vihdoin	-9960
yrityksiä	-9961
▁Georgian	-9962
▁Jokainen	-9963
▁Viraston	-9964
▁budjetin	-9965
▁hallinta	-9966
▁integraa	-9967
▁jäljellä	-9968
▁kärsivät	-9969
▁ohjelmat	-9970
▁paljasta	-9971
▁sanoitte	-9972
▁tuhansia	-9973
▁valuutan	-9974
▁viittaan	-9975
▁virheitä	-9976
▁yhteenve	-9977
▁ylikansa	-9978
mattomasti	-9979
▁esittämän	-9980
▁hallintoa	-9981
▁itsessään	-9982
▁kuuluvien	-9983
▁näyttävät	-9984
▁puhtaasti	-9985
▁suuremmat	-9986
▁tapauksen	-9987
▁tarkkaili	-9988
▁tuloksiin	-9989
▁viimeaika	-9990
▁Jugoslavia	-9991
▁ainutlaatu	-9992
▁asiantunte	-9993
▁kollegojen	-9994
▁lisääminen	-9995
▁lokakuussa	-9996
▁luomisesta	-9997
▁merenkulun	-9998
▁ohjelmasta	-9999
▁ratkaisuun	-10000
▁strategiaa	-10001
▁tapahtumat	-10002
▁tehtävistä	-10003
▁tehtävänsä	-10004
▁yhtenäinen	-10005
▁kuljetusten	-10006
▁toimintansa	-10007
▁tutkimukset	-10008
▁vaarallista	-10009
▁äänestäneet	-10010
järjestelmiin	-10011
▁alkuperäisen	-10012
▁aloittamista	-10013
▁ensimmäisenä	-10014
▁huolestuttaa	-10015
▁järjestyksen	-10016
▁kansallisiin	-10017
▁kiinnostunut	-10018
▁konferenssia	-10019
▁voimavarojen	-10020
▁kansallisille	-10021
▁merkityksestä	-10022
▁parlamenttina	-10023
▁ulkopuolisten	-10024
▁vakuuttuneita	-10025
▁kehittämisessä	-10026
▁oikeusasiamieh	-10027
mahdollisuuksien	-10028
CT	-10029
eg	-10030
rr	-10031
eha	-10032
hea	-10033
ltö	-10034
▁As	-10035
▁Hu	-10036
ASTA	-10037
Amer	-10038
ettö	-10039
ikul	-10040
kikä	-10041
looi	-10042
poli	-10043
uier	-10044
ämme	-10045
▁Die	-10046
▁Dij	-10047
▁Lop	-10048
▁Tyy	-10049
▁Väh	-10050
▁fre	-10051
▁häv	-10052
4-199	-10053
intia	-10054
menpi	-10055
oimme	-10056
tessa	-10057
▁Asen	-10058
▁Eräs	-10059
▁GATT	-10060
▁Sall	-10061
▁nega	-10062
▁pelä	-10063
▁peri	-10064
▁pohj	-10065
▁usei	-10066
▁viiv	-10067
alueen	-10068
hoidon	-10069
ikenne	-10070
isikin	-10071
johdon	-10072
kohtaa	-10073
mmalle	-10074
mmiksi	-10075
ttelen	-10076
uierdo	-10077
▁Liber	-10078
▁Määrä	-10079
▁Papay	-10080
▁Phare	-10081
▁Plooi	-10082
▁Yliop	-10083
▁hänet	-10084
▁jätti	-10085
▁lyhyt	-10086
▁matta	-10087
▁rajan	-10088
▁rinta	-10089
▁sanaa	-10090
▁teura	-10091
▁unohd	-10092
mission	-10093
mistaan	-10094
organis	-10095
taminen	-10096
teltiin	-10097
▁Langen	-10098
▁aiheet	-10099
▁elämää	-10100
▁halusi	-10101
▁hiukan	-10102
▁kontro	-10103
▁kärsii	-10104
▁mallin	-10105
▁neuvos	-10106
▁seikat	-10107
▁selvit	-10108
▁uhreja	-10109
bjektiiv	-10110
tarkasta	-10111
vapauden	-10112
▁antaisi	-10113
▁edustus	-10114
▁harhaan	-10115
▁muunnel	-10116
▁palkkaa	-10117
▁panosta	-10118
▁riskien	-10119
▁useissa	-10120
▁vakiinn	-10121
▁verojen	-10122
prosessia	-10123
▁Hollanti	-10124
▁Tarkistu	-10125
▁asteitta	-10126
▁joustava	-10127
▁kanssaan	-10128
▁kirjasta	-10129
▁kokousta	-10130
▁kylläkin	-10131
▁lehdessä	-10132
▁liikennö	-10133
▁lääketie	-10134
▁menestys	-10135
▁rajoissa	-10136
▁rehellis	-10137
▁toimeksi	-10138
▁vahinkoa	-10139
▁vaikutti	-10140
▁vakuuden	-10141
▁vakuutta	-10142
▁valtavan	-10143
▁Senegalin	-10144
▁avaaminen	-10145
▁edessämme	-10146
▁erilainen	-10147
▁erityista	-10148
▁esittämät	-10149
▁keskittyä	-10150
▁kriteerit	-10151
▁käynniste	-10152
▁laiminlyö	-10153
▁matkailua	-10154
▁ratkaisut	-10155
▁sijaitsee	-10156
▁valtiosta	-10157
▁ylläpitää	-10158
▁aikataulun	-10159
▁jokaisella	-10160
▁lausuntoja	-10161
▁liittyviin	-10162
▁määräaikaa	-10163
▁ongelmasta	-10164
▁palestiina	-10165
▁rikosoikeu	-10166
▁tarpeisiin	-10167
▁vastuuvapa	-10168
▁virallinen	-10169
▁voidessani	-10170
▁ymmärtänyt	-10171
▁äänestänyt	-10172
▁erityispiir	-10173
▁esimerkkinä	-10174
▁esitettyjen	-10175
▁kansalaisen	-10176
▁onnistuneet	-10177
▁suunnittelu	-10178
▁tarvittavan	-10179
▁toimintojen	-10180
▁vaatimuksen	-10181
▁vahvistavat	-10182
▁valvonnasta	-10183
▁vapaakauppa	-10184
▁ymmärtämään	-10185
▁ensisijainen	-10186
▁huomautuksen	-10187
▁kansalliseen	-10188
▁parantamista	-10189
▁salakuljetus	-10190
▁tarkastukset	-10191
▁harjoittajien	-10192
▁keskeytettiin	-10193
▁keskustelleet	-10194
▁keskusteltava	-10195
▁oikeudellisia	-10196
▁osallistuneet	-10197
▁poliittisessa	-10198
▁toivottavasti	-10199
▁vapauttamista	-10200
yleissopimuksen	-10201
▁Transkaukasian	-10202
▁työntekijöille	-10203
id	-10204
ür	-10205
▁/	-10206
-06	-10207
Ben	-10208
VAL	-10209
chi	-10210
iso	-10211
kro	-10212
mur	-10213
pia	-10214
rat	-10215
sei	-10216
uaa	-10217
▁(1	-10218
▁Ur	-10219
▁ia	-10220
dorf	-10221
embo	-10222
gerd	-10223
grad	-10224
kata	-10225
osto	-10226
sisä	-10227
teke	-10228
utui	-10229
▁400	-10230
▁Boo	-10231
▁pet	-10232
▁tei	-10233
▁tuu	-10234
ikoja	-10235
johto	-10236
tensä	-10237
tulla	-10238
yteen	-10239
▁Crow	-10240
▁Jarz	-10241
▁Mole	-10242
▁NATO	-10243
▁Vara	-10244
▁aion	-10245
▁edel	-10246
▁isän	-10247
▁kurs	-10248
▁lous	-10249
▁osto	-10250
▁sijo	-10251
▁summ	-10252
▁teko	-10253
▁terä	-10254
inkaan	-10255
kunnat	-10256
sääntö	-10257
teitse	-10258
▁Anger	-10259
▁Genev	-10260
▁Huoli	-10261
▁Julka	-10262
▁Sandb	-10263
▁joudu	-10264
▁kohtu	-10265
▁miell	-10266
▁nauta	-10267
▁petos	-10268
▁rahat	-10269
▁sosio	-10270
▁viran	-10271
dersson	-10272
ittelee	-10273
laisiin	-10274
misellä	-10275
tteihin	-10276
tymisen	-10277
▁Plooij	-10278
▁elävät	-10279
▁hullun	-10280
▁häirit	-10281
▁jonkun	-10282
▁laskel	-10283
▁lukuja	-10284
▁odotta	-10285
▁oletta	-10286
▁omissa	-10287
▁riskin	-10288
▁tapana	-10289
▁tekemä	-10290
▁tuntia	-10291
▁vapaat	-10292
RJESTELM	-10293
luonteis	-10294
muksella	-10295
yhteisön	-10296
▁Boogerd	-10297
▁Interna	-10298
▁Uskomme	-10299
▁ehdokas	-10300
▁hedelmä	-10301
▁jaetaan	-10302
▁kokeilu	-10303
▁muotoil	-10304
▁sinänsä	-10305
markkinat	-10306
tuotannon	-10307
▁Jarzembo	-10308
▁Sallikaa	-10309
▁Sjöstedt	-10310
▁arvioitu	-10311
▁avattiin	-10312
▁avoimuus	-10313
▁hengessä	-10314
▁kohdella	-10315
▁kohtelun	-10316
▁koulutta	-10317
▁menoista	-10318
▁merkkejä	-10319
▁muutamat	-10320
▁poliisin	-10321
▁syrjintä	-10322
▁taattava	-10323
▁yhtyneen	-10324
teknologia	-10325
▁Papoutsis	-10326
▁Suhteista	-10327
▁Yleisesti	-10328
▁edistävät	-10329
▁joihinkin	-10330
▁joillakin	-10331
▁jäsenelle	-10332
▁kielletty	-10333
▁ottamista	-10334
▁päätetään	-10335
▁sopusoinn	-10336
▁suullisen	-10337
▁tapaukset	-10338
▁torstaina	-10339
▁vastalaus	-10340
liokunnalle	-10341
▁byrokraatt	-10342
▁edistetään	-10343
▁julkisesti	-10344
▁kokemuksia	-10345
▁lisäämistä	-10346
▁perusteita	-10347
▁tehokkaita	-10348
▁tehtäväksi	-10349
▁todisteita	-10350
▁työpaikkaa	-10351
▁tärkeimpiä	-10352
▁Neljänneksi	-10353
▁laillisesti	-10354
▁lausuntonsa	-10355
▁neuvostolta	-10356
▁osoitettava	-10357
▁prosentilla	-10358
▁pyrkimyksiä	-10359
▁pääsihteeri	-10360
▁täydellistä	-10361
▁uudistuksen	-10362
▁yhteyksissä	-10363
▁assosiaatios	-10364
▁edistämiseen	-10365
▁harjoittavat	-10366
▁järjestelmät	-10367
▁kiinnitetään	-10368
▁markkinointi	-10369
▁saavuttamaan	-10370
▁sopimuksissa	-10371
▁tapahduttava	-10372
▁yleissopimus	-10373
konferenssissa	-10374
▁arvonlisävero	-10375
▁investointeja	-10376
▁kertomuksesta	-10377
▁keskustelusta	-10378
▁menettelytapa	-10379
▁monimutkainen	-10380
▁sosiaalisesti	-10381
▁tunnustaminen	-10382
▁Neuvostoliiton	-10383
▁johtopäätökset	-10384
▁kiinnostuneita	-10385
▁päättäväisesti	-10386
▁vähentämiseksi	-10387
▁kansainvälisiin	-10388
▁solidaarisuuden	-10389
vö	-10390
▁,	-10391
400	-10392
KUU	-10393
UTK	-10394
ero	-10395
ydy	-10396
▁39	-10397
▁4-	-10398
▁97	-10399
▁ES	-10400
▁Nr	-10401
1995	-10402
aine	-10403
antu	-10404
beek	-10405
enin	-10406
jään	-10407
kumo	-10408
okra	-10409
oryh	-10410
stut	-10411
tere	-10412
ttei	-10413
tuki	-10414
vesi	-10415
▁26.	-10416
▁Nro	-10417
▁Rea	-10418
▁Yli	-10419
▁for	-10420
▁juo	-10421
▁lev	-10422
▁näk	-10423
▁the	-10424
ASSIT	-10425
ehdot	-10426
nille	-10427
piiri	-10428
puoli	-10429
saine	-10430
union	-10431
▁1980	-10432
▁Blak	-10433
▁Cohn	-10434
▁John	-10435
▁Lyhy	-10436
▁Myön	-10437
▁TUTK	-10438
▁para	-10439
▁seko	-10440
▁suju	-10441
enkään	-10442
logian	-10443
puheen	-10444
reihin	-10445
tautia	-10446
tiikka	-10447
tuissa	-10448
tutkin	-10449
uuteen	-10450
▁Kaksi	-10451
▁Sanon	-10452
▁avain	-10453
▁ecuun	-10454
▁liite	-10455
▁makro	-10456
▁sesti	-10457
▁taipu	-10458
▁tasoa	-10459
▁tänne	-10460
▁vahva	-10461
▁vanho	-10462
▁viisa	-10463
oitamme	-10464
sinööri	-10465
▁PASSIT	-10466
▁Samoin	-10467
▁Teidän	-10468
▁Virgin	-10469
▁ilmene	-10470
▁jatkui	-10471
▁kutsua	-10472
▁nousee	-10473
▁saivat	-10474
▁suojan	-10475
▁tiista	-10476
▁tullit	-10477
▁turkki	-10478
▁vanhan	-10479
▁ylläpi	-10480
▁äänten	-10481
laisista	-10482
llisiksi	-10483
▁Aelvoet	-10484
▁Hautala	-10485
▁Naisten	-10486
▁havaita	-10487
▁hänellä	-10488
▁hävittä	-10489
▁ilmaisi	-10490
▁jatkuva	-10491
▁lainsää	-10492
▁menevät	-10493
▁puhelin	-10494
▁pyyntöä	-10495
▁sanovat	-10496
▁soveltu	-10497
▁yleiset	-10498
palveluja	-10499
▁Alavanos	-10500
▁Kaakkois	-10501
▁SOKRATES	-10502
▁Suositus	-10503
▁Ukrainan	-10504
▁ainakaan	-10505
▁havaitta	-10506
▁havaittu	-10507
▁hitaasti	-10508
▁hyödyksi	-10509
▁ilmeistä	-10510
▁informaa	-10511
▁italiala	-10512
▁jäsenval	-10513
▁kutsuttu	-10514
▁käytäntö	-10515
▁mehiläis	-10516
▁menettää	-10517
▁nimittää	-10518
▁oikealla	-10519
▁oleskelu	-10520
▁pääsevät	-10521
▁silmällä	-10522
▁tarpeita	-10523
▁tehdystä	-10524
▁tiivistä	-10525
▁tuloista	-10526
▁valtavia	-10527
▁yhteydet	-10528
Euroopassa	-10529
määräyksiä	-10530
▁Kazakstan	-10531
▁antamista	-10532
▁edustajaa	-10533
▁huolehtii	-10534
▁joutuneet	-10535
▁ottaminen	-10536
▁samanarvo	-10537
▁sanottiin	-10538
▁sääntelyn	-10539
▁tasaarvon	-10540
▁välisistä	-10541
▁yhteisöön	-10542
▁yrittävät	-10543
▁Dublinissa	-10544
▁Jarzembows	-10545
▁jäsenyyttä	-10546
▁kuukausina	-10547
▁käynnistää	-10548
▁päätettävä	-10549
▁sitoutunut	-10550
▁tapahtuisi	-10551
▁teknisesti	-10552
▁teknologia	-10553
▁tärkeämpää	-10554
▁uudistusta	-10555
▁välineiden	-10556
▁yhtenäisen	-10557
▁yksityistä	-10558
määrärahojen	-10559
teollisuutta	-10560
▁jatkossakin	-10561
▁kirjallinen	-10562
▁kohdistuvan	-10563
▁liittyvästä	-10564
▁riittämättö	-10565
▁rikollisuus	-10566
▁tapahtumien	-10567
▁tarvittavia	-10568
▁toteuttamis	-10569
▁toukokuussa	-10570
▁tukemiseksi	-10571
▁täydellisen	-10572
▁viimeistään	-10573
▁yksittäiset	-10574
▁määriteltävä	-10575
▁rehellisesti	-10576
▁sellaisenaan	-10577
▁tieteellisen	-10578
▁työskentelee	-10579
▁väliaikainen	-10580
▁epäilystäkään	-10581
▁oikeudelliset	-10582
▁täydellisesti	-10583
▁järjestelmästä	-10584
▁jäsenvaltiosta	-10585
▁suuntaviivojen	-10586
▁automaattisesti	-10587
EM	-10588
COD	-10589
ITE	-10590
NTO	-10591
her	-10592
idä	-10593
imi	-10594
kol	-10595
les	-10596
tyt	-10597
uan	-10598
wan	-10599
▁Iz	-10600
ardo	-10601
ehän	-10602
enna	-10603
hard	-10604
ilin	-10605
joka	-10606
pako	-10607
toni	-10608
ttöm	-10609
▁Bre	-10610
▁Den	-10611
▁MED	-10612
▁Sov	-10613
▁jär	-10614
▁ura	-10615
6/97)	-10616
ellin	-10617
feder	-10618
gissa	-10619
isien	-10620
iteet	-10621
nusta	-10622
posti	-10623
töntä	-10624
virka	-10625
▁Bern	-10626
▁Hory	-10627
▁Istu	-10628
▁Luku	-10629
▁Pien	-10630
▁Raha	-10631
▁luki	-10632
▁tuet	-10633
▁vang	-10634
▁viip	-10635
anotta	-10636
mettel	-10637
säännö	-10638
taudin	-10639
tekijä	-10640
ttuina	-10641
tumaan	-10642
ulussa	-10643
voimaa	-10644
voista	-10645
▁arvoa	-10646
▁dolla	-10647
▁ilmiö	-10648
▁murha	-10649
▁pysyä	-10650
▁vanha	-10651
alueita	-10652
asiassa	-10653
intojen	-10654
itkällä	-10655
tessaan	-10656
tyminen	-10657
uksilla	-10658
uttanut	-10659
voimien	-10660
▁Berthu	-10661
▁Niissä	-10662
▁Näillä	-10663
▁Ortega	-10664
▁Siellä	-10665
▁edelly	-10666
▁huoman	-10667
▁jollei	-10668
▁kemian	-10669
▁ketään	-10670
▁kuulua	-10671
▁kuussa	-10672
▁lakien	-10673
▁lieven	-10674
▁linjaa	-10675
▁niiltä	-10676
▁riskit	-10677
▁saimme	-10678
▁sallii	-10679
▁syntyä	-10680
▁tukahd	-10681
▁tukeen	-10682
▁veroja	-10683
edellyty	-10684
eläinten	-10685
kertomus	-10686
llessaan	-10687
ongelmat	-10688
tuotteet	-10689
▁Asensio	-10690
▁Hyväksy	-10691
▁Marokon	-10692
▁Minulle	-10693
▁Näyttää	-10694
▁Pelkään	-10695
▁esityks	-10696
▁hankkia	-10697
▁huomioi	-10698
▁kehotta	-10699
▁metsäpa	-10700
▁parasta	-10701
▁poikkea	-10702
▁sanotte	-10703
▁sivisty	-10704
▁tietoon	-10705
▁uuselin	-10706
▁vakavaa	-10707
▁varmoja	-10708
istamista	-10709
istuminen	-10710
isyydessä	-10711
laitokset	-10712
ohjelmiin	-10713
tilanteen	-10714
▁Rothleyn	-10715
▁Tiibetin	-10716
▁Viittaan	-10717
▁erityisa	-10718
▁henkilön	-10719
▁hämmästy	-10720
▁keskittä	-10721
▁kyvyttöm	-10722
▁maksavat	-10723
▁miljardi	-10724
▁painosta	-10725
▁pyydetty	-10726
▁raportin	-10727
▁selkeitä	-10728
▁selvillä	-10729
▁suuresta	-10730
▁tekstiin	-10731
▁tuntevat	-10732
▁välittää	-10733
▁Andersson	-10734
▁Kulttuuri	-10735
▁antaminen	-10736
▁kaikkensa	-10737
▁laitoksen	-10738
▁lisääntyy	-10739
▁luettelon	-10740
▁muutetaan	-10741
▁nykyiseen	-10742
▁perustuva	-10743
▁saattaisi	-10744
▁siirrettä	-10745
▁tarpeetto	-10746
▁tasaverta	-10747
▁tekstistä	-10748
▁vähittäis	-10749
▁Wijsenbeek	-10750
▁edustajana	-10751
▁esimerkkiä	-10752
▁joustavuus	-10753
▁järjestely	-10754
▁kasvihuone	-10755
▁kaupankäyn	-10756
▁korvauksia	-10757
▁kuukausien	-10758
▁opposition	-10759
▁pikaisesti	-10760
▁poistamaan	-10761
▁suojelusta	-10762
▁teknisistä	-10763
▁todelliset	-10764
▁ulkoasiain	-10765
▁vastaiseen	-10766
▁Käytännössä	-10767
▁kokouksissa	-10768
▁kollegoiden	-10769
▁määrärahoja	-10770
▁perinteisen	-10771
▁rajoitukset	-10772
▁saavutetaan	-10773
▁sairauksien	-10774
▁suosituksen	-10775
▁tuotteisiin	-10776
▁valvonnassa	-10777
▁edellyttävät	-10778
▁maahanmuutta	-10779
▁menettelystä	-10780
▁mietinnöistä	-10781
▁rakentamista	-10782
▁riippuvainen	-10783
▁riippuvaisia	-10784
▁saavuttaneet	-10785
▁toimintaansa	-10786
mahdollisuudet	-10787
▁keskusteltiin	-10788
▁kilpailukykyä	-10789
▁käännöskeskus	-10790
▁osoittautunut	-10791
▁parlamentilta	-10792
▁vuoropuheluun	-10793
▁istuntosalissa	-10794
▁hallinnollisten	-10795
▁järjestäytyneen	-10796
▁kansanterveyden	-10797
▁koulutusasioita	-10798
▁päätöslauselmat	-10799
EP	-10800
En	-10801
In	-10802
SÄ	-10803
yp	-10804
dez	-10805
gon	-10806
kuo	-10807
kyk	-10808
lai	-10809
nes	-10810
nys	-10811
osi	-10812
rot	-10813
sut	-10814
ääd	-10815
▁32	-10816
▁5,	-10817
▁95	-10818
▁sü	-10819
3/97	-10820
cher	-10821
esim	-10822
hdys	-10823
lkää	-10824
oike	-10825
ssit	-10826
ulua	-10827
▁EKP	-10828
▁Haa	-10829
▁Mul	-10830
▁Nic	-10831
▁län	-10832
▁plu	-10833
KUUTA	-10834
alist	-10835
dimme	-10836
euvon	-10837
kettä	-10838
lasta	-10839
mpään	-10840
mälle	-10841
ostus	-10842
telty	-10843
tuloa	-10844
uksin	-10845
▁Arvi	-10846
▁ETYJ	-10847
▁ISTU	-10848
▁Rosa	-10849
▁Tekn	-10850
▁Tunn	-10851
▁Vaik	-10852
▁Watt	-10853
▁etel	-10854
▁heik	-10855
▁kone	-10856
▁legi	-10857
▁pilo	-10858
▁talo	-10859
ikoina	-10860
llikkö	-10861
loissa	-10862
▁Minua	-10863
▁Souli	-10864
▁Tilin	-10865
▁halti	-10866
▁kyken	-10867
▁lihaa	-10868
▁luotu	-10869
▁nalta	-10870
▁rotus	-10871
▁tulon	-10872
▁uskoo	-10873
eillään	-10874
nobylin	-10875
sioihin	-10876
ustelua	-10877
▁Luonno	-10878
▁Meille	-10879
▁ajaksi	-10880
▁akatee	-10881
▁esitin	-10882
▁innova	-10883
▁kansaa	-10884
▁kirjoi	-10885
▁loppua	-10886
▁seikan	-10887
▁syntyi	-10888
▁talisi	-10889
aatioryh	-10890
dellisen	-10891
ellisena	-10892
estiinan	-10893
kijoiden	-10894
luettelo	-10895
puolista	-10896
▁Kirsten	-10897
▁askelta	-10898
▁avoimen	-10899
▁kantaan	-10900
▁luvussa	-10901
▁merkitä	-10902
▁ovatkin	-10903
▁pidettä	-10904
▁riittää	-10905
▁suuriin	-10906
▁tekemiä	-10907
▁tukensa	-10908
▁tulleet	-10909
▁yksisel	-10910
▁yleisön	-10911
enkilöstö	-10912
▁Kyseinen	-10913
▁Pariisin	-10914
▁ajattelu	-10915
▁alueelta	-10916
▁arvioita	-10917
▁konfeder	-10918
▁laatiman	-10919
▁niinkään	-10920
▁palvelun	-10921
▁perjanta	-10922
▁perustua	-10923
▁puutetta	-10924
▁puutteen	-10925
▁päivästä	-10926
▁rajoilla	-10927
▁ryhmitty	-10928
▁tiedoksi	-10929
▁toimijat	-10930
▁urheilun	-10931
▁yritämme	-10932
strategian	-10933
▁Belgiassa	-10934
▁Mietinnön	-10935
▁Papayanna	-10936
▁Tanskassa	-10937
▁ilahdutta	-10938
▁kuljetusa	-10939
▁odottavat	-10940
▁perusteet	-10941
▁teknologi	-10942
▁tiiviisti	-10943
▁työllistä	-10944
▁tärkeyttä	-10945
▁vastaavia	-10946
▁vastannut	-10947
▁vastataan	-10948
▁vastuusta	-10949
▁virkamies	-10950
instreaming	-10951
llisuudelle	-10952
▁Vilvoorden	-10953
▁kalastusta	-10954
▁kokoukseen	-10955
▁käyttäneet	-10956
▁perinpohja	-10957
▁petoksista	-10958
▁tiettyihin	-10959
▁tämänkalta	-10960
▁vaadittava	-10961
▁yrityksiin	-10962
kustannusten	-10963
▁Haluaisimme	-10964
▁Palestiinan	-10965
▁alueellista	-10966
▁arviointiin	-10967
▁haluaisimme	-10968
▁hiilidioksi	-10969
▁huomattavaa	-10970
▁huomautusta	-10971
▁julkaisujen	-10972
▁korkeintaan	-10973
▁paikallisen	-10974
▁parlamentit	-10975
▁presidentin	-10976
▁rahoitetaan	-10977
▁standardien	-10978
▁tapauksista	-10979
▁tarkoitusta	-10980
▁toiminnalle	-10981
▁vetoomuksen	-10982
▁yksittäisen	-10983
▁Tanskalaiset	-10984
▁hyvinvoinnin	-10985
▁kehitykselle	-10986
▁politiikassa	-10987
▁vaatimuksiin	-10988
▁virallisessa	-10989
turvallisuuden	-10990
▁Pohjoismaiden	-10991
▁asianmukainen	-10992
▁parlamentista	-10993
▁poistamiseksi	-10994
▁vaikutuksesta	-10995
▁jäsenvaltioihin	-10996
.9	-10997
4,	-10998
NA	-10999
ai	-11000
ji	-11001
äi	-11002
)).	-11003
Beh	-11004
CHO	-11005
FIN	-11006
can	-11007
cen	-11008
fio	-11009
fri	-11010
gio	-11011
hor	-11012
int	-11013
▁(3	-11014
▁46	-11015
▁48	-11016
▁65	-11017
▁oi	-11018
bert	-11019
dzio	-11020
hous	-11021
iren	-11022
ison	-11023
kkiä	-11024
niin	-11025
rink	-11026
ropa	-11027
sesi	-11028
tini	-11029
unut	-11030
▁130	-11031
▁Ama	-11032
▁Stu	-11033
▁eks	-11034
▁elv	-11035
▁näe	-11036
▁stä	-11037
▁suv	-11038
dossa	-11039
hrton	-11040
isikö	-11041
istyö	-11042
ktron	-11043
udron	-11044
▁Ango	-11045
▁tään	-11046
▁uska	-11047
Behren	-11048
ergian	-11049
ineita	-11050
ittäin	-11051
keihin	-11052
kirjat	-11053
miemme	-11054
määrin	-11055
ryhmiä	-11056
tteitä	-11057
yhtiön	-11058
▁(1983	-11059
▁Camis	-11060
▁Halla	-11061
▁Huoma	-11062
▁Uuden	-11063
▁eläke	-11064
▁hinno	-11065
▁häiri	-11066
▁katoa	-11067
▁kauni	-11068
▁kohde	-11069
▁kukin	-11070
▁kulku	-11071
▁menpi	-11072
▁ostaa	-11073
▁paneu	-11074
▁testa	-11075
▁verot	-11076
ellistä	-11077
kohtien	-11078
käytänn	-11079
merellä	-11080
toimiin	-11081
utumaan	-11082
▁Rakenn	-11083
▁Schulz	-11084
▁hinnat	-11085
▁hyvään	-11086
▁määrät	-11087
▁palkki	-11088
▁pelkää	-11089
▁satama	-11090
▁tarkis	-11091
▁tuovat	-11092
▁varmaa	-11093
itteista	-11094
▁Caudron	-11095
▁Ongelma	-11096
▁Randzio	-11097
▁Tällöin	-11098
▁harvina	-11099
▁kohtiin	-11100
▁puoltaa	-11101
▁samasta	-11102
▁suositu	-11103
▁talousa	-11104
▁tekemät	-11105
▁vaihtaa	-11106
▁valitsi	-11107
▁vastuua	-11108
▁virheen	-11109
ittaisiin	-11110
kirjoihin	-11111
ustettava	-11112
yhtiöiden	-11113
▁Odotamme	-11114
▁brittilä	-11115
▁esteiden	-11116
▁jollakin	-11117
▁joutunut	-11118
▁kahdella	-11119
▁kesäkuun	-11120
▁kielillä	-11121
▁laitonta	-11122
▁negatiiv	-11123
▁pystynyt	-11124
▁rajoittu	-11125
▁sisäinen	-11126
▁toiveita	-11127
▁tulevina	-11128
▁valtiota	-11129
JÄRJESTELM	-11130
ollisuuden	-11131
valtioissa	-11132
▁asettanut	-11133
▁esitykset	-11134
▁halunneet	-11135
▁kappaleen	-11136
▁kysyttävä	-11137
▁löytämään	-11138
▁mainittua	-11139
▁merkitään	-11140
▁objektiiv	-11141
▁odotuksia	-11142
▁osapuolia	-11143
▁riittävää	-11144
▁tarpeesta	-11145
▁tekniikan	-11146
▁terrorite	-11147
▁vastaisia	-11148
▁yritetään	-11149
vaatimuksia	-11150
▁etusijalla	-11151
▁katsottuna	-11152
▁kaupunkien	-11153
▁kolmanteen	-11154
▁kuluttajia	-11155
▁liitteessä	-11156
▁maanviljel	-11157
▁matkustaja	-11158
▁olennaista	-11159
▁patentoita	-11160
▁pääsihteer	-11161
▁talouksien	-11162
▁vaatimusta	-11163
▁vastuuseen	-11164
▁vähemmistö	-11165
▁väärinkäsi	-11166
▁yhteensopi	-11167
Britanniassa	-11168
kustannuksia	-11169
menettelyjen	-11170
▁Tindemansin	-11171
▁hankkeeseen	-11172
▁kehitettävä	-11173
▁lausunnossa	-11174
▁markkinoita	-11175
▁noudattavat	-11176
▁päätöksistä	-11177
▁sitoutuneet	-11178
▁tiedonantoa	-11179
▁uuselintarv	-11180
▁vakuutuksen	-11181
▁ydinenergia	-11182
▁assosiointis	-11183
▁demokratiaan	-11184
▁direktiivejä	-11185
▁edistysaskel	-11186
▁ensisijaisen	-11187
▁esitettyihin	-11188
▁kompromissin	-11189
▁lähtökohtana	-11190
▁näkökohdista	-11191
▁todistusaine	-11192
▁uudistaminen	-11193
▁virallisesti	-11194
▁yhteisvastuu	-11195
▁hyväksyttävää	-11196
▁myöntämisestä	-11197
▁odotettavissa	-11198
▁poliittisella	-11199
▁sopusoinnussa	-11200
▁vahvistamista	-11201
▁vapauttaminen	-11202
▁Kansainvälinen	-11203
▁historiallinen	-11204
▁velvollisuuksia	-11205
44	-11206
EA	-11207
ISU	-11208
deo	-11209
jes	-11210
käs	-11211
pon	-11212
rek	-11213
▁2)	-11214
▁86	-11215
▁9,	-11216
▁IM	-11217
ling	-11218
nian	-11219
nyty	-11220
roja	-11221
tiop	-11222
twer	-11223
udet	-11224
ylle	-11225
▁22.	-11226
▁Cox	-11227
▁Dan	-11228
▁ECO	-11229
▁Sar	-11230
▁Tse	-11231
▁Yor	-11232
▁des	-11233
▁nut	-11234
▁tör	-11235
5/97)	-11236
9/97)	-11237
jilta	-11238
kintä	-11239
kista	-11240
misia	-11241
neena	-11242
rosta	-11243
valvo	-11244
vältä	-11245
yissä	-11246
▁Dell	-11247
▁Jean	-11248
▁Laus	-11249
▁Viim	-11250
▁arki	-11251
▁hoid	-11252
▁moti	-11253
▁naut	-11254
alueet	-11255
essäni	-11256
jöihin	-11257
koista	-11258
lueita	-11259
piirin	-11260
teemme	-11261
uummin	-11262
vuotis	-11263
▁(1982	-11264
▁(1987	-11265
▁2000:	-11266
▁Cramp	-11267
▁Roman	-11268
▁Yhden	-11269
▁etsiä	-11270
▁halve	-11271
▁ikära	-11272
▁johda	-11273
▁kokoa	-11274
▁lähde	-11275
▁lämpi	-11276
▁nouse	-11277
▁onnea	-11278
▁tahot	-11279
▁toisi	-11280
▁tulot	-11281
ikoissa	-11282
ittelua	-11283
kkaille	-11284
laisena	-11285
ongelma	-11286
tapatur	-11287
telleet	-11288
twerpen	-11289
tymistä	-11290
vaiheen	-11291
yksillä	-11292
yttävät	-11293
▁Kuuban	-11294
▁Mierlo	-11295
▁hengen	-11296
▁keskit	-11297
▁kärsim	-11298
▁moniin	-11299
▁paikka	-11300
▁ritari	-11301
▁sankti	-11302
▁säästö	-11303
▁tullis	-11304
▁työolo	-11305
llisissa	-11306
mukainen	-11307
ongelmia	-11308
▁Asiasta	-11309
▁Gahrton	-11310
▁ISTUNTO	-11311
▁Martens	-11312
▁Nykyään	-11313
▁aiheena	-11314
▁aikooko	-11315
▁ennakoi	-11316
▁julisti	-11317
▁kohtalo	-11318
▁luoneet	-11319
▁muutkin	-11320
▁määräys	-11321
▁noudata	-11322
▁olekaan	-11323
▁polttoa	-11324
▁puhetta	-11325
▁päättyi	-11326
▁ravinto	-11327
▁sainväl	-11328
▁selittä	-11329
▁selkeän	-11330
▁selkeää	-11331
▁suveren	-11332
▁syyttää	-11333
ketieteen	-11334
laisuuden	-11335
strategia	-11336
▁Nykyisin	-11337
▁Sosialis	-11338
▁auttaisi	-11339
▁henkilöä	-11340
▁kauppaan	-11341
▁kilpaile	-11342
▁kohdissa	-11343
▁kuuluvan	-11344
▁muotoilu	-11345
▁nykyisiä	-11346
▁päästävä	-11347
▁rotusyrj	-11348
▁suurista	-11349
▁tulkinta	-11350
▁työvoima	-11351
▁tärkeään	-11352
▁vahvasti	-11353
▁verotuks	-11354
▁yksikään	-11355
▁yritystä	-11356
ttamisesta	-11357
▁Vietnamin	-11358
▁asetusten	-11359
▁hyväkseni	-11360
▁jäseneltä	-11361
▁keskeisiä	-11362
▁maaseutua	-11363
▁merkityks	-11364
▁muistutti	-11365
▁muuttunut	-11366
▁suojeluun	-11367
▁tukikelpo	-11368
▁ulkoisten	-11369
▁verotusta	-11370
▁yleisestä	-11371
parlamentin	-11372
poliittista	-11373
▁Albaniassa	-11374
▁asiakirjaa	-11375
▁kehitetään	-11376
▁keskustele	-11377
▁kielteisiä	-11378
▁kohdistuva	-11379
▁kuljetusta	-11380
▁laatiminen	-11381
▁lääkkeiden	-11382
▁meneillään	-11383
▁määrätieto	-11384
▁neuvotella	-11385
▁nykyisestä	-11386
▁oikeutettu	-11387
▁päivittäin	-11388
▁rakenteita	-11389
▁taisteluun	-11390
▁tapahtuvaa	-11391
▁täytettävä	-11392
politiikalle	-11393
▁esityksestä	-11394
▁järjestetty	-11395
▁kommentoida	-11396
▁sijaitsevan	-11397
▁suoritetaan	-11398
▁tarkastelta	-11399
▁vastaavalle	-11400
▁väistämättä	-11401
▁esityslistan	-11402
▁koordinointi	-11403
▁tarkoitetaan	-11404
▁tavaranhalti	-11405
▁vahvistamaan	-11406
ristillisdemok	-11407
▁asianomaisten	-11408
▁havaittavissa	-11409
▁kansallisista	-11410
▁kunnioitetaan	-11411
▁maksusitoumus	-11412
▁rakentamiseen	-11413
▁säilyttäminen	-11414
▁menestyksekkää	-11415
▁kunnioittamista	-11416
▁toteuttamisessa	-11417
AV	-11418
NT	-11419
Na	-11420
Un	-11421
my	-11422
wo	-11423
ät	-11424
196	-11425
dis	-11426
rik	-11427
▁56	-11428
▁LU	-11429
▁ym	-11430
▁äi	-11431
ONAL	-11432
auto	-11433
hyvä	-11434
isku	-11435
kono	-11436
oper	-11437
ppia	-11438
vita	-11439
ward	-11440
▁Lab	-11441
▁ale	-11442
▁dia	-11443
▁ehd	-11444
artik	-11445
empiä	-11446
gitaa	-11447
jotka	-11448
lerin	-11449
melle	-11450
nista	-11451
osuus	-11452
riori	-11453
senin	-11454
tanne	-11455
vilta	-11456
ännyt	-11457
▁Andr	-11458
▁Dijk	-11459
▁Johd	-11460
▁Moor	-11461
▁Olin	-11462
▁Pack	-11463
▁Siis	-11464
▁aiku	-11465
▁argu	-11466
▁hajo	-11467
▁jääd	-11468
▁krei	-11469
▁luva	-11470
▁oika	-11471
▁saar	-11472
▁symb	-11473
carnet	-11474
ehtoja	-11475
elimen	-11476
roksen	-11477
stynyt	-11478
▁(1977	-11479
▁Arias	-11480
▁Rahoi	-11481
▁River	-11482
▁Schro	-11483
▁Schör	-11484
▁Suuri	-11485
▁eräät	-11486
▁inten	-11487
▁kulta	-11488
▁mukau	-11489
▁purku	-11490
▁pääta	-11491
▁selve	-11492
▁sietä	-11493
▁viipy	-11494
tamista	-11495
ukseksi	-11496
uksille	-11497
▁Gorsel	-11498
▁Helsin	-11499
▁Kenian	-11500
▁Rosado	-11501
▁heistä	-11502
▁keskip	-11503
▁konsul	-11504
▁priori	-11505
▁pääsyn	-11506
▁syiden	-11507
▁sääntö	-11508
▁taudin	-11509
alueilla	-11510
kikäteen	-11511
ohjelmat	-11512
prosessi	-11513
tietojen	-11514
tiivista	-11515
ustajien	-11516
vattoman	-11517
▁Kroatia	-11518
▁Lindhol	-11519
▁Serbian	-11520
▁Sveitsi	-11521
▁Tillich	-11522
▁edunsaa	-11523
▁ehdoton	-11524
▁eläimiä	-11525
▁hintoja	-11526
▁ihminen	-11527
▁jalosta	-11528
▁monille	-11529
▁muotoja	-11530
▁nähneet	-11531
▁näkemys	-11532
▁rajoitu	-11533
▁selonte	-11534
▁sopivaa	-11535
▁tehtaan	-11536
▁tekemää	-11537
▁toistan	-11538
▁tärkeys	-11539
▁tärkeät	-11540
▁vaaleja	-11541
▁vastasi	-11542
ktiivista	-11543
▁Budjetti	-11544
▁Moorhous	-11545
▁Ryhmämme	-11546
▁Toimenpi	-11547
▁Toiminta	-11548
▁Tutkinto	-11549
▁arvostaa	-11550
▁auttavat	-11551
▁huumeita	-11552
▁häiritse	-11553
▁ilmaistu	-11554
▁luomisen	-11555
▁lyhyellä	-11556
▁molempia	-11557
▁opintoja	-11558
▁parannus	-11559
▁paremmat	-11560
▁sijoitus	-11561
▁tiedossa	-11562
▁tuomitse	-11563
▁vertaile	-11564
▁yhdeksän	-11565
ehdotuksia	-11566
ministerit	-11567
mukaisesti	-11568
▁Genevessä	-11569
▁Menettely	-11570
▁asettavat	-11571
▁kehitetty	-11572
▁keinoteko	-11573
▁kohteeksi	-11574
▁mietinnöt	-11575
▁näkökohta	-11576
▁opetuksen	-11577
▁puuttuvat	-11578
▁rohkaista	-11579
▁selventää	-11580
▁suhtautua	-11581
▁suunnattu	-11582
▁säädöksen	-11583
▁talouteen	-11584
▁voidaanko	-11585
▁yleisillä	-11586
kokouksessa	-11587
vaatimusten	-11588
▁Huolimatta	-11589
▁Irlannissa	-11590
▁aiheutuvia	-11591
▁aviopuolis	-11592
▁keskeyttää	-11593
▁konfliktin	-11594
▁pyydettiin	-11595
▁samankalta	-11596
▁tehtävämme	-11597
▁tämäntyypp	-11598
▁vallankumo	-11599
▁veropoliti	-11600
lainsäädäntö	-11601
ritarikunnan	-11602
sopimuksessa	-11603
▁Rotterdamin	-11604
▁alueellisia	-11605
▁edistämistä	-11606
▁esittämästä	-11607
▁kohdistuvat	-11608
▁käyttämättä	-11609
▁merkitsevät	-11610
▁miljoonalla	-11611
▁tarkastusta	-11612
▁terveydelle	-11613
▁vaihtoehtoa	-11614
▁valmistever	-11615
▁yrityksistä	-11616
▁ammatillisen	-11617
▁iltapäivällä	-11618
▁kuulemistila	-11619
▁perustamisen	-11620
▁rahoitukseen	-11621
▁seuraamuksia	-11622
▁yhteistyölle	-11623
▁istuntokauden	-11624
▁päätöksenteon	-11625
▁Tilintarkastus	-11626
▁enemmistöpäätö	-11627
▁humanitaarista	-11628
▁keskeyttäminen	-11629
▁kumppanuusmaan	-11630
▁oikeudellisten	-11631
▁Samanaikaisesti	-11632
▁aluepoliittisen	-11633
▁kunnioittamisen	-11634
▁noudattamisesta	-11635
▁oikeudellisesta	-11636
▁oikeudellisesti	-11637
▁vahvistamiseksi	-11638
▁yksimielisyyttä	-11639
1/	-11640
La	-11641
MI	-11642
Sa	-11643
Si	-11644
UN	-11645
Us	-11646
ds	-11647
ln	-11648
ls	-11649
uc	-11650
­0	-11651
Dör	-11652
LES	-11653
SEN	-11654
mel	-11655
soi	-11656
vid	-11657
▁7,	-11658
▁AN	-11659
▁Lo	-11660
▁Oh	-11661
▁VI	-11662
▁Wi	-11663
▁ad	-11664
▁pö	-11665
Alba	-11666
emen	-11667
ihto	-11668
kurs	-11669
änne	-11670
▁Day	-11671
▁Eis	-11672
▁Huu	-11673
▁IPA	-11674
▁PÄÄ	-11675
▁Rov	-11676
▁kus	-11677
▁nan	-11678
▁psy	-11679
Dörfl	-11680
eihin	-11681
issab	-11682
kella	-11683
kemme	-11684
kykyä	-11685
lling	-11686
ssään	-11687
utune	-11688
vojen	-11689
votto	-11690
öistä	-11691
▁Gian	-11692
▁Migu	-11693
▁Thea	-11694
▁krit	-11695
▁paha	-11696
▁pääo	-11697
▁teis	-11698
elance	-11699
ikoode	-11700
kokous	-11701
laitos	-11702
mmatti	-11703
oineet	-11704
osassa	-11705
verkon	-11706
▁Annan	-11707
▁Brink	-11708
▁Ensin	-11709
▁GONAL	-11710
▁Kirja	-11711
▁Milla	-11712
▁Miran	-11713
▁Ratka	-11714
▁Urhei	-11715
▁Yhdyn	-11716
▁aisin	-11717
▁euroa	-11718
▁hieno	-11719
▁prote	-11720
▁rajaa	-11721
▁vaura	-11722
-1994).	-11723
kappale	-11724
kokoulu	-11725
maailma	-11726
menojen	-11727
stetaan	-11728
suojelu	-11729
säätiön	-11730
tukseni	-11731
▁Balkan	-11732
▁Collin	-11733
▁ECOFIN	-11734
▁Laajen	-11735
▁Muista	-11736
▁Pinhei	-11737
▁Puheen	-11738
▁Tarkoi	-11739
▁askele	-11740
▁elemen	-11741
▁japani	-11742
▁kiistä	-11743
▁lisäys	-11744
▁luovat	-11745
▁muilta	-11746
▁numero	-11747
▁palvel	-11748
▁savuke	-11749
▁teidät	-11750
▁tuloja	-11751
▁vaivaa	-11752
ikenteen	-11753
kilpailu	-11754
perinnön	-11755
ttelemme	-11756
▁Baltian	-11757
▁Jackson	-11758
▁Kesteli	-11759
▁Osallis	-11760
▁Toistan	-11761
▁Yhteisö	-11762
▁altistu	-11763
▁halusin	-11764
▁harvoin	-11765
▁histori	-11766
▁ilmaisu	-11767
▁lajikke	-11768
▁maksuja	-11769
▁myöhään	-11770
▁olevani	-11771
▁pilotti	-11772
▁sovitta	-11773
▁tapatur	-11774
▁tekijän	-11775
▁vaikuta	-11776
▁valikoi	-11777
itteisiin	-11778
mättömyys	-11779
määräinen	-11780
teltaessa	-11781
yliopisto	-11782
ympäristö	-11783
▁Ilmoitus	-11784
▁Toivotan	-11785
▁hallussa	-11786
▁interven	-11787
▁jatkuvan	-11788
▁kehittyy	-11789
▁maananta	-11790
▁maisteri	-11791
▁naisille	-11792
▁pitkälti	-11793
▁pyrkinyt	-11794
▁päästään	-11795
▁ratifioi	-11796
▁suinkaan	-11797
▁säädetty	-11798
▁toiselle	-11799
▁tuloksen	-11800
▁täytynyt	-11801
▁voimakas	-11802
sopimukset	-11803
▁Antwerpen	-11804
▁keskeistä	-11805
▁kokoontuu	-11806
▁kunnallis	-11807
▁lakkautta	-11808
▁molempien	-11809
▁muistutan	-11810
▁myönnettä	-11811
▁riittäviä	-11812
▁ryhtymään	-11813
▁sovelleta	-11814
▁taistelun	-11815
▁tärkeiden	-11816
▁ylittävän	-11817
palveluiden	-11818
vaatimukset	-11819
▁Puhemiehen	-11820
▁ajatellaan	-11821
▁aloittanut	-11822
▁hankintoja	-11823
▁jokaisessa	-11824
▁kokemusten	-11825
▁kokouksiin	-11826
▁mainittava	-11827
▁mieluummin	-11828
▁miljoonaan	-11829
▁moninkerta	-11830
▁neuvostoon	-11831
▁nähtävissä	-11832
▁seuraaviin	-11833
▁tasapainoa	-11834
▁terveyteen	-11835
▁toimestaan	-11836
▁varovaisuu	-11837
▁vastattava	-11838
▁voidakseen	-11839
............	-11840
▁Vastauksena	-11841
▁aiheuttaisi	-11842
▁ajoneuvojen	-11843
▁ansaitsevat	-11844
▁edellyttäen	-11845
▁erimielisyy	-11846
▁heinäkuussa	-11847
▁helmikuussa	-11848
▁hyväksyneet	-11849
▁ilmoituksen	-11850
▁julistuksen	-11851
▁kannattavat	-11852
▁kolmannessa	-11853
▁paikalliset	-11854
▁painotetaan	-11855
▁päätöksestä	-11856
▁siirtämistä	-11857
▁tammikuussa	-11858
▁vaarallisia	-11859
▁vaihtelevat	-11860
▁vastaavasti	-11861
▁vähentämään	-11862
▁järjestetään	-11863
▁määrätoimipa	-11864
▁tarvittavien	-11865
▁toimenpiteen	-11866
▁asiantuntijat	-11867
▁istuntojakson	-11868
▁poistamisesta	-11869
▁rangaistuksia	-11870
▁todellisuutta	-11871
▁demokraattisia	-11872
▁ihmisoikeuslou	-11873
▁järjestelmässä	-11874
▁maanviljelijät	-11875
▁sosiaalikomite	-11876
▁sovitteluratka	-11877
▁tarkistuksissa	-11878
▁tarkoitettujen	-11879
▁jäsenvaltioilla	-11880
▁työmarkkinoiden	-11881
▁työmarkkinoilla	-11882
.,	-11883
FC	-11884
ig	-11885
/00	-11886
ern	-11887
lag	-11888
lei	-11889
ulf	-11890
usi	-11891
vis	-11892
▁47	-11893
▁62	-11894
▁Sö	-11895
▁co	-11896
▁fa	-11897
▁ns	-11898
▁nu	-11899
elli	-11900
kaik	-11901
käri	-11902
mbra	-11903
onas	-11904
puis	-11905
tene	-11906
yrki	-11907
▁10,	-11908
▁93/	-11909
▁Apu	-11910
▁Bio	-11911
▁Uni	-11912
▁ato	-11913
▁yti	-11914
▁zan	-11915
8/97)	-11916
Irlan	-11917
airen	-11918
eleen	-11919
lueet	-11920
ntoja	-11921
tiona	-11922
ttoon	-11923
▁Colo	-11924
▁Hein	-11925
▁Huol	-11926
▁Iver	-11927
▁Kesä	-11928
▁Neil	-11929
▁Tode	-11930
▁Vise	-11931
▁Yhtä	-11932
▁haas	-11933
▁hank	-11934
▁lämp	-11935
▁puhd	-11936
▁saat	-11937
▁sain	-11938
▁työt	-11939
▁uhra	-11940
▁vala	-11941
allagh	-11942
antava	-11943
idemme	-11944
ikojen	-11945
istoim	-11946
kuuhun	-11947
neistä	-11948
opimus	-11949
ryhmät	-11950
ttojen	-11951
täjien	-11952
▁(1988	-11953
▁(1991	-11954
▁Missä	-11955
▁Silti	-11956
▁Singa	-11957
▁Slova	-11958
▁VALTU	-11959
▁hyväk	-11960
▁jouko	-11961
▁jyrkä	-11962
▁korko	-11963
▁myöhä	-11964
▁nimeä	-11965
▁nolla	-11966
▁poten	-11967
▁rauho	-11968
▁sopii	-11969
▁taulu	-11970
▁täten	-11971
▁vahve	-11972
▁varjo	-11973
.07.198	-11974
kasvien	-11975
llisina	-11976
mässään	-11977
tteeksi	-11978
tävästi	-11979
yksemme	-11980
yttävää	-11981
▁Kreiss	-11982
▁Samaan	-11983
▁YHTEEN	-11984
▁asetti	-11985
▁henkeä	-11986
▁hyvänä	-11987
▁jakelu	-11988
▁koolle	-11989
▁luotto	-11990
▁muksen	-11991
▁muussa	-11992
▁omalta	-11993
▁pelkkä	-11994
▁päätän	-11995
▁reakti	-11996
▁ryhmää	-11997
▁tuella	-11998
Amerikan	-11999
kellario	-12000
palvelua	-12001
ttamisen	-12002
tuotanto	-12003
valtiota	-12004
▁Barthet	-12005
▁Christo	-12006
▁Iversen	-12007
▁Palacio	-12008
▁Schroed	-12009
▁Virasto	-12010
▁aiotaan	-12011
▁avointa	-12012
▁julista	-12013
▁lähetys	-12014
▁muuttuu	-12015
▁saarten	-12016
▁sopivat	-12017
▁tahojen	-12018
▁toimisi	-12019
▁tosissa	-12020
▁tuomita	-12021
▁tuontia	-12022
▁varalta	-12023
▁vesillä	-12024
▁virheet	-12025
▁vähimmä	-12026
ehdotusta	-12027
itteeseen	-12028
kohtaiset	-12029
yttäminen	-12030
▁Atlantin	-12031
▁Hankkeen	-12032
▁Nykyinen	-12033
▁PASSITUS	-12034
▁Sisällys	-12035
▁TUTKINTA	-12036
▁aikanaan	-12037
▁alueista	-12038
▁banaania	-12039
▁esitetyn	-12040
▁jatkamme	-12041
▁kattavan	-12042
▁kehittyä	-12043
▁mukaisen	-12044
▁myönnyty	-12045
▁paikkaan	-12046
▁panoksen	-12047
▁parempia	-12048
▁selville	-12049
▁sijainti	-12050
▁tasaarvo	-12051
▁tekemien	-12052
▁tilastot	-12053
▁tyisesti	-12054
▁vahvisti	-12055
järjestöjä	-12056
kehityksen	-12057
kysymyksiä	-12058
▁Englannin	-12059
▁Tietenkin	-12060
▁aloitettu	-12061
▁heinäkuun	-12062
▁huomautti	-12063
▁intensiiv	-12064
▁jalkaväki	-12065
▁jatkamaan	-12066
▁joistakin	-12067
▁kanssamme	-12068
▁keskittyy	-12069
▁keskiviik	-12070
▁kokemusta	-12071
▁kyseiseen	-12072
▁käynnisty	-12073
▁laajemmin	-12074
▁laillista	-12075
▁lukumäärä	-12076
▁maksuista	-12077
▁mihinkään	-12078
▁millaisia	-12079
▁neljännen	-12080
▁painostaa	-12081
▁sallitaan	-12082
▁taistelua	-12083
▁toimiston	-12084
▁tuottajat	-12085
▁vastuunsa	-12086
▁väestöstä	-12087
ittelemalla	-12088
keskustelun	-12089
muslausetta	-12090
▁Lainsäädän	-12091
▁Sakellario	-12092
▁huolitsija	-12093
▁hyväksymme	-12094
▁kalastajat	-12095
▁liikkeelle	-12096
▁näkemyksiä	-12097
▁palveluita	-12098
▁seuraamaan	-12099
▁sovellettu	-12100
▁suunnitell	-12101
▁suunnittel	-12102
▁tukemiseen	-12103
▁vastauksia	-12104
▁äänestimme	-12105
menettelystä	-12106
passitusasia	-12107
▁Hollannissa	-12108
▁ehdotuksiin	-12109
▁esitetyistä	-12110
▁huolestunut	-12111
▁hyödyllinen	-12112
▁hyödyllisiä	-12113
▁jälkikäteen	-12114
▁kiittämällä	-12115
▁myöntämistä	-12116
▁tekemisestä	-12117
▁vallitsevan	-12118
▁vuosikymmen	-12119
▁huomautukset	-12120
▁joustavuuden	-12121
▁poliittisiin	-12122
▁suvereniteet	-12123
▁teollisuutta	-12124
▁vaikuttamaan	-12125
▁yhteiskuntaa	-12126
▁Azerbaidzanin	-12127
▁aiheuttamista	-12128
▁esittelijälle	-12129
▁henkilökunnan	-12130
▁julkilausuman	-12131
▁kiinnittämään	-12132
▁lisääntyminen	-12133
▁mahdolliseksi	-12134
▁mahdollisista	-12135
▁mielipiteensä	-12136
▁pöytäkirjassa	-12137
▁säilyttämisen	-12138
▁tietokoneista	-12139
tulevaisuudessa	-12140
▁Rakennerahasto	-12141
▁ennaltaehkäise	-12142
▁hallinnollisia	-12143
▁korkeakoulujen	-12144
▁varmistaakseen	-12145
▁amerikkalaisten	-12146
5,	-12147
LO	-12148
RA	-12149
ss	-12150
(95	-12151
00.	-12152
Mat	-12153
OTR	-12154
POV	-12155
bil	-12156
edu	-12157
hka	-12158
lot	-12159
mes	-12160
mid	-12161
reh	-12162
tre	-12163
uja	-12164
▁Br	-12165
▁Ke	-12166
4-07	-12167
alaa	-12168
eton	-12169
inat	-12170
lumi	-12171
lään	-12172
teni	-12173
torj	-12174
väni	-12175
­197	-12176
▁Ale	-12177
▁Ali	-12178
▁Fle	-12179
▁Gar	-12180
▁Ras	-12181
▁Sam	-12182
▁TAC	-12183
▁avu	-12184
▁iha	-12185
▁ind	-12186
▁ket	-12187
▁kyp	-12188
▁nön	-12189
▁soi	-12190
▁tää	-12191
7/97)	-12192
eista	-12193
elgia	-12194
huuto	-12195
kaasu	-12196
nalta	-12197
tisia	-12198
varez	-12199
äällä	-12200
▁1979	-12201
▁Erik	-12202
▁Ford	-12203
▁Tuen	-12204
▁Vero	-12205
▁Weil	-12206
▁Wien	-12207
▁ajaa	-12208
▁enne	-12209
▁lien	-12210
▁liit	-12211
▁muna	-12212
▁perh	-12213
▁seli	-12214
▁vied	-12215
Aasian	-12216
kseksi	-12217
misten	-12218
mmiten	-12219
siassa	-12220
stettu	-12221
teelle	-12222
teillä	-12223
teissä	-12224
tiedot	-12225
verkko	-12226
▁(1989	-12227
▁1999.	-12228
▁EMOTR	-12229
▁Kasvi	-12230
▁Sudan	-12231
▁Valti	-12232
▁edesa	-12233
▁haavo	-12234
▁hakea	-12235
▁harha	-12236
▁irlan	-12237
▁katsa	-12238
▁kemia	-12239
▁kuull	-12240
▁lähia	-12241
▁malla	-12242
▁netto	-12243
▁näkee	-12244
▁osake	-12245
▁pohti	-12246
▁tintö	-12247
▁varoi	-12248
▁ääntä	-12249
Dörfler	-12250
Venäjän	-12251
huollon	-12252
istelmä	-12253
kirjoja	-12254
liokunn	-12255
luonnos	-12256
uuttaan	-12257
▁Amadeo	-12258
▁Dupuis	-12259
▁Isossa	-12260
▁Lalumi	-12261
▁Miguel	-12262
▁Odotan	-12263
▁Saanen	-12264
▁Tiedon	-12265
▁Tsekin	-12266
▁Voitte	-12267
▁Yksity	-12268
▁alkuun	-12269
▁anneta	-12270
▁arvoja	-12271
▁avoime	-12272
▁eculla	-12273
▁eduksi	-12274
▁etelän	-12275
▁harmon	-12276
▁hyvien	-12277
▁kulkee	-12278
▁kuultu	-12279
▁legiti	-12280
▁mailla	-12281
▁moraal	-12282
▁muisti	-12283
▁muusta	-12284
▁odotan	-12285
▁ovatko	-12286
▁pientä	-12287
▁poiste	-12288
▁rohkea	-12289
▁ryhtyy	-12290
▁torjua	-12291
▁viljan	-12292
hallinno	-12293
hallitus	-12294
laisissa	-12295
mettelen	-12296
ttomasti	-12297
tuksilla	-12298
uttamaan	-12299
vapautta	-12300
ydyttävä	-12301
äänestys	-12302
▁Euratom	-12303
▁Kreissl	-12304
▁Markkin	-12305
▁avoimia	-12306
▁banaani	-12307
▁epäillä	-12308
▁kenties	-12309
▁keskity	-12310
▁kohtien	-12311
▁kreikka	-12312
▁lähetti	-12313
▁maantie	-12314
▁sanomme	-12315
▁sanotun	-12316
▁suunnan	-12317
▁tultava	-12318
▁tuoneet	-12319
▁tuonnin	-12320
▁työperä	-12321
käsittely	-12322
llituksen	-12323
mattakaan	-12324
▁Johdanto	-12325
▁Lyhyesti	-12326
▁VALIOKUN	-12327
▁Visegrad	-12328
▁Whitehea	-12329
▁Yhteisen	-12330
▁asianaja	-12331
▁elektron	-12332
▁estämään	-12333
▁havainno	-12334
▁integroi	-12335
▁johtajan	-12336
▁jokaista	-12337
▁järjesti	-12338
▁kolmatta	-12339
▁kunnolla	-12340
▁kuuluvia	-12341
▁monopoli	-12342
▁määrästä	-12343
▁ohjeiden	-12344
▁onnistua	-12345
▁puolelta	-12346
▁ryhmässä	-12347
▁sovittaa	-12348
▁talousja	-12349
▁tiedosta	-12350
▁useammin	-12351
▁vaikeita	-12352
▁Älkäämme	-12353
kysymykset	-12354
▁Europolin	-12355
▁alueeseen	-12356
▁aseistari	-12357
▁esittivät	-12358
▁johtaneet	-12359
▁kerrankin	-12360
▁käyttänyt	-12361
▁liitetään	-12362
▁liitteenä	-12363
▁lisäämään	-12364
▁rakenteen	-12365
▁sanomalla	-12366
▁sinällään	-12367
▁tapahtuva	-12368
▁tehtäviin	-12369
▁tietoihin	-12370
▁tietyillä	-12371
▁todenneet	-12372
▁tukemista	-12373
▁tullihall	-12374
▁tärkeistä	-12375
▁vastuulla	-12376
▁välitöntä	-12377
ministerien	-12378
vaikutuksia	-12379
valiokuntaa	-12380
▁Neuvottelu	-12381
▁esiintynyt	-12382
▁hyväksyvät	-12383
▁innovatiiv	-12384
▁jatkokoulu	-12385
▁kertomusta	-12386
▁laboratori	-12387
▁liittyivät	-12388
▁luetteloon	-12389
▁mainittiin	-12390
▁näkemykset	-12391
▁omaisuuden	-12392
▁perustuvan	-12393
▁päätöksiin	-12394
▁resursseja	-12395
▁sektorilla	-12396
▁tavattoman	-12397
▁tehtäisiin	-12398
▁tekijöiden	-12399
▁tuomittava	-12400
▁työtapatur	-12401
▁uskoakseni	-12402
▁vaiheeseen	-12403
▁vastaukset	-12404
▁viimeisten	-12405
▁viipymättä	-12406
▁virastojen	-12407
▁voimakkaan	-12408
▁aiheuttamia	-12409
▁ennakkoarvi	-12410
▁keskimäärin	-12411
▁keskisuuret	-12412
▁menetelmien	-12413
▁ottamisesta	-12414
▁ratkaisevaa	-12415
▁siirtyminen	-12416
▁tervetullut	-12417
▁tutkintotod	-12418
▁yhtenäisyys	-12419
valiokunnalle	-12420
▁Alankomaissa	-12421
▁alkuperäinen	-12422
▁hyväksytyksi	-12423
▁kunnioitusta	-12424
▁mahdollisten	-12425
▁ulottuvuuden	-12426
▁vahingoittaa	-12427
▁varainhoidon	-12428
▁vuosittaisen	-12429
▁ympäristölle	-12430
▁alkuperäiskan	-12431
▁kokonaisvalta	-12432
▁osallistuvien	-12433
▁puhumattakaan	-12434
▁rangaistusten	-12435
▁Luonnollisesti	-12436
▁hyväksymisestä	-12437
▁kunnioitettava	-12438
▁neuvonantajien	-12439
▁toimenpiteillä	-12440
▁tullilaitokset	-12441
▁eurooppalaiseen	-12442
▁lainsäädännöstä	-12443
-9	-12444
31	-12445
9/	-12446
Ko	-12447
LL	-12448
YN	-12449
zz	-12450
298	-12451
Her	-12452
apu	-12453
efe	-12454
lau	-12455
nor	-12456
pea	-12457
pur	-12458
ryn	-12459
▁Ep	-12460
▁SA	-12461
▁zu	-12462
inin	-12463
jauh	-12464
pään	-12465
taka	-12466
▁For	-12467
▁Mat	-12468
▁UNI	-12469
▁VIR	-12470
▁YMP	-12471
erusa	-12472
esian	-12473
ikana	-12474
kaksi	-12475
kehit	-12476
kisin	-12477
ksina	-12478
kuten	-12479
rajoi	-12480
rikko	-12481
rojen	-12482
tapaa	-12483
tinsa	-12484
tzida	-12485
vitys	-12486
vällä	-12487
▁Diez	-12488
▁Edin	-12489
▁UPOV	-12490
▁Waal	-12491
▁Wulf	-12492
▁alat	-12493
▁fran	-12494
▁isla	-12495
▁keks	-12496
▁koon	-12497
▁kynn	-12498
▁kärj	-12499
▁luja	-12500
▁lähd	-12501
▁mais	-12502
▁murh	-12503
▁olle	-12504
▁skan	-12505
▁ulos	-12506
▁urhe	-12507
▁venä	-12508
Sieren	-12509
intosh	-12510
kkeitä	-12511
lueryh	-12512
meiden	-12513
muodon	-12514
puolis	-12515
reista	-12516
tariko	-12517
tarkoi	-12518
tuuden	-12519
valmis	-12520
yksenä	-12521
▁Joten	-12522
▁Liese	-12523
▁Meksi	-12524
▁Miert	-12525
▁Norja	-12526
▁harki	-12527
▁hoide	-12528
▁kadon	-12529
▁leima	-12530
▁lippu	-12531
▁löyty	-12532
▁moder	-12533
▁ruoka	-12534
▁syytö	-12535
▁tyhjä	-12536
▁vuotu	-12537
Afrikan	-12538
erusale	-12539
ingdorf	-12540
ittujen	-12541
rajojen	-12542
ussakin	-12543
utuksen	-12544
▁Graefe	-12545
▁Katson	-12546
▁Kittel	-12547
▁Lissab	-12548
▁arviot	-12549
▁geenim	-12550
▁järkeä	-12551
▁kamppa	-12552
▁kulkun	-12553
▁käytti	-12554
▁käännö	-12555
▁luopua	-12556
▁mallia	-12557
▁naisen	-12558
▁pääsyä	-12559
▁säädän	-12560
▁tukeni	-12561
▁töiden	-12562
▁vuokra	-12563
▁yleise	-12564
isuutena	-12565
merkkejä	-12566
tarkastu	-12567
tyksemme	-12568
▁Berliin	-12569
▁Demokra	-12570
▁Flemmin	-12571
▁Gallagh	-12572
▁Hatzida	-12573
▁Muistan	-12574
▁Valtion	-12575
▁aloitti	-12576
▁ehkäisy	-12577
▁eräiden	-12578
▁keinona	-12579
▁korkeat	-12580
▁kulujen	-12581
▁levotto	-12582
▁liikkua	-12583
▁minulta	-12584
▁nimessä	-12585
▁poissul	-12586
▁romahta	-12587
▁ryhmään	-12588
▁tarvita	-12589
▁tukenut	-12590
▁uusille	-12591
llisyyttä	-12592
mattomuus	-12593
▁Eriksson	-12594
▁Kaikissa	-12595
▁Kalastus	-12596
▁Pinheiro	-12597
▁Singapor	-12598
▁ennemmin	-12599
▁ihmisiin	-12600
▁jäljelle	-12601
▁kanssani	-12602
▁konserva	-12603
▁käytämme	-12604
▁mahdoton	-12605
▁neljästä	-12606
▁päätellä	-12607
▁saisivat	-12608
▁sallikaa	-12609
▁sanoivat	-12610
▁tasoilla	-12611
▁toisensa	-12612
▁toteutuu	-12613
▁työryhmä	-12614
▁uudistaa	-12615
▁vahvistu	-12616
▁äänestin	-12617
kapasiteet	-12618
▁Kestelijn	-12619
▁Tillichin	-12620
▁alustavan	-12621
▁budjettia	-12622
▁esittämää	-12623
▁huhtikuun	-12624
▁kaikkemme	-12625
▁koskettaa	-12626
▁käsitettä	-12627
▁köyhyyden	-12628
▁liikkuvuu	-12629
▁luovuttaa	-12630
▁muunnettu	-12631
▁muutosesi	-12632
▁petoksiin	-12633
▁prosentti	-12634
▁prosessia	-12635
▁pääkaupun	-12636
▁päällekkä	-12637
▁pääsemään	-12638
▁päättävät	-12639
▁ryhdytään	-12640
▁sääntelyä	-12641
▁taustalla	-12642
▁tiedottaa	-12643
▁tietyissä	-12644
▁turvautua	-12645
▁vastustus	-12646
käsittelyyn	-12647
▁Algeriassa	-12648
▁Baringdorf	-12649
▁Christodou	-12650
▁Indonesian	-12651
▁Onnittelen	-12652
▁Skotlannin	-12653
▁aloitetaan	-12654
▁epäilyksiä	-12655
▁hakemuksen	-12656
▁kehotetaan	-12657
▁kokemukset	-12658
▁kolmansiin	-12659
▁kyselytunn	-12660
▁menestystä	-12661
▁noudattaen	-12662
▁opettajien	-12663
▁resurssien	-12664
▁tarkastele	-12665
▁terrorismi	-12666
▁tuotteista	-12667
▁ulkomailla	-12668
▁valituksen	-12669
▁valtioille	-12670
▁velvoittaa	-12671
▁vältettävä	-12672
▁ydinvoiman	-12673
▁yhteisistä	-12674
▁yhteyksien	-12675
JÄRJESTELMÄN	-12676
▁Komissiolla	-12677
▁demokraatti	-12678
▁epäsuorasti	-12679
▁erinomaista	-12680
▁esittämällä	-12681
▁instituutin	-12682
▁kolmanneksi	-12683
▁konfliktien	-12684
▁kuljetukset	-12685
▁kuljetuksia	-12686
▁kulttuurien	-12687
▁kulttuuriin	-12688
▁laittomasti	-12689
▁näkökohtien	-12690
▁saavuttanut	-12691
▁siirtymistä	-12692
▁siirtäminen	-12693
▁sijaitsevat	-12694
▁suhtaudumme	-12695
▁tilanteissa	-12696
▁uudistukset	-12697
▁valiokunnat	-12698
▁vastaisesti	-12699
▁virkamiehet	-12700
▁yhtäläisten	-12701
▁Kansakuntien	-12702
▁harkitsemaan	-12703
▁investoinnit	-12704
▁kehittymistä	-12705
▁kulttuurista	-12706
▁kumppanuuden	-12707
▁laivanrakenn	-12708
▁mielipidettä	-12709
▁olennaisesti	-12710
▁perustuslaki	-12711
▁rakentaminen	-12712
▁ranskalaiset	-12713
▁suunnitelmia	-12714
▁säilytettävä	-12715
▁takaamiseksi	-12716
▁toimitettiin	-12717
▁vaikeuksista	-12718
▁asianmukaisen	-12719
▁ensimmäisestä	-12720
▁esittelijöitä	-12721
▁henkilökuntaa	-12722
▁huolestuneita	-12723
▁konkreettista	-12724
▁muistutettava	-12725
▁noudattamisen	-12726
▁tapahtuneesta	-12727
▁tarkoitukseen	-12728
▁vahvistettiin	-12729
▁vilpittömästi	-12730
▁myötävaikuttaa	-12731
▁oikeudelliseen	-12732
▁rakenteellisia	-12733
▁työllisyydestä	-12734
▁lentoliikenteen	-12735
▁suuntaviivoista	-12736
32	-12737
42	-12738
80	-12739
-10	-12740
291	-12741
aat	-12742
eij	-12743
ffi	-12744
gyp	-12745
ind	-12746
kla	-12747
liä	-12748
ote	-12749
tul	-12750
vik	-12751
▁EH	-12752
▁LA	-12753
(96)	-12754
daan	-12755
dard	-12756
eesi	-12757
eria	-12758
guir	-12759
ikku	-12760
inea	-12761
khol	-12762
lähe	-12763
mith	-12764
opyh	-12765
raag	-12766
tuna	-12767
tuon	-12768
tuun	-12769
unda	-12770
▁128	-12771
▁195	-12772
▁Aus	-12773
▁CFC	-12774
▁Con	-12775
▁Eli	-12776
▁GIL	-12777
▁Gua	-12778
▁Käy	-12779
▁Tul	-12780
▁Vol	-12781
▁kui	-12782
▁mia	-12783
▁ren	-12784
▁rii	-12785
USKUN	-12786
annon	-12787
hinta	-12788
hremi	-12789
kkaus	-12790
ltään	-12791
maata	-12792
oinut	-12793
oppen	-12794
roses	-12795
suunn	-12796
tunto	-12797
varan	-12798
vuosi	-12799
yerin	-12800
▁Blok	-12801
▁Egyp	-12802
▁Kysy	-12803
▁Suur	-12804
▁aiem	-12805
▁auta	-12806
▁avio	-12807
▁hävi	-12808
▁kato	-12809
▁käyn	-12810
▁lask	-12811
▁pitu	-12812
▁siin	-12813
▁suus	-12814
▁taha	-12815
bergin	-12816
duilla	-12817
guirre	-12818
jatkoa	-12819
kausia	-12820
kektii	-12821
kriisi	-12822
listen	-12823
miestä	-12824
neeksi	-12825
opetta	-12826
seihin	-12827
säätiö	-12828
toisin	-12829
▁(1979	-12830
▁(1981	-12831
▁1998,	-12832
▁Hinta	-12833
▁Islan	-12834
▁Lonto	-12835
▁Neljä	-12836
▁Pyytä	-12837
▁Sturd	-12838
▁Tiedo	-12839
▁Tosia	-12840
▁harmi	-12841
▁johdo	-12842
▁kaava	-12843
▁kello	-12844
▁kumma	-12845
▁lasta	-12846
▁piiri	-12847
▁pikku	-12848
▁piste	-12849
▁raiva	-12850
▁raska	-12851
▁sanat	-12852
▁vaihd	-12853
▁valuu	-12854
ikoille	-12855
istemme	-12856
kehitys	-12857
kiellon	-12858
kkaasti	-12859
käynnin	-12860
lähetys	-12861
onnetto	-12862
paikkaa	-12863
standar	-12864
tavasta	-12865
ttavien	-12866
ttelijä	-12867
vaihdon	-12868
välissä	-12869
▁Norjan	-12870
▁Puolan	-12871
▁Riippu	-12872
▁Vaihto	-12873
▁haitta	-12874
▁hoidon	-12875
▁kauden	-12876
▁kielto	-12877
▁matkan	-12878
▁oikean	-12879
▁osasta	-12880
▁puolis	-12881
▁satoja	-12882
▁summan	-12883
▁takuun	-12884
▁tarttu	-12885
▁tuksen	-12886
▁velvoi	-12887
▁viinin	-12888
▁yhtene	-12889
aalisten	-12890
kielinen	-12891
kohdasta	-12892
tutkimus	-12893
▁Aguirre	-12894
▁Ephremi	-12895
▁Santini	-12896
▁Voisiko	-12897
▁alukset	-12898
▁antamat	-12899
▁digitaa	-12900
▁diploma	-12901
▁epätava	-12902
▁estävät	-12903
▁hyödynn	-12904
▁koheesi	-12905
▁käytetä	-12906
▁kääntyä	-12907
▁mantere	-12908
▁muutoin	-12909
▁olisiko	-12910
▁pannaan	-12911
▁pidätty	-12912
▁pohjimm	-12913
▁sataman	-12914
▁seuraus	-12915
▁säästää	-12916
▁tehtyjä	-12917
▁yllätty	-12918
hallintoa	-12919
ittelemme	-12920
sääntöjen	-12921
▁Edinburg	-12922
▁Liikenne	-12923
▁Tiedätte	-12924
▁Vierailu	-12925
▁Yhteenve	-12926
▁haasteet	-12927
▁hirvittä	-12928
▁jyrkästi	-12929
▁kilpaili	-12930
▁kolmessa	-12931
▁kyseisiä	-12932
▁käytävän	-12933
▁liikkuma	-12934
▁luotetta	-12935
▁sisäiset	-12936
▁suurissa	-12937
▁syyttäjä	-12938
▁tehostaa	-12939
▁tietyllä	-12940
▁todistus	-12941
▁työterve	-12942
▁vastusti	-12943
▁voisitte	-12944
aatioryhmä	-12945
euvostolle	-12946
▁Schörling	-12947
▁Viimeinen	-12948
▁analyysin	-12949
▁antamasta	-12950
▁huomioita	-12951
▁keskuspan	-12952
▁käsitystä	-12953
▁maininnut	-12954
▁minuuttia	-12955
▁noudateta	-12956
▁perustein	-12957
▁portugali	-12958
▁pyytäneet	-12959
▁päämiehet	-12960
▁rahoituks	-12961
▁seikoista	-12962
▁seurannut	-12963
▁sisäisten	-12964
▁säädökset	-12965
▁tiedonväl	-12966
▁tilastoja	-12967
▁ulottuvuu	-12968
▁vakuuksia	-12969
▁väliselle	-12970
menettelyjä	-12971
▁Schroedter	-12972
▁Talousarvi	-12973
▁VALTUUSKUN	-12974
▁hollantila	-12975
▁jättäminen	-12976
▁kollegoita	-12977
▁korostanut	-12978
▁kriteerien	-12979
▁liitettävä	-12980
▁maaliskuun	-12981
▁mielivalta	-12982
▁mietintöjä	-12983
▁paikallaan	-12984
▁puututtava	-12985
▁rakennetta	-12986
▁sulkeminen	-12987
▁säännöstöä	-12988
▁tapahtumia	-12989
▁tilastojen	-12990
▁useimmiten	-12991
▁ymmärtävät	-12992
▁Itävallassa	-12993
▁PARLAMENTIN	-12994
▁TUTKINTAVAL	-12995
▁alueelliset	-12996
▁ennakkotapa	-12997
▁ensimmäiset	-12998
▁jalkaväkimi	-12999
▁johtoryhmän	-13000
▁liberaalien	-13001
▁liittyminen	-13002
▁mielipiteet	-13003
▁oikeutettua	-13004
▁osoittamaan	-13005
▁palveluista	-13006
▁selvitetään	-13007
▁tarvittavaa	-13008
▁tunnustusta	-13009
▁yksittäisiä	-13010
lainsäädäntöä	-13011
▁ilahduttavaa	-13012
▁ilmoittamaan	-13013
▁jonkinlainen	-13014
▁järjestämään	-13015
▁kaupallisten	-13016
▁laajennetaan	-13017
▁puhemiehelle	-13018
▁rakennemuuto	-13019
▁vuosittainen	-13020
▁ensimmäisellä	-13021
▁keskiviikkona	-13022
▁komissaarille	-13023
▁konferenssiin	-13024
▁konkreettinen	-13025
▁passituskulje	-13026
▁terveydenhuol	-13027
▁hallinnolliset	-13028
▁osallistuttava	-13029
▁puheenvuorojen	-13030
▁sisällytettävä	-13031
▁vastaisuudessa	-13032
▁kansainväliseen	-13033
▁päätöksentekoon	-13034
▁rahapoliittisen	-13035
▁toimintaohjelma	-13036
▁työväenpuolueen	-13037
▁vahvistamisesta	-13038
8/	-13039
AD	-13040
CE	-13041
IK	-13042
OE	-13043
UR	-13044
CTS	-13045
III	-13046
ROB	-13047
TOM	-13048
big	-13049
bro	-13050
ces	-13051
fal	-13052
gat	-13053
hdä	-13054
mmi	-13055
mpa	-13056
syt	-13057
tas	-13058
▁("	-13059
▁ER	-13060
▁Rü	-13061
▁ts	-13062
▁vü	-13063
cial	-13064
engu	-13065
graf	-13066
isua	-13067
llit	-13068
luja	-13069
ohje	-13070
radi	-13071
ship	-13072
tema	-13073
▁110	-13074
▁169	-13075
▁Azz	-13076
▁Flo	-13077
▁McK	-13078
▁Ole	-13079
▁Ste	-13080
▁ano	-13081
▁asb	-13082
▁dän	-13083
▁hoc	-13084
▁kim	-13085
▁pes	-13086
▁pos	-13087
arian	-13088
fooru	-13089
inoja	-13090
kasvu	-13091
rella	-13092
tatte	-13093
tavar	-13094
toman	-13095
tuhan	-13096
▁Aina	-13097
▁Cast	-13098
▁Hake	-13099
▁Puer	-13100
▁Rion	-13101
▁TSer	-13102
▁anti	-13103
▁hetk	-13104
▁kiir	-13105
▁milj	-13106
▁muis	-13107
▁sysä	-13108
ROBLES	-13109
hdyttä	-13110
itsija	-13111
kanoma	-13112
keistä	-13113
kielto	-13114
llämme	-13115
ttumis	-13116
täessä	-13117
▁Ahern	-13118
▁Garos	-13119
▁Lento	-13120
▁Valta	-13121
▁altti	-13122
▁avata	-13123
▁eroon	-13124
▁itsel	-13125
▁juhla	-13126
▁kehys	-13127
▁luvun	-13128
▁omiin	-13129
▁polku	-13130
▁simmä	-13131
▁sivua	-13132
▁tehta	-13133
▁veden	-13134
▁voita	-13135
▁väite	-13136
päivien	-13137
selostu	-13138
säännös	-13139
telusta	-13140
ttaneet	-13141
▁Bladel	-13142
▁Europa	-13143
▁Giansi	-13144
▁Japani	-13145
▁Järjes	-13146
▁Kosovo	-13147
▁McCart	-13148
▁Uusien	-13149
▁ajassa	-13150
▁analyy	-13151
▁arvion	-13152
▁autono	-13153
▁edelle	-13154
▁hoitoa	-13155
▁kesann	-13156
▁kotiin	-13157
▁lapset	-13158
▁laskea	-13159
▁neljäs	-13160
▁rikkoo	-13161
▁teimme	-13162
elytunti	-13163
kseenkin	-13164
käytöstä	-13165
llisistä	-13166
prosentt	-13167
taloutta	-13168
tiedotus	-13169
uttaessa	-13170
valtojen	-13171
ääntöjen	-13172
▁Alvarez	-13173
▁aloille	-13174
▁analyys	-13175
▁asuvien	-13176
▁horison	-13177
▁huomata	-13178
▁hyökkää	-13179
▁julistu	-13180
▁kohdata	-13181
▁lehteri	-13182
▁mieleen	-13183
▁plutoni	-13184
▁rajalla	-13185
▁ratifio	-13186
▁tekopyh	-13187
▁tulevia	-13188
▁tulkita	-13189
▁useista	-13190
▁uudella	-13191
▁varusta	-13192
▁viedään	-13193
▁vähäise	-13194
▁yksikön	-13195
llisyyden	-13196
maksuista	-13197
oituminen	-13198
▁Leonardo	-13199
▁Mcintosh	-13200
▁Tunisian	-13201
▁Tutkimus	-13202
▁Viimeksi	-13203
▁YHTEENSÄ	-13204
▁ansaitse	-13205
▁arvostel	-13206
▁jättänyt	-13207
▁kaikessa	-13208
▁kiistana	-13209
▁kuullaan	-13210
▁lujittaa	-13211
▁matkalla	-13212
▁merkitsi	-13213
▁merkitty	-13214
▁miljoona	-13215
▁myöhässä	-13216
▁pienille	-13217
▁sotariko	-13218
▁synnyttä	-13219
▁tiettyyn	-13220
▁toivotan	-13221
▁täytyisi	-13222
▁valintaa	-13223
▁vapaasta	-13224
▁viittaus	-13225
▁yksinään	-13226
itteisesti	-13227
mättömästi	-13228
pöytäkirja	-13229
tuotteesta	-13230
utumisesta	-13231
▁Fernandes	-13232
▁Siirrymme	-13233
▁asennetta	-13234
▁banaaneja	-13235
▁heijastaa	-13236
▁hyväksynn	-13237
▁jäseniksi	-13238
▁jäsenmaan	-13239
▁kehittyne	-13240
▁korvataan	-13241
▁käsitteen	-13242
▁laillisen	-13243
▁lähetetty	-13244
▁menetelmä	-13245
▁muodostuu	-13246
▁muotoilla	-13247
▁näkemystä	-13248
▁näkökulma	-13249
▁pohjoisen	-13250
▁savukkeet	-13251
▁tekemässä	-13252
▁varajäsen	-13253
▁vihreästä	-13254
järjestelyn	-13255
menettelyyn	-13256
neuvostossa	-13257
▁Euroopalla	-13258
▁Sopimuksen	-13259
▁aiheuttama	-13260
▁annettujen	-13261
▁asettamaan	-13262
▁budjetista	-13263
▁itsemäärää	-13264
▁jokaiselle	-13265
▁kehittynyt	-13266
▁kohtaamaan	-13267
▁loppuunsaa	-13268
▁luotettava	-13269
▁mielellään	-13270
▁ministerit	-13271
▁noudatettu	-13272
▁oikeudesta	-13273
▁pakollinen	-13274
▁pakollisia	-13275
▁puolestani	-13276
▁rajoitettu	-13277
▁sukupolven	-13278
▁suosituimm	-13279
▁tehtävästä	-13280
▁tekemiseen	-13281
▁tiedustelu	-13282
▁työnantaja	-13283
▁vaikeuttaa	-13284
▁välttämään	-13285
▁yhteensovi	-13286
▁yhtäläiset	-13287
▁yksityiset	-13288
▁Järjestelmä	-13289
▁aiheellista	-13290
▁esityksessä	-13291
▁hallituksia	-13292
▁huolissamme	-13293
▁innokkaasti	-13294
▁kolmannesta	-13295
▁kysymykseni	-13296
▁liiketoimin	-13297
▁lähiaikoina	-13298
▁merkitykset	-13299
▁mietinnölle	-13300
▁mietintöjen	-13301
▁muutoksista	-13302
▁olemassaole	-13303
▁puhemiehenä	-13304
▁pyrkimykset	-13305
▁pääjohtajan	-13306
▁realistinen	-13307
▁standardeja	-13308
▁tarkoitetun	-13309
▁teknologiaa	-13310
▁toimijoille	-13311
▁työsuojelun	-13312
▁vaikuttanut	-13313
▁yhteisymmär	-13314
▁Kansallisten	-13315
▁Valtuuskunta	-13316
▁annettaisiin	-13317
▁arvonlisäver	-13318
▁energiaperus	-13319
▁kiinnostusta	-13320
▁kiireellisen	-13321
▁kokemuksista	-13322
▁löytämiseksi	-13323
▁molemminpuol	-13324
▁vähintäänkin	-13325
▁yksimielinen	-13326
▁ylimääräistä	-13327
eurooppalaiset	-13328
teollisuudessa	-13329
▁International	-13330
▁Istuntokauden	-13331
▁allekirjoitti	-13332
▁hyväksyttyjen	-13333
▁kansalaisilla	-13334
▁kuluttajansuo	-13335
▁liikkuvuuteen	-13336
▁muuttamiseksi	-13337
▁poliitikkojen	-13338
▁vuosikertomus	-13339
▁aluepolitiikan	-13340
▁demokraattiset	-13341
▁lentoyhtiöiden	-13342
▁työllisyydelle	-13343
▁valtuuskuntien	-13344
▁Työjärjestyksen	-13345
▁koheesiorahasto	-13346
▁säilyttämiseksi	-13347
▁ulkopolitiikkaa	-13348
▁välttämättömänä	-13349
▁yksimielisyyden	-13350
"-	-13351
70	-13352
Va	-13353
we	-13354
baa	-13355
bio	-13356
ily	-13357
isy	-13358
rug	-13359
▁96	-13360
▁MA	-13361
▁Ve	-13362
▁du	-13363
ISET	-13364
htaa	-13365
ilmi	-13366
kian	-13367
neth	-13368
pien	-13369
rasi	-13370
wobo	-13371
▁150	-13372
▁Chi	-13373
▁Oos	-13374
▁Pys	-13375
▁abs	-13376
▁kal	-13377
▁nau	-13378
▁pun	-13379
▁rav	-13380
▁uus	-13381
/96).	-13382
Mathi	-13383
TAINA	-13384
araba	-13385
ekono	-13386
katso	-13387
kolla	-13388
käynn	-13389
logia	-13390
miaan	-13391
nelis	-13392
pinta	-13393
pitoa	-13394
rasta	-13395
rilla	-13396
seman	-13397
telmä	-13398
tissä	-13399
unnon	-13400
varaa	-13401
▁Alle	-13402
▁Camp	-13403
▁Four	-13404
▁Kohd	-13405
▁Merk	-13406
▁Peij	-13407
▁Sven	-13408
▁Työn	-13409
▁amme	-13410
▁horj	-13411
▁samo	-13412
▁sign	-13413
▁take	-13414
▁tuot	-13415
OSASTO	-13416
antaja	-13417
ikkana	-13418
intiin	-13419
isoida	-13420
ittuja	-13421
kuntia	-13422
lisiir	-13423
lleena	-13424
llisso	-13425
mmällä	-13426
ottori	-13427
projek	-13428
rjestä	-13429
sosiaa	-13430
tisano	-13431
ttelua	-13432
ttoman	-13433
tysten	-13434
yhtiöt	-13435
▁Argen	-13436
▁David	-13437
▁Fantu	-13438
▁Loppu	-13439
▁Malta	-13440
▁Matka	-13441
▁Mauri	-13442
▁Peter	-13443
▁Pimen	-13444
▁Pompi	-13445
▁Rübig	-13446
▁Swobo	-13447
▁Tilan	-13448
▁arkki	-13449
▁finan	-13450
▁hajoa	-13451
▁kanin	-13452
▁laita	-13453
▁minta	-13454
▁paluu	-13455
▁pysäh	-13456
▁selkä	-13457
▁sesta	-13458
▁simme	-13459
▁traag	-13460
▁välty	-13461
rakenta	-13462
tetussa	-13463
uttavat	-13464
yksikön	-13465
▁Baldar	-13466
▁Brysse	-13467
▁Hoppen	-13468
▁Marset	-13469
▁Sloven	-13470
▁Theato	-13471
▁Tukhol	-13472
▁asevar	-13473
▁kannat	-13474
▁käyvät	-13475
▁maalle	-13476
▁muutto	-13477
▁pystyä	-13478
▁saanen	-13479
▁saapun	-13480
▁suoraa	-13481
▁säätää	-13482
▁vailla	-13483
▁velkaa	-13484
▁venälä	-13485
▁voisin	-13486
/96-96/0	-13487
Behrendt	-13488
Hertsego	-13489
liikkeen	-13490
llisessä	-13491
suojelua	-13492
ysistunn	-13493
▁Azzolin	-13494
▁Belengu	-13495
▁Ehdotan	-13496
▁Kenneth	-13497
▁Onneksi	-13498
▁elinikä	-13499
▁kertaan	-13500
▁neuvoja	-13501
▁parhaat	-13502
▁päivinä	-13503
▁päässyt	-13504
▁saattoi	-13505
▁suuruus	-13506
▁takuita	-13507
▁tulevaa	-13508
Britannia	-13509
ntojakson	-13510
paikkojen	-13511
tieteiden	-13512
tulotoivo	-13513
▁1994-199	-13514
▁Cornelis	-13515
▁Kasvilaj	-13516
▁Tietysti	-13517
▁asukasta	-13518
▁esitettä	-13519
▁esitämme	-13520
▁etsimään	-13521
▁hyötyjen	-13522
▁ilmaisee	-13523
▁jatkuvaa	-13524
▁joudumme	-13525
▁joukkoon	-13526
▁julistus	-13527
▁kasvavat	-13528
▁keinojen	-13529
▁kolmella	-13530
▁kussakin	-13531
▁laitteis	-13532
▁mahdolli	-13533
▁merkinnä	-13534
▁minuutin	-13535
▁moitteet	-13536
▁olisikin	-13537
▁pyrkimys	-13538
▁pyyntöön	-13539
▁rinnalla	-13540
▁sisäisiä	-13541
▁taloudel	-13542
▁tarkkoja	-13543
▁tilisiir	-13544
▁tiukkoja	-13545
▁tunnemme	-13546
▁vähäinen	-13547
▁yhteisöt	-13548
eneuvoston	-13549
komiteassa	-13550
prosessiin	-13551
▁Collinsin	-13552
▁Hoppenste	-13553
▁Pyytäisin	-13554
▁ajanjakso	-13555
▁alkuperän	-13556
▁ankarasti	-13557
▁edellinen	-13558
▁englannin	-13559
▁esitettyä	-13560
▁freelance	-13561
▁haavoittu	-13562
▁hoidetaan	-13563
▁keskeisen	-13564
▁laitokset	-13565
▁laivaston	-13566
▁luonnetta	-13567
▁näyttäisi	-13568
▁ongelmana	-13569
▁operaatto	-13570
▁oppositio	-13571
▁painostus	-13572
▁paljastaa	-13573
▁rangaistu	-13574
▁tasavalta	-13575
▁tekeminen	-13576
▁työskenne	-13577
▁tähtäävät	-13578
▁uudenaika	-13579
▁valiokunn	-13580
▁valvomaan	-13581
▁velvoitta	-13582
▁vierailun	-13583
▁viimeistä	-13584
▁väitetään	-13585
▁yrittänyt	-13586
lautakunnan	-13587
tilanteesta	-13588
äänestyksen	-13589
▁Direktiivi	-13590
▁Maastricht	-13591
▁Perustamis	-13592
▁Tällaisten	-13593
▁arvioimaan	-13594
▁asteittain	-13595
▁hakemusten	-13596
▁jokseenkin	-13597
▁käytössään	-13598
▁laatimista	-13599
▁lämpimästi	-13600
▁mietintöni	-13601
▁pakollista	-13602
▁perustelut	-13603
▁pidettävän	-13604
▁pidättäyty	-13605
▁puolueiden	-13606
▁pääosaston	-13607
▁sallinette	-13608
▁sidoksissa	-13609
▁syyskuussa	-13610
▁säännöstön	-13611
▁taaksepäin	-13612
▁tavaroista	-13613
▁tiedettävä	-13614
▁tosiaankin	-13615
ehdotuksessa	-13616
sopimuksesta	-13617
toimenpiteet	-13618
▁Yhtenäisval	-13619
▁aloitettava	-13620
▁erilaisista	-13621
▁haluaisivat	-13622
▁hyväksynnän	-13623
▁kalastajien	-13624
▁kokoontuvat	-13625
▁kokouksesta	-13626
▁poistettava	-13627
▁ratifiointi	-13628
▁säilytetään	-13629
▁todellisten	-13630
▁todellisuus	-13631
▁työntekijää	-13632
▁työskentely	-13633
▁vaikutelman	-13634
▁äänestyssel	-13635
puheenjohtaja	-13636
▁alaisuudessa	-13637
▁arvioinnissa	-13638
▁epätasapaino	-13639
▁hyvinvointia	-13640
▁kannattamaan	-13641
▁kansalaisiin	-13642
▁keskuspankin	-13643
▁keskuspankki	-13644
▁kuluttajalle	-13645
▁käsittelystä	-13646
▁lähtötoimipa	-13647
▁organisaatio	-13648
▁palautettava	-13649
▁tieteellinen	-13650
▁toimielimiin	-13651
▁yhdentyminen	-13652
▁ylimääräisiä	-13653
▁kansallisesta	-13654
▁keskipitkällä	-13655
▁kuljetuksista	-13656
▁mahdollisesta	-13657
▁minkäänlaisia	-13658
▁muodollisesti	-13659
▁oikeusvaltion	-13660
▁palauttaminen	-13661
▁syrjäisimpien	-13662
▁todellisuuden	-13663
▁hallinnollista	-13664
▁käsittelevästä	-13665
▁käyttöönotosta	-13666
▁onnittelemalla	-13667
▁rakentamisessa	-13668
▁tiedotuskampan	-13669
▁välttämättömät	-13670
▁yhdenmukaistaa	-13671
▁yleiskokouksen	-13672
▁jäsenvaltioilta	-13673
▁vaihtoehtoisten	-13674
7,	-13675
Mi	-13676
YK	-13677
rp	-13678
­,	-13679
(97	-13680
RRE	-13681
Weg	-13682
cca	-13683
ill	-13684
läs	-13685
maz	-13686
oni	-13687
pes	-13688
ruu	-13689
ung	-13690
vie	-13691
▁8,	-13692
▁Tr	-13693
▁iä	-13694
6/97	-13695
ITES	-13696
dtin	-13697
inut	-13698
lian	-13699
noin	-13700
oppi	-13701
osuu	-13702
vali	-13703
▁12,	-13704
▁138	-13705
▁Ica	-13706
▁Joh	-13707
▁Sri	-13708
▁Vah	-13709
▁ara	-13710
▁pei	-13711
(95)0	-13712
dulla	-13713
empia	-13714
etoim	-13715
hanke	-13716
histo	-13717
hyödy	-13718
ibian	-13719
immän	-13720
innyt	-13721
jaksi	-13722
listi	-13723
maani	-13724
manin	-13725
manne	-13726
rajan	-13727
riksi	-13728
roris	-13729
talon	-13730
telia	-13731
tikaa	-13732
tiset	-13733
tossa	-13734
ttejä	-13735
tällä	-13736
umero	-13737
uttua	-13738
versi	-13739
vusta	-13740
yrkim	-13741
▁Aika	-13742
▁Mann	-13743
▁Tupa	-13744
▁huna	-13745
▁isku	-13746
▁klas	-13747
▁pelo	-13748
Weggen	-13749
asteen	-13750
htorin	-13751
illeen	-13752
inneet	-13753
iskeli	-13754
ksillä	-13755
liikke	-13756
luokan	-13757
määrät	-13758
puolen	-13759
päivää	-13760
stituu	-13761
suojel	-13762
tenkin	-13763
ttaisi	-13764
ttomia	-13765
työssä	-13766
työstä	-13767
vaikeu	-13768
vuotia	-13769
yttiin	-13770
▁(1985	-13771
▁Alber	-13772
▁Delor	-13773
▁Guine	-13774
▁Mahdo	-13775
▁Mosta	-13776
▁Muuto	-13777
▁Paika	-13778
▁Socra	-13779
▁Ymmär	-13780
▁aines	-13781
▁etusi	-13782
▁kooda	-13783
▁multi	-13784
▁paine	-13785
▁puhea	-13786
▁tekos	-13787
▁tunti	-13788
▁vaiva	-13789
▁valio	-13790
▁vanke	-13791
▁vetoa	-13792
▁vilja	-13793
isemman	-13794
istunto	-13795
kriisin	-13796
luvulla	-13797
sektori	-13798
säännöt	-13799
temaatt	-13800
ttaisin	-13801
tuksien	-13802
tuneita	-13803
vaihtoa	-13804
▁11.00.	-13805
▁Castri	-13806
▁Joskus	-13807
▁Tammik	-13808
▁Täytyy	-13809
▁Vastaa	-13810
▁epäedu	-13811
▁eristä	-13812
▁herkkä	-13813
▁kuului	-13814
▁laajat	-13815
▁lykätä	-13816
▁mittaa	-13817
▁myönsi	-13818
▁opinto	-13819
▁paperi	-13820
▁pienim	-13821
▁status	-13822
▁summia	-13823
▁säilyy	-13824
▁säädet	-13825
▁tuleva	-13826
▁voimaa	-13827
delliset	-13828
edustaja	-13829
llisempi	-13830
mistojen	-13831
muuksien	-13832
ryhmässä	-13833
standard	-13834
ttamatta	-13835
ustetaan	-13836
varoiden	-13837
▁Kumppan	-13838
▁Luonnon	-13839
▁Miranda	-13840
▁Sisältö	-13841
▁Spencer	-13842
▁Theonas	-13843
▁antamaa	-13844
▁hallita	-13845
▁ilmasto	-13846
▁kirjaim	-13847
▁käytety	-13848
▁laatuun	-13849
▁maailma	-13850
▁määrään	-13851
▁nimeltä	-13852
▁onneksi	-13853
▁optimis	-13854
▁tavasta	-13855
▁tekivät	-13856
▁vaaroja	-13857
▁valitus	-13858
▁vihreät	-13859
▁voittoa	-13860
isuutensa	-13861
kysymystä	-13862
ongelmien	-13863
stuksesta	-13864
▁Brinkhor	-13865
▁Daytonin	-13866
▁Fontaine	-13867
▁Giansily	-13868
▁Kanarian	-13869
▁Katsomme	-13870
▁Pyydämme	-13871
▁Vastusta	-13872
▁Väliaika	-13873
▁asetetut	-13874
▁eettisiä	-13875
▁esimerki	-13876
▁estetään	-13877
▁etnisten	-13878
▁etuoikeu	-13879
▁järkeviä	-13880
▁kannalla	-13881
▁kasvusta	-13882
▁kattavat	-13883
▁kulkevat	-13884
▁lisäävät	-13885
▁lukuisat	-13886
▁maaseutu	-13887
▁opetusta	-13888
▁patentoi	-13889
▁puhumaan	-13890
▁rautatie	-13891
▁riippuen	-13892
▁rikoksia	-13893
▁teoreett	-13894
▁toimissa	-13895
▁toisissa	-13896
▁uhreille	-13897
▁veroista	-13898
▁viimeisi	-13899
▁voivansa	-13900
isuuksista	-13901
rahoitusta	-13902
▁Euratomin	-13903
▁PÄÄOSASTO	-13904
▁Tällaiset	-13905
▁Tällaista	-13906
▁Yhteistyö	-13907
▁asetuksia	-13908
▁hallinnan	-13909
▁helmikuun	-13910
▁lausunnot	-13911
▁luopumaan	-13912
▁riskianal	-13913
▁sovittiin	-13914
▁suurempia	-13915
▁suurimmat	-13916
▁tarkentaa	-13917
▁tarkkaava	-13918
▁tekemällä	-13919
▁tuhansien	-13920
▁tutkitaan	-13921
▁unionilta	-13922
▁vaalipiir	-13923
▁vaikeasti	-13924
▁välinpitä	-13925
esityksessä	-13926
markkinoita	-13927
▁Fischlerin	-13928
[...]
